{
  "version": "1.0",
  "truncation": {
    "direction": "Right",
    "max_length": 512,
    "strategy": "LongestFirst",
    "stride": 0
  },
  "padding": {
    "strategy": "BatchLongest",
    "direction": "Right",
    "pad_to_multiple_of": null,
    "pad_id": 0,
    "pad_type_id": 0,
    "pad_token": "<pad>"
  },
  "added_tokens": [
    {
      "id": 0,
      "content": "<unk>",
      "single_word": false,
      "lstrip": false,
      "rstrip": false,
      "normalized": false,
      "special": true
    },
    {
      "id": 1,
      "content": "<sep>",
      "single_word": false,
      "lstrip": false,
      "rstrip": false,
      "normalized": false,
      "special": true
    },
    {
      "id": 2,
      "content": "<mask>",
      "single_word": false,
      "lstrip": false,
      "rstrip": false,
      "normalized": false,
      "special": true
    },
    {
      "id": 3,
      "content": "<pad>",
      "single_word": false,
      "lstrip": false,
      "rstrip": false,
      "normalized": false,
      "special": true
    },
    {
      "id": 4,
      "content": "<s>",
      "single_word": false,
      "lstrip": false,
      "rstrip": false,
      "normalized": false,
      "special": true
    },
    {
      "id": 5,
      "content": "</s>",
      "single_word": false,
      "lstrip": false,
      "rstrip": false,
      "normalized": false,
      "special": true
    }
  ],
  "normalizer": null,
  "pre_tokenizer": {
    "type": "Whitespace"
  },
  "post_processor": {
    "type": "BertProcessing",
    "sep": [
      "</s>",
      5
    ],
    "cls": [
      "<s>",
      4
    ]
  },
  "decoder": null,
  "model": {
    "type": "BPE",
    "dropout": null,
    "unk_token": "<unk>",
    "continuing_subword_prefix": null,
    "end_of_word_suffix": null,
    "fuse_unk": false,
    "byte_fallback": false,
    "vocab": {
      "<unk>": 0,
      "<sep>": 1,
      "<mask>": 2,
      "<pad>": 3,
      "<s>": 4,
      "</s>": 5,
      "!": 6,
      "*": 7,
      "+": 8,
      ",": 9,
      "-": 10,
      "0": 11,
      "1": 12,
      "2": 13,
      "3": 14,
      "4": 15,
      "5": 16,
      "6": 17,
      "7": 18,
      "8": 19,
      "9": 20,
      ":": 21,
      "A": 22,
      "B": 23,
      "C": 24,
      "D": 25,
      "E": 26,
      "I": 27,
      "M": 28,
      "N": 29,
      "O": 30,
      "P": 31,
      "Q": 32,
      "R": 33,
      "T": 34,
      "W": 35,
      "Y": 36,
      "[": 37,
      "]": 38,
      "_": 39,
      "a": 40,
      "b": 41,
      "c": 42,
      "d": 43,
      "e": 44,
      "f": 45,
      "g": 46,
      "h": 47,
      "i": 48,
      "j": 49,
      "k": 50,
      "l": 51,
      "m": 52,
      "n": 53,
      "o": 54,
      "p": 55,
      "r": 56,
      "s": 57,
      "t": 58,
      "u": 59,
      "v": 60,
      "w": 61,
      "x": 62,
      "z": 63,
      "0x": 64,
      "ax": 65,
      "mo": 66,
      "mov": 67,
      "bp": 68,
      "rbp": 69,
      "PT": 70,
      "PTR": 71,
      "rax": 72,
      "OR": 73,
      "WOR": 74,
      "WORD": 75,
      "eax": 76,
      "QWORD": 77,
      "di": 78,
      "rs": 79,
      "0x1": 80,
      "lc": 81,
      "ea": 82,
      "lea": 83,
      "rsp": 84,
      "us": 85,
      "],": 86,
      "0x0": 87,
      "al": 88,
      "0x10": 89,
      "op": 90,
      "dx": 91,
      "cal": 92,
      "rdi": 93,
      "call": 94,
      "st": 95,
      "0x4": 96,
      "0x8": 97,
      "0x2": 98,
      "et": 99,
      "nop": 100,
      "ret": 101,
      "pus": 102,
      "push": 103,
      "_st": 104,
      "rdx": 105,
      "0x3": 106,
      "rsi": 107,
      "DWORD": 108,
      "su": 109,
      "sub": 110,
      "ed": 111,
      "IO": 112,
      "_us": 113,
      "_IO": 114,
      "n_us": 115,
      "ve": 116,
      "din_us": 117,
      "leave": 118,
      "_stdin_us": 119,
      "_IO_stdin_us": 120,
      "_IO_stdin_used": 121,
      "in": 122,
      "ff": 123,
      "pr": 124,
      "tf": 125,
      "intf": 126,
      "printf": 127,
      "dd": 128,
      "add": 129,
      "je": 130,
      "mp": 131,
      "edi": 132,
      ",[": 133,
      "BY": 134,
      "TE": 135,
      "BYTE": 136,
      "cx": 137,
      "0x28": 138,
      "edx": 139,
      "or": 140,
      "xor": 141,
      "es": 142,
      "rcx": 143,
      "0x38": 144,
      "esi": 145,
      "cmp": 146,
      "nd": 147,
      "0xc": 148,
      "movs": 149,
      "0x20": 150,
      "0x40": 151,
      "est": 152,
      "fs": 153,
      "jmp": 154,
      "k_": 155,
      "test": 156,
      "0x14": 157,
      "0x30": 158,
      "ffff": 159,
      "64": 160,
      "__": 161,
      "cs": 162,
      "pop": 163,
      "zx": 164,
      "movzx": 165,
      "lc8": 166,
      "lc1": 167,
      "lc3": 168,
      "lc2": 169,
      "lc7": 170,
      "lc5": 171,
      "lc4": 172,
      "lc9": 173,
      "lc0": 174,
      "lc6": 175,
      "da": 176,
      "]!": 177,
      "ar": 178,
      "br": 179,
      "ch": 180,
      "end": 181,
      "gi": 182,
      "is": 183,
      "m0": 184,
      "mm0": 185,
      "xdi": 186,
      "xmm0": 187,
      "0x18": 188,
      "movsx": 189,
      "br64": 190,
      "endbr64": 191,
      "git": 192,
      "xdigit": 193,
      "16": 194,
      "ae": 195,
      "fa": 196,
      "ac": 197,
      "a16": 198,
      "__st": 199,
      "and": 200,
      "il": 201,
      "jae": 202,
      "sh": 203,
      "sar": 204,
      "ts": 205,
      "ta16": 206,
      "0x5": 207,
      "0x1f": 208,
      "0x2b": 209,
      "0xc1": 210,
      "0xc2": 211,
      "k_ch": 212,
      "k_fa": 213,
      "data16": 214,
      "ack_ch": 215,
      "__stack_ch": 216,
      "k_fail": 217,
      "__stack_chk_fail": 218,
      "78": 219,
      "8d": 220,
      "ca": 221,
      "0x4c": 222,
      "C_": 223,
      "D__": 224,
      "EN": 225,
      "MC_": 226,
      "TMC_": 227,
      "dl": 228,
      "ebp": 229,
      "ecx": 230,
      "nf": 231,
      "pu": 232,
      "r8d": 233,
      "sca": 234,
      "wxdigit": 235,
      "0x25": 236,
      "0x2f": 237,
      "movsd": 238,
      "ffffffff": 239,
      "__TMC_": 240,
      "isxdigit": 241,
      "iswxdigit": 242,
      "shr": 243,
      "0x54": 244,
      "END__": 245,
      "puts": 246,
      "scanf": 247,
      "__TMC_END__": 248,
      "0x42": 249,
      "e0": 250,
      "f0": 251,
      "bc": 252,
      "d9": 253,
      "0x4d": 254,
      "fff0": 255,
      "2s": 256,
      "AM": 257,
      "DY": 258,
      "IC": 259,
      "NAM": 260,
      "_m": 261,
      "_DY": 262,
      "ain": 263,
      "cv": 264,
      "hl": 265,
      "ibc": 266,
      "jn": 267,
      "libc": 268,
      "r9": 269,
      "rand": 270,
      "sw": 271,
      "sscanf": 272,
      "s2s": 273,
      "t_m": 274,
      "wprintf": 275,
      "xch": 276,
      "0xda": 277,
      "0xffffffff": 278,
      "0xd9": 279,
      "0x1c": 280,
      "0x1e0": 281,
      "0x21": 282,
      "0x2a": 283,
      "_star": 284,
      "0x35": 285,
      "0x3a": 286,
      "0x3e": 287,
      "0x3f": 288,
      "movss": 289,
      "fffffff0": 290,
      "__libc": 291,
      "shl": 292,
      "tss2s": 293,
      "0x51": 294,
      "NAMIC": 295,
      "_DYNAMIC": 296,
      "cvtss2s": 297,
      "hlt": 298,
      "jne": 299,
      "swscanf": 300,
      "t_main": 301,
      "xchg": 302,
      "0xfffffffffffffff0": 303,
      "_start_main": 304,
      "__libc_start_main": 305,
      "cvtss2sd": 306,
      "0x406": 307,
      "0x404": 308,
      "0x405": 309,
      "0x41": 310,
      "38": 311,
      "28": 312,
      "70": 313,
      "20": 314,
      "50": 315,
      "98": 316,
      "90": 317,
      "40": 318,
      "10": 319,
      "30": 320,
      "68": 321,
      "18": 322,
      "58": 323,
      "48": 324,
      "60": 325,
      "80": 326,
      "88": 327,
      "77": 328,
      "74": 329,
      "76": 330,
      "72": 331,
      "08": 332,
      "73": 333,
      "75": 334,
      "71": 335,
      "34": 336,
      "32": 337,
      "36": 338,
      "84": 339,
      "39": 340,
      "35": 341,
      "92": 342,
      "31": 343,
      "79": 344,
      "99": 345,
      "93": 346,
      "89": 347,
      "00": 348,
      "95": 349,
      "12": 350,
      "54": 351,
      "37": 352,
      "01": 353,
      "91": 354,
      "85": 355,
      "86": 356,
      "87": 357,
      "62": 358,
      "97": 359,
      "11": 360,
      "82": 361,
      "07": 362,
      "17": 363,
      "96": 364,
      "94": 365,
      "24": 366,
      "83": 367,
      "51": 368,
      "22": 369,
      "03": 370,
      "55": 371,
      "05": 372,
      "02": 373,
      "57": 374,
      "33": 375,
      "56": 376,
      "61": 377,
      "27": 378,
      "52": 379,
      "81": 380,
      "15": 381,
      "59": 382,
      "09": 383,
      "29": 384,
      "26": 385,
      "67": 386,
      "19": 387,
      "23": 388,
      "65": 389,
      "14": 390,
      "21": 391,
      "04": 392,
      "25": 393,
      "13": 394,
      "06": 395,
      "53": 396,
      "lc64": 397,
      "63": 398,
      "66": 399,
      "69": 400,
      "44": 401,
      "47": 402,
      "41": 403,
      "45": 404,
      "49": 405,
      "43": 406,
      "42": 407,
      "46": 408,
      "0x4063": 409,
      "e8": 410,
      "a0": 411,
      "b0": 412,
      "c0": 413,
      "0x43": 414,
      "e78": 415,
      "d0": 416,
      "b8": 417,
      "d8": 418,
      "0x404b": 419,
      "c8": 420,
      "c78": 421,
      "0x407": 422,
      "ee8": 423,
      "a78": 424,
      "0x405ee8": 425,
      "0x44": 426,
      "a8": 427,
      "f8": 428,
      "0x404e": 429,
      "0x40a": 430,
      "278": 431,
      "0x4044": 432,
      "678": 433,
      "0x40b": 434,
      "0x404ba0": 435,
      "0x406c": 436,
      "478": 437,
      "0x406b": 438,
      "0x4077": 439,
      "0x4078": 440,
      "0x4051": 441,
      "0x4047": 442,
      "0x40c": 443,
      "0x4059": 444,
      "0x409": 445,
      "0x408": 446,
      "0x4058": 447,
      "0x404f": 448,
      "0x4052": 449,
      "0x406f": 450,
      "lc532": 451,
      "0x40e": 452,
      "lc699": 453,
      "0x4050": 454,
      "lc117": 455,
      "lc107": 456,
      "lc286": 457,
      "lc339": 458,
      "lc450": 459,
      "lc561": 460,
      "lc105": 461,
      "lc526": 462,
      "lc855": 463,
      "lc551": 464,
      "lc157": 465,
      "lc244": 466,
      "lc232": 467,
      "lc235": 468,
      "lc852": 469,
      "lc249": 470,
      "lc530": 471,
      "lc151": 472,
      "lc328": 473,
      "lc661": 474,
      "lc325": 475,
      "lc345": 476,
      "lc868": 477,
      "lc254": 478,
      "lc372": 479,
      "lc518": 480,
      "lc758": 481,
      "lc707": 482,
      "lc470": 483,
      "lc717": 484,
      "lc864": 485,
      "lc365": 486,
      "lc430": 487,
      "lc038": 488,
      "lc565": 489,
      "lc147": 490,
      "lc300": 491,
      "lc200": 492,
      "lc048": 493,
      "lc088": 494,
      "lc877": 495,
      "lc453": 496,
      "lc929": 497,
      "lc395": 498,
      "lc766": 499,
      "lc402": 500,
      "lc040": 501,
      "lc630": 502,
      "lc193": 503,
      "lc710": 504,
      "lc741": 505,
      "lc504": 506,
      "lc239": 507,
      "lc736": 508,
      "lc654": 509,
      "lc116": 510,
      "lc299": 511,
      "0x404c": 512,
      "lc694": 513,
      "lc536": 514,
      "lc428": 515,
      "lc862": 516,
      "lc653": 517,
      "lc787": 518,
      "lc516": 519,
      "lc463": 520,
      "lc290": 521,
      "lc072": 522,
      "lc101": 523,
      "lc311": 524,
      "lc346": 525,
      "lc985": 526,
      "lc903": 527,
      "lc241": 528,
      "lc501": 529,
      "lc867": 530,
      "lc572": 531,
      "lc036": 532,
      "lc192": 533,
      "lc524": 534,
      "0x404d": 535,
      "lc674": 536,
      "lc881": 537,
      "lc547": 538,
      "lc921": 539,
      "lc875": 540,
      "lc017": 541,
      "lc650": 542,
      "lc824": 543,
      "lc399": 544,
      "lc356": 545,
      "lc931": 546,
      "lc698": 547,
      "lc109": 548,
      "lc141": 549,
      "lc620": 550,
      "lc359": 551,
      "lc273": 552,
      "lc605": 553,
      "lc889": 554,
      "lc298": 555,
      "lc222": 556,
      "lc012": 557,
      "lc603": 558,
      "lc682": 559,
      "lc874": 560,
      "lc001": 561,
      "lc352": 562,
      "lc681": 563,
      "lc144": 564,
      "lc291": 565,
      "lc427": 566,
      "lc645": 567,
      "lc175": 568,
      "lc873": 569,
      "lc331": 570,
      "lc341": 571,
      "lc951": 572,
      "lc027": 573,
      "lc322": 574,
      "lc711": 575,
      "lc791": 576,
      "lc462": 577,
      "lc203": 578,
      "lc733": 579,
      "lc472": 580,
      "lc600": 581,
      "lc823": 582,
      "lc011": 583,
      "0x416": 584,
      "lc853": 585,
      "lc911": 586,
      "lc026": 587,
      "lc660": 588,
      "lc801": 589,
      "lc184": 590,
      "lc297": 591,
      "0x40d": 592,
      "lc383": 593,
      "lc827": 594,
      "lc212": 595,
      "lc030": 596,
      "lc033": 597,
      "lc819": 598,
      "lc557": 599,
      "lc255": 600,
      "lc478": 601,
      "lc637": 602,
      "lc303": 603,
      "lc550": 604,
      "lc849": 605,
      "lc199": 606,
      "lc609": 607,
      "lc831": 608,
      "lc285": 609,
      "lc563": 610,
      "lc443": 611,
      "lc573": 612,
      "lc584": 613,
      "lc113": 614,
      "lc809": 615,
      "lc216": 616,
      "lc534": 617,
      "lc612": 618,
      "lc231": 619,
      "lc747": 620,
      "lc608": 621,
      "lc145": 622,
      "lc251": 623,
      "lc727": 624,
      "lc090": 625,
      "lc092": 626,
      "lc195": 627,
      "lc340": 628,
      "lc754": 629,
      "lc416": 630,
      "lc407": 631,
      "lc808": 632,
      "lc883": 633,
      "lc334": 634,
      "lc210": 635,
      "lc657": 636,
      "lc112": 637,
      "lc795": 638,
      "lc628": 639,
      "lc360": 640,
      "lc201": 641,
      "lc939": 642,
      "lc924": 643,
      "lc173": 644,
      "lc735": 645,
      "lc010": 646,
      "lc281": 647,
      "lc740": 648,
      "lc538": 649,
      "lc537": 650,
      "lc495": 651,
      "lc124": 652,
      "lc315": 653,
      "lc507": 654,
      "lc912": 655,
      "lc724": 656,
      "lc562": 657,
      "lc945": 658,
      "lc183": 659,
      "lc989": 660,
      "lc842": 661,
      "lc178": 662,
      "lc207": 663,
      "lc923": 664,
      "lc673": 665,
      "lc659": 666,
      "lc860": 667,
      "lc730": 668,
      "lc456": 669,
      "lc848": 670,
      "lc785": 671,
      "lc554": 672,
      "lc452": 673,
      "lc580": 674,
      "lc138": 675,
      "lc734": 676,
      "lc527": 677,
      "lc059": 678,
      "lc655": 679,
      "lc385": 680,
      "lc319": 681,
      "lc743": 682,
      "lc429": 683,
      "lc992": 684,
      "lc878": 685,
      "lc800": 686,
      "lc574": 687,
      "lc683": 688,
      "lc306": 689,
      "lc282": 690,
      "lc474": 691,
      "lc445": 692,
      "lc137": 693,
      "lc940": 694,
      "lc636": 695,
      "lc375": 696,
      "lc362": 697,
      "lc700": 698,
      "lc578": 699,
      "lc861": 700,
      "lc708": 701,
      "lc962": 702,
      "lc312": 703,
      "lc467": 704,
      "lc837": 705,
      "lc176": 706,
      "lc796": 707,
      "lc460": 708,
      "lc854": 709,
      "lc284": 710,
      "lc229": 711,
      "lc728": 712,
      "lc750": 713,
      "lc822": 714,
      "lc384": 715,
      "lc714": 716,
      "lc579": 717,
      "lc476": 718,
      "lc031": 719,
      "lc280": 720,
      "lc378": 721,
      "lc884": 722,
      "lc102": 723,
      "lc374": 724,
      "lc234": 725,
      "lc487": 726,
      "lc725": 727,
      "lc459": 728,
      "lc086": 729,
      "lc314": 730,
      "lc744": 731,
      "lc549": 732,
      "lc980": 733,
      "lc937": 734,
      "lc080": 735,
      "lc189": 736,
      "lc257": 737,
      "lc629": 738,
      "lc332": 739,
      "lc964": 740,
      "lc975": 741,
      "lc077": 742,
      "lc071": 743,
      "lc134": 744,
      "lc739": 745,
      "lc002": 746,
      "lc602": 747,
      "lc826": 748,
      "lc276": 749,
      "lc575": 750,
      "lc871": 751,
      "lc350": 752,
      "lc792": 753,
      "lc438": 754,
      "lc436": 755,
      "lc631": 756,
      "lc802": 757,
      "lc106": 758,
      "lc679": 759,
      "lc887": 760,
      "lc388": 761,
      "lc417": 762,
      "lc198": 763,
      "lc357": 764,
      "lc123": 765,
      "lc917": 766,
      "lc008": 767,
      "lc164": 768,
      "lc128": 769,
      "lc196": 770,
      "lc308": 771,
      "lc333": 772,
      "lc294": 773,
      "lc566": 774,
      "lc847": 775,
      "lc593": 776,
      "lc089": 777,
      "lc006": 778,
      "lc110": 779,
      "lc168": 780,
      "lc391": 781,
      "lc218": 782,
      "lc269": 783,
      "lc765": 784,
      "lc512": 785,
      "lc996": 786,
      "lc029": 787,
      "lc049": 788,
      "lc161": 789,
      "lc115": 790,
      "lc709": 791,
      "lc418": 792,
      "lc062": 793,
      "lc005": 794,
      "lc649": 795,
      "lc738": 796,
      "lc567": 797,
      "lc820": 798,
      "lc825": 799,
      "lc120": 800,
      "lc242": 801,
      "lc935": 802,
      "lc064": 803,
      "lc073": 804,
      "lc892": 805,
      "lc170": 806,
      "lc272": 807,
      "lc556": 808,
      "lc074": 809,
      "lc034": 810,
      "lc046": 811,
      "lc898": 812,
      "lc716": 813,
      "lc576": 814,
      "lc076": 815,
      "lc355": 816,
      "lc715": 817,
      "lc587": 818,
      "lc419": 819,
      "lc610": 820,
      "lc618": 821,
      "lc662": 822,
      "lc834": 823,
      "lc111": 824,
      "lc705": 825,
      "lc544": 826,
      "lc955": 827,
      "lc142": 828,
      "lc367": 829,
      "lc400": 830,
      "lc749": 831,
      "lc484": 832,
      "lc684": 833,
      "lc283": 834,
      "lc021": 835,
      "lc013": 836,
      "lc675": 837,
      "lc720": 838,
      "lc685": 839,
      "lc324": 840,
      "lc211": 841,
      "lc798": 842,
      "lc433": 843,
      "lc965": 844,
      "lc621": 845,
      "lc885": 846,
      "lc125": 847,
      "lc248": 848,
      "lc919": 849,
      "lc047": 850,
      "lc680": 851,
      "lc830": 852,
      "lc670": 853,
      "lc784": 854,
      "lc545": 855,
      "lc444": 856,
      "lc928": 857,
      "lc601": 858,
      "lc947": 859,
      "lc672": 860,
      "lc171": 861,
      "lc485": 862,
      "lc469": 863,
      "lc052": 864,
      "lc129": 865,
      "lc240": 866,
      "lc719": 867,
      "lc497": 868,
      "lc963": 869,
      "lc633": 870,
      "lc829": 871,
      "lc473": 872,
      "lc686": 873,
      "lc301": 874,
      "lc344": 875,
      "lc278": 876,
      "lc888": 877,
      "lc380": 878,
      "lc078": 879,
      "lc032": 880,
      "lc658": 881,
      "lc863": 882,
      "lc287": 883,
      "lc535": 884,
      "lc909": 885,
      "lc943": 886,
      "lc841": 887,
      "lc752": 888,
      "lc440": 889,
      "lc976": 890,
      "lc100": 891,
      "lc397": 892,
      "lc568": 893,
      "lc596": 894,
      "lc920": 895,
      "lc905": 896,
      "lc647": 897,
      "lc174": 898,
      "lc318": 899,
      "lc994": 900,
      "lc821": 901,
      "lc571": 902,
      "lc295": 903,
      "lc261": 904,
      "lc434": 905,
      "lc666": 906,
      "lc279": 907,
      "lc757": 908,
      "lc505": 909,
      "lc879": 910,
      "lc274": 911,
      "lc900": 912,
      "lc061": 913,
      "lc172": 914,
      "lc326": 915,
      "lc237": 916,
      "lc703": 917,
      "lc420": 918,
      "lc219": 919,
      "lc493": 920,
      "lc934": 921,
      "lc899": 922,
      "lc817": 923,
      "lc401": 924,
      "lc984": 925,
      "lc897": 926,
      "lc845": 927,
      "lc762": 928,
      "lc409": 929,
      "lc446": 930,
      "lc079": 931,
      "lc316": 932,
      "lc398": 933,
      "lc381": 934,
      "lc586": 935,
      "lc990": 936,
      "lc022": 937,
      "lc664": 938,
      "lc840": 939,
      "lc132": 940,
      "lc185": 941,
      "lc343": 942,
      "lc296": 943,
      "lc455": 944,
      "lc413": 945,
      "lc051": 946,
      "lc004": 947,
      "lc667": 948,
      "lc481": 949,
      "lc982": 950,
      "lc959": 951,
      "lc690": 952,
      "lc611": 953,
      "lc220": 954,
      "lc954": 955,
      "lc014": 956,
      "lc180": 957,
      "lc377": 958,
      "lc393": 959,
      "lc569": 960,
      "lc936": 961,
      "lc039": 962,
      "lc856": 963,
      "lc373": 964,
      "lc317": 965,
      "lc718": 966,
      "lc789": 967,
      "lc756": 968,
      "lc623": 969,
      "lc614": 970,
      "lc882": 971,
      "lc471": 972,
      "lc907": 973,
      "lc957": 974,
      "lc967": 975,
      "lc678": 976,
      "lc676": 977,
      "lc671": 978,
      "lc233": 979,
      "lc451": 980,
      "lc969": 981,
      "lc642": 982,
      "lc805": 983,
      "lc348": 984,
      "lc302": 985,
      "lc215": 986,
      "lc782": 987,
      "lc477": 988,
      "lc999": 989,
      "lc177": 990,
      "lc392": 991,
      "lc389": 992,
      "lc208": 993,
      "lc721": 994,
      "lc577": 995,
      "lc511": 996,
      "lc914": 997,
      "lc890": 998,
      "lc160": 999,
      "lc197": 1000,
      "lc386": 1001,
      "lc252": 1002,
      "lc968": 1003,
      "lc435": 1004,
      "lc913": 1005,
      "lc833": 1006,
      "lc289": 1007,
      "lc793": 1008,
      "lc701": 1009,
      "lc489": 1010,
      "lc376": 1011,
      "lc732": 1012,
      "lc583": 1013,
      "lc553": 1014,
      "lc122": 1015,
      "lc794": 1016,
      "lc415": 1017,
      "lc015": 1018,
      "lc044": 1019,
      "lc167": 1020,
      "lc368": 1021,
      "lc491": 1022,
      "lc995": 1023,
      "lc156": 1024,
      "lc159": 1025,
      "lc238": 1026,
      "lc139": 1027,
      "lc135": 1028,
      "lc972": 1029,
      "lc859": 1030,
      "lc270": 1031,
      "lc790": 1032,
      "lc423": 1033,
      "lc922": 1034,
      "lc915": 1035,
      "lc966": 1036,
      "lc093": 1037,
      "lc019": 1038,
      "lc043": 1039,
      "lc807": 1040,
      "lc421": 1041,
      "lc953": 1042,
      "lc003": 1043,
      "lc520": 1044,
      "lc515": 1045,
      "lc960": 1046,
      "lc098": 1047,
      "lc832": 1048,
      "lc866": 1049,
      "lc150": 1050,
      "lc755": 1051,
      "lc411": 1052,
      "lc337": 1053,
      "lc009": 1054,
      "lc638": 1055,
      "lc689": 1056,
      "lc613": 1057,
      "lc187": 1058,
      "lc354": 1059,
      "lc396": 1060,
      "lc202": 1061,
      "lc651": 1062,
      "lc640": 1063,
      "lc370": 1064,
      "lc543": 1065,
      "lc461": 1066,
      "lc095": 1067,
      "lc108": 1068,
      "lc764": 1069,
      "lc558": 1070,
      "lc499": 1071,
      "lc441": 1072,
      "lc987": 1073,
      "lc037": 1074,
      "0x4067": 1075,
      "lc589": 1076,
      "lc320": 1077,
      "lc564": 1078,
      "lc616": 1079,
      "lc843": 1080,
      "lc751": 1081,
      "lc523": 1082,
      "lc812": 1083,
      "lc347": 1084,
      "lc644": 1085,
      "lc394": 1086,
      "lc265": 1087,
      "lc206": 1088,
      "lc598": 1089,
      "lc971": 1090,
      "lc949": 1091,
      "lc697": 1092,
      "lc810": 1093,
      "lc264": 1094,
      "lc742": 1095,
      "lc483": 1096,
      "lc130": 1097,
      "lc179": 1098,
      "lc382": 1099,
      "lc227": 1100,
      "lc475": 1101,
      "lc432": 1102,
      "lc961": 1103,
      "lc063": 1104,
      "lc869": 1105,
      "lc191": 1106,
      "lc143": 1107,
      "lc236": 1108,
      "lc799": 1109,
      "lc786": 1110,
      "lc594": 1111,
      "lc555": 1112,
      "lc941": 1113,
      "lc663": 1114,
      "lc974": 1115,
      "lc056": 1116,
      "lc688": 1117,
      "lc335": 1118,
      "lc723": 1119,
      "lc126": 1120,
      "lc114": 1121,
      "lc149": 1122,
      "lc358": 1123,
      "lc773": 1124,
      "lc099": 1125,
      "lc050": 1126,
      "lc828": 1127,
      "lc256": 1128,
      "lc745": 1129,
      "lc084": 1130,
      "lc839": 1131,
      "lc811": 1132,
      "lc154": 1133,
      "lc323": 1134,
      "lc615": 1135,
      "lc918": 1136,
      "lc816": 1137,
      "lc277": 1138,
      "lc513": 1139,
      "lc403": 1140,
      "lc668": 1141,
      "lc693": 1142,
      "lc908": 1143,
      "0x40f": 1144,
      "lc155": 1145,
      "lc779": 1146,
      "lc541": 1147,
      "lc998": 1148,
      "lc387": 1149,
      "lc342": 1150,
      "lc447": 1151,
      "lc054": 1152,
      "lc087": 1153,
      "lc622": 1154,
      "lc746": 1155,
      "lc480": 1156,
      "lc687": 1157,
      "lc626": 1158,
      "lc803": 1159,
      "lc148": 1160,
      "lc783": 1161,
      "lc514": 1162,
      "lc439": 1163,
      "lc097": 1164,
      "lc007": 1165,
      "lc656": 1166,
      "lc844": 1167,
      "lc404": 1168,
      "lc449": 1169,
      "lc865": 1170,
      "lc190": 1171,
      "lc230": 1172,
      "lc788": 1173,
      "lc722": 1174,
      "lc412": 1175,
      "lc775": 1176,
      "lc797": 1177,
      "lc648": 1178,
      "lc194": 1179,
      "lc991": 1180,
      "lc902": 1181,
      "lc221": 1182,
      "lc926": 1183,
      "lc850": 1184,
      "lc163": 1185,
      "lc262": 1186,
      "lc933": 1187,
      "lc652": 1188,
      "lc858": 1189,
      "lc942": 1190,
      "lc857": 1191,
      "lc836": 1192,
      "lc305": 1193,
      "lc247": 1194,
      "lc950": 1195,
      "lc804": 1196,
      "lc581": 1197,
      "lc426": 1198,
      "lc639": 1199,
      "lc304": 1200,
      "lc560": 1201,
      "lc488": 1202,
      "lc981": 1203,
      "lc024": 1204,
      "lc634": 1205,
      "lc669": 1206,
      "lc559": 1207,
      "lc546": 1208,
      "lc454": 1209,
      "lc927": 1210,
      "lc081": 1211,
      "lc737": 1212,
      "lc075": 1213,
      "lc094": 1214,
      "0x4076": 1215,
      "lc886": 1216,
      "lc162": 1217,
      "lc119": 1218,
      "lc260": 1219,
      "lc539": 1220,
      "lc617": 1221,
      "lc136": 1222,
      "lc288": 1223,
      "lc275": 1224,
      "lc204": 1225,
      "lc225": 1226,
      "lc704": 1227,
      "lc058": 1228,
      "lc635": 1229,
      "lc336": 1230,
      "lc271": 1231,
      "lc205": 1232,
      "lc916": 1233,
      "lc321": 1234,
      "lc776": 1235,
      "lc646": 1236,
      "lc895": 1237,
      "lc121": 1238,
      "lc592": 1239,
      "lc408": 1240,
      "lc422": 1241,
      "lc465": 1242,
      "lc993": 1243,
      "lc876": 1244,
      "lc777": 1245,
      "lc771": 1246,
      "lc813": 1247,
      "lc702": 1248,
      "lc983": 1249,
      "lc818": 1250,
      "lc814": 1251,
      "lc390": 1252,
      "lc590": 1253,
      "lc665": 1254,
      "lc140": 1255,
      "lc267": 1256,
      "lc158": 1257,
      "lc127": 1258,
      "lc293": 1259,
      "lc531": 1260,
      "lc525": 1261,
      "lc930": 1262,
      "lc338": 1263,
      "lc214": 1264,
      "lc748": 1265,
      "lc606": 1266,
      "lc182": 1267,
      "lc760": 1268,
      "lc761": 1269,
      "lc692": 1270,
      "lc778": 1271,
      "lc585": 1272,
      "lc431": 1273,
      "lc152": 1274,
      "lc369": 1275,
      "lc246": 1276,
      "lc528": 1277,
      "lc466": 1278,
      "lc977": 1279,
      "lc625": 1280,
      "lc424": 1281,
      "0x4057": 1282,
      "lc023": 1283,
      "lc292": 1284,
      "lc209": 1285,
      "lc769": 1286,
      "lc496": 1287,
      "lc970": 1288,
      "lc988": 1289,
      "lc979": 1290,
      "lc070": 1291,
      "lc169": 1292,
      "lc695": 1293,
      "lc780": 1294,
      "lc925": 1295,
      "lc028": 1296,
      "lc891": 1297,
      "lc597": 1298,
      "lc188": 1299,
      "lc266": 1300,
      "lc759": 1301,
      "lc815": 1302,
      "lc492": 1303,
      "lc053": 1304,
      "lc500": 1305,
      "lc519": 1306,
      "lc482": 1307,
      "lc041": 1308,
      "lc309": 1309,
      "lc706": 1310,
      "lc464": 1311,
      "lc510": 1312,
      "lc542": 1313,
      "lc437": 1314,
      "lc442": 1315,
      "0x4064": 1316,
      "lc258": 1317,
      "lc243": 1318,
      "lc406": 1319,
      "lc166": 1320,
      "lc213": 1321,
      "lc901": 1322,
      "lc624": 1323,
      "lc643": 1324,
      "lc307": 1325,
      "lc880": 1326,
      "lc731": 1327,
      "lc767": 1328,
      "lc057": 1329,
      "lc503": 1330,
      "lc405": 1331,
      "lc627": 1332,
      "lc250": 1333,
      "lc506": 1334,
      "lc978": 1335,
      "lc870": 1336,
      "lc103": 1337,
      "lc245": 1338,
      "lc712": 1339,
      "lc973": 1340,
      "lc018": 1341,
      "lc067": 1342,
      "lc691": 1343,
      "lc045": 1344,
      "lc838": 1345,
      "lc082": 1346,
      "lc042": 1347,
      "lc641": 1348,
      "lc896": 1349,
      "lc835": 1350,
      "lc522": 1351,
      "lc494": 1352,
      "lc768": 1353,
      "lc458": 1354,
      "lc986": 1355,
      "lc588": 1356,
      "lc607": 1357,
      "lc946": 1358,
      "lc353": 1359,
      "lc582": 1360,
      "lc498": 1361,
      "lc035": 1362,
      "lc181": 1363,
      "lc508": 1364,
      "lc893": 1365,
      "lc224": 1366,
      "lc379": 1367,
      "lc713": 1368,
      "lc448": 1369,
      "lc906": 1370,
      "lc131": 1371,
      "lc872": 1372,
      "lc851": 1373,
      "lc371": 1374,
      "lc068": 1375,
      "lc729": 1376,
      "lc763": 1377,
      "lc066": 1378,
      "lc104": 1379,
      "lc468": 1380,
      "lc310": 1381,
      "lc958": 1382,
      "lc952": 1383,
      "lc016": 1384,
      "lc772": 1385,
      "lc268": 1386,
      "lc217": 1387,
      "lc065": 1388,
      "lc364": 1389,
      "lc363": 1390,
      "lc540": 1391,
      "lc591": 1392,
      "lc083": 1393,
      "lc509": 1394,
      "lc025": 1395,
      "lc313": 1396,
      "lc806": 1397,
      "lc781": 1398,
      "lc548": 1399,
      "lc948": 1400,
      "lc632": 1401,
      "lc223": 1402,
      "lc533": 1403,
      "lc118": 1404,
      "0x4048": 1405,
      "0x404a": 1406,
      "lc956": 1407,
      "lc186": 1408,
      "lc351": 1409,
      "lc361": 1410,
      "lc774": 1411,
      "lc595": 1412,
      "lc330": 1413,
      "lc146": 1414,
      "lc910": 1415,
      "lc944": 1416,
      "lc060": 1417,
      "lc414": 1418,
      "lc425": 1419,
      "lc521": 1420,
      "lc894": 1421,
      "lc846": 1422,
      "lc226": 1423,
      "lc570": 1424,
      "lc410": 1425,
      "lc096": 1426,
      "lc517": 1427,
      "lc770": 1428,
      "lc490": 1429,
      "lc619": 1430,
      "lc604": 1431,
      "lc479": 1432,
      "lc997": 1433,
      "lc329": 1434,
      "lc486": 1435,
      "lc677": 1436,
      "lc165": 1437,
      "lc259": 1438,
      "lc253": 1439,
      "lc753": 1440,
      "lc366": 1441,
      "lc020": 1442,
      "lc904": 1443,
      "lc327": 1444,
      "lc938": 1445,
      "0x404428": 1446,
      "lc085": 1447,
      "lc932": 1448,
      "lc069": 1449,
      "lc457": 1450,
      "lc552": 1451,
      "lc055": 1452,
      "lc153": 1453,
      "lc726": 1454,
      "lc091": 1455,
      "lc599": 1456,
      "lc502": 1457,
      "0x4070": 1458,
      "lc228": 1459,
      "lc349": 1460,
      "lc529": 1461,
      "0x4049": 1462,
      "lc696": 1463,
      "lc263": 1464,
      "lc133": 1465,
      "0x4068": 1466,
      "0x4074": 1467,
      "0x406d": 1468,
      "0x4069": 1469,
      "0x405a": 1470,
      "0x4072": 1471,
      "0x4071": 1472,
      "0x4063c0": 1473,
      "0x4073": 1474,
      "0x4065": 1475,
      "0x406a": 1476,
      "0x4066": 1477,
      "0x4075": 1478,
      "0x405748": 1479,
      "0x4063b8": 1480,
      "0x4060": 1481,
      "0x404eb0": 1482,
      "0x4063c8": 1483,
      "0x412": 1484,
      "0x4052d0": 1485,
      "0x405838": 1486,
      "0x405c": 1487,
      "0x4046": 1488,
      "0x41a": 1489,
      "0x407b": 1490,
      "f38": 1491,
      "0x4063d0": 1492,
      "0x41b": 1493,
      "0x410": 1494,
      "0x4063b0": 1495,
      "c078": 1496,
      "0x413": 1497,
      "0x4051a0": 1498,
      "0x41d": 1499,
      "0x406e": 1500,
      "0x404b40": 1501,
      "0x4053": 1502,
      "0x4056": 1503,
      "0x4059b0": 1504,
      "0x4079": 1505,
      "0x41c": 1506,
      "0x4062": 1507,
      "a078": 1508,
      "0x411": 1509,
      "0x417": 1510,
      "0x419": 1511,
      "0x405e78": 1512,
      "0x41e": 1513,
      "0x404f10": 1514,
      "0x42c": 1515,
      "0x414": 1516,
      "0x4063d8": 1517,
      "0x405c78": 1518,
      "0x430": 1519,
      "d078": 1520,
      "0x407a": 1521,
      "0x404928": 1522,
      "0x41f": 1523,
      "0x42f": 1524,
      "f078": 1525,
      "9078": 1526,
      "0x404e0": 1527,
      "0x438": 1528,
      "0x434": 1529,
      "0x418": 1530,
      "0x415": 1531,
      "0x404420": 1532,
      "0x432": 1533,
      "0x42b": 1534,
      "8078": 1535,
      "0x448": 1536,
      "0x4063a8": 1537,
      "0x404a28": 1538,
      "0x404858": 1539,
      "e078": 1540,
      "f08": 1541,
      "0x4093": 1542,
      "b078": 1543,
      "0x440": 1544,
      "0x43e": 1545,
      "0x4091": 1546,
      "0x42d": 1547,
      "0x42e": 1548,
      "f40": 1549,
      "078": 1550,
      "0x405e": 1551,
      "4078": 1552,
      "0x435": 1553,
      "3078": 1554,
      "0x404ec0": 1555,
      "0x4098": 1556,
      "1078": 1557,
      "0x408b": 1558,
      "0x431": 1559,
      "2078": 1560,
      "0x404b98": 1561,
      "0x408d": 1562,
      "0x422": 1563,
      "0x424": 1564,
      "5078": 1565,
      "0x405a78": 1566,
      "0x405078": 1567,
      "0x42a": 1568,
      "0x404ee8": 1569,
      "780": 1570,
      "0x43c": 1571,
      "0x439": 1572,
      "0x405d": 1573,
      "7078": 1574,
      "0x404768": 1575,
      "0x406078": 1576,
      "0x43a": 1577,
      "0x43d": 1578,
      "0x404ea": 1579,
      "0x4096": 1580,
      "0x405f": 1581,
      "0x4051a8": 1582,
      "0x40c078": 1583,
      "0x4055": 1584,
      "0x43f": 1585,
      "0x436": 1586,
      "9278": 1587,
      "0x405b": 1588,
      "0x43b": 1589,
      "0x4061": 1590,
      "0x4097": 1591,
      "dd8": 1592,
      "0x444": 1593,
      "8478": 1594,
      "0x4043": 1595,
      "0x405278": 1596,
      "0x404770": 1597,
      "380": 1598,
      "dd0": 1599,
      "0x404e78": 1600,
      "0x420": 1601,
      "0x44b": 1602,
      "0x4099": 1603,
      "0x429": 1604,
      "8678": 1605,
      "0x4059c0": 1606,
      "0x404e08": 1607,
      "0x427": 1608,
      "8278": 1609,
      "0x407278": 1610,
      "0x423": 1611,
      "0x404f08": 1612,
      "0x4095": 1613,
      "0x421": 1614,
      "f878": 1615,
      "0x405840": 1616,
      "0x404c70": 1617,
      "0078": 1618,
      "0x404b90": 1619,
      "0x406d68": 1620,
      "0x4059a0": 1621,
      "0x4063e0": 1622,
      "0x406278": 1623,
      "c878": 1624,
      "0x4089": 1625,
      "0x40a078": 1626,
      "0x4045": 1627,
      "0x4054": 1628,
      "0x40d078": 1629,
      "388": 1630,
      "0x406b88": 1631,
      "0x407878": 1632,
      "ae78": 1633,
      "0x426": 1634,
      "bc0": 1635,
      "a878": 1636,
      "878": 1637,
      "ea78": 1638,
      "0x405678": 1639,
      "d878": 1640,
      "0x404e50": 1641,
      "0x40e078": 1642,
      "6078": 1643,
      "9478": 1644,
      "0x404ea8": 1645,
      "bc78": 1646,
      "5878": 1647,
      "0x404780": 1648,
      "0x405478": 1649,
      "0x408078": 1650,
      "0x428": 1651,
      "0x4063a0": 1652,
      "0x409b": 1653,
      "0x406f70": 1654,
      "0x447": 1655,
      "0x40f078": 1656,
      "0x406678": 1657,
      "0x414078": 1658,
      "b878": 1659,
      "0x425": 1660,
      "280": 1661,
      "0478": 1662,
      "0x40b078": 1663,
      "0x44c": 1664,
      "0x411078": 1665,
      "708": 1666,
      "0x409d": 1667,
      "0x405878": 1668,
      "0x406478": 1669,
      "508": 1670,
      "308": 1671,
      "0x44a": 1672,
      "0x40a5": 1673,
      "2878": 1674,
      "188": 1675,
      "580": 1676,
      "0x40ab": 1677,
      "0x404dc8": 1678,
      "0x406878": 1679,
      "f18": 1680,
      "ed8": 1681,
      "0x406e78": 1682,
      "0x406a78": 1683,
      "0x404dd0": 1684,
      "e878": 1685,
      "3878": 1686,
      "108": 1687,
      "fa8": 1688,
      "bc8": 1689,
      "0x406c78": 1690,
      "0x404cd8": 1691,
      "0x404e00": 1692,
      "0x408278": 1693,
      "ca0": 1694,
      "0x415078": 1695,
      "908": 1696,
      "0x40a1": 1697,
      "0x407678": 1698,
      "640": 1699,
      "4878": 1700,
      "0x406398": 1701,
      "0x40b3": 1702,
      "0x407078": 1703,
      "0x407478": 1704,
      "0x409078": 1705,
      "6478": 1706,
      "ae0": 1707,
      "ca78": 1708,
      "0x413078": 1709,
      "3478": 1710,
      "0x416078": 1711,
      "fa78": 1712,
      "788": 1713,
      "0x407e78": 1714,
      "0x409678": 1715,
      "0x410478": 1716,
      "3278": 1717,
      "0x409878": 1718,
      "f50": 1719,
      "0x442": 1720,
      "648": 1721,
      "680": 1722,
      "3678": 1723,
      "0x406368": 1724,
      "0x406370": 1725,
      "b38": 1726,
      "f28": 1727,
      "180": 1728,
      "0x406390": 1729,
      "0x406758": 1730,
      "f20": 1731,
      "d98": 1732,
      "0x40a3": 1733,
      "ac78": 1734,
      "0x406dd8": 1735,
      "0x412078": 1736,
      "7478": 1737,
      "0x407a78": 1738,
      "da78": 1739,
      "7878": 1740,
      "f00": 1741,
      "288": 1742,
      "688": 1743,
      "b08": 1744,
      "0x409278": 1745,
      "0x408678": 1746,
      "0x410078": 1747,
      "208": 1748,
      "5478": 1749,
      "0x407c78": 1750,
      "0x40a478": 1751,
      "0x409c78": 1752,
      "0x433": 1753,
      "fa0": 1754,
      "e00": 1755,
      "0x419078": 1756,
      "988": 1757,
      "0x406cf8": 1758,
      "0x4092": 1759,
      "0x41c078": 1760,
      "980": 1761,
      "488": 1762,
      "0x40a9": 1763,
      "0x40b5": 1764,
      "f98": 1765,
      "f80": 1766,
      "0x417078": 1767,
      "0x40a678": 1768,
      "0x406c88": 1769,
      "0x40ec78": 1770,
      "ff0": 1771,
      "0x418078": 1772,
      "8878": 1773,
      "0x406360": 1774,
      "0x4077c8": 1775,
      "0x408c78": 1776,
      "1678": 1777,
      "0x406380": 1778,
      "0x41d078": 1779,
      "9878": 1780,
      "400": 1781,
      "1878": 1782,
      "2278": 1783,
      "4678": 1784,
      "0x406c90": 1785,
      "0x404c68": 1786,
      "168": 1787,
      "d90": 1788,
      "600": 1789,
      "0x406378": 1790,
      "0x404758": 1791,
      "0x406958": 1792,
      "0x445": 1793,
      "500": 1794,
      "0x404698": 1795,
      "0x407b40": 1796,
      "ca8": 1797,
      "480": 1798,
      "0x40a278": 1799,
      "0x40c3": 1800,
      "0x412f": 1801,
      "0x4085": 1802,
      "0x406388": 1803,
      "0278": 1804,
      "d38": 1805,
      "f88": 1806,
      "0x446": 1807,
      "0x4087": 1808,
      "0x408478": 1809,
      "0x40c878": 1810,
      "0x40ae78": 1811,
      "0x409478": 1812,
      "ae8": 1813,
      "8d8": 1814,
      "0x41a078": 1815,
      "200": 1816,
      "100": 1817,
      "1278": 1818,
      "0x40a7": 1819,
      "0x40b1": 1820,
      "0x40b278": 1821,
      "0x4077b8": 1822,
      "0x408a78": 1823,
      "fd8": 1824,
      "0x40ba78": 1825,
      "0x406be0": 1826,
      "0x40e678": 1827,
      "0x40d7": 1828,
      "0x4056c8": 1829,
      "b20": 1830,
      "da0": 1831,
      "0x42f078": 1832,
      "0x414878": 1833,
      "608": 1834,
      "7278": 1835,
      "0x40fc78": 1836,
      "0x4046a0": 1837,
      "0x437": 1838,
      "0x441": 1839,
      "0x443": 1840,
      "ff8": 1841,
      "0x40ff": 1842,
      "0x413878": 1843,
      "7678": 1844,
      "5678": 1845,
      "0x40ad": 1846,
      "0x404460": 1847,
      "0x404e28": 1848,
      "0x413a78": 1849,
      "0x419e78": 1850,
      "d28": 1851,
      "fc0": 1852,
      "0x4080": 1853,
      "0x40f878": 1854,
      "ac0": 1855,
      "5278": 1856,
      "0x406358": 1857,
      "0x40c678": 1858,
      "ed0": 1859,
      "0x40ea78": 1860,
      "0x4042": 1861,
      "0x419278": 1862,
      "900": 1863,
      "0x406bd8": 1864,
      "0x40cc78": 1865,
      "0x40d278": 1866,
      "b18": 1867,
      "0x4081": 1868,
      "0x422078": 1869,
      "e08": 1870,
      "0x4106": 1871,
      "0x40b678": 1872,
      "0x406be8": 1873,
      "0x409e78": 1874,
      "0x4043d8": 1875,
      "b28": 1876,
      "b10": 1877,
      "f90": 1878,
      "0x449": 1879,
      "ac8": 1880,
      "0x41f078": 1881,
      "0x418478": 1882,
      "0x414678": 1883,
      "700": 1884,
      "2478": 1885,
      "4478": 1886,
      "0x410a78": 1887,
      "0x4482": 1888,
      "0x40ca78": 1889,
      "da8": 1890,
      "160": 1891,
      "0x427078": 1892,
      "0x413278": 1893,
      "588": 1894,
      "0x408e78": 1895,
      "0x404a20": 1896,
      "0x406a20": 1897,
      "0x412c78": 1898,
      "0x40d878": 1899,
      "0x423078": 1900,
      "0x420078": 1901,
      "6878": 1902,
      "1478": 1903,
      "0x4077c0": 1904,
      "0x404778": 1905,
      "0x404760": 1906,
      "0x404ea0": 1907,
      "0x40fa78": 1908,
      "0x407c": 1909,
      "0x40e9": 1910,
      "0x40dc78": 1911,
      "0x405d28": 1912,
      "f48": 1913,
      "0x426078": 1914,
      "0x404a78": 1915,
      "808": 1916,
      "0878": 1917,
      "0x40b7": 1918,
      "0x407818": 1919,
      "0x40c1": 1920,
      "b88": 1921,
      "bd8": 1922,
      "ea0": 1923,
      "0x40dd": 1924,
      "0x4090": 1925,
      "0x4094": 1926,
      "0x4083": 1927,
      "0x40a878": 1928,
      "0x424078": 1929,
      "0x4142": 1930,
      "0x415878": 1931,
      "0x413478": 1932,
      "0x415478": 1933,
      "2678": 1934,
      "0x446078": 1935,
      "0x40aa78": 1936,
      "0x406c30": 1937,
      "0x406bf0": 1938,
      "0x4077d8": 1939,
      "0x40c278": 1940,
      "0x40fe78": 1941,
      "0x405740": 1942,
      "0x41b478": 1943,
      "0x410e78": 1944,
      "0x4053a8": 1945,
      "0x4056d0": 1946,
      "0x411a78": 1947,
      "0x4086": 1948,
      "0x40bc78": 1949,
      "0x40e878": 1950,
      "0x408878": 1951,
      "0x413678": 1952,
      "0x410278": 1953,
      "300": 1954,
      "0x404eb8": 1955,
      "0x40b478": 1956,
      "0x4077d0": 1957,
      "0x40c5": 1958,
      "0x40f3": 1959,
      "0x406630": 1960,
      "0x41be78": 1961,
      "f70": 1962,
      "0x40ac78": 1963,
      "0x406bc0": 1964,
      "0x41f878": 1965,
      "0x412878": 1966,
      "0x411278": 1967,
      "0x40b9": 1968,
      "0x40be78": 1969,
      "0x406c40": 1970,
      "0x406cb0": 1971,
      "0x406bf8": 1972,
      "0x407740": 1973,
      "0x406fd8": 1974,
      "0x40ee78": 1975,
      "0x40d478": 1976,
      "0x40f7": 1977,
      "0x4066d8": 1978,
      "0x412a78": 1979,
      "0x41ba78": 1980,
      "0x413c78": 1981,
      "0x409150": 1982,
      "a90": 1983,
      "ee0": 1984,
      "0x40a0": 1985,
      "0x40c0": 1986,
      "0x406e00": 1987,
      "0x4135": 1988,
      "0x41b078": 1989,
      "0x406b38": 1990,
      "0x4077f0": 1991,
      "0x407820": 1992,
      "0x407810": 1993,
      "0x40ce78": 1994,
      "0x4059b8": 1995,
      "0x404de0": 1996,
      "0x416678": 1997,
      "0x405a58": 1998,
      "0x41d278": 1999,
      "a68": 2000,
      "e70": 2001,
      "f68": 2002,
      "0x40b878": 2003,
      "0x42c078": 2004,
      "0x428078": 2005,
      "0x421078": 2006,
      "0x425078": 2007,
      "0x41e078": 2008,
      "408": 2009,
      "800": 2010,
      "0x406c38": 2011,
      "0x406c48": 2012,
      "0x406c00": 2013,
      "0x406cc8": 2014,
      "0x407738": 2015,
      "0x407808": 2016,
      "0x407800": 2017,
      "0x409c": 2018,
      "0x40e5": 2019,
      "0x40f478": 2020,
      "0x404a30": 2021,
      "0x406848": 2022,
      "0x430078": 2023,
      "0x434278": 2024,
      "0x43aa78": 2025,
      "610": 2026,
      "d08": 2027,
      "fc8": 2028,
      "0x42a078": 2029,
      "0x422878": 2030,
      "0x4117": 2031,
      "0x4103": 2032,
      "0x412278": 2033,
      "0x43c078": 2034,
      "0x43a078": 2035,
      "0x40b2": 2036,
      "0x40bb": 2037,
      "0x406c08": 2038,
      "0x4077b0": 2039,
      "0x406f10": 2040,
      "0x40d3": 2041,
      "0x406798": 2042,
      "0x40f278": 2043,
      "0x405a68": 2044,
      "0x4046a8": 2045,
      "0x438878": 2046,
      "0x410678": 2047,
      "690": 2048,
      "738": 2049,
      "fd0": 2050,
      "fb8": 2051,
      "0x4082": 2052,
      "0x40da78": 2053,
      "8d0": 2054,
      "0x42e078": 2055,
      "0x41ff": 2056,
      "0x4137": 2057,
      "0x4107": 2058,
      "0x4157": 2059,
      "0x41b878": 2060,
      "0x435878": 2061,
      "0x40b4": 2062,
      "0x405170": 2063,
      "0x406f98": 2064,
      "0x40e478": 2065,
      "0x416278": 2066,
      "0x40de78": 2067,
      "0x40f9": 2068,
      "0x407328": 2069,
      "0x412e78": 2070,
      "0x419c78": 2071,
      "0x409350": 2072,
      "b50": 2073,
      "0x40f0": 2074,
      "0x40b8": 2075,
      "0x404f00": 2076,
      "0x41bc78": 2077,
      "0x416478": 2078,
      "888": 2079,
      "000": 2080,
      "9678": 2081,
      "0x404450": 2082,
      "0x407798": 2083,
      "0x4077e8": 2084,
      "0x407840": 2085,
      "0x404750": 2086,
      "0x40c9": 2087,
      "0x408bc8": 2088,
      "0x404628": 2089,
      "0x410c78": 2090,
      "0x413e78": 2091,
      "0x406218": 2092,
      "0x414c78": 2093,
      "0x415a78": 2094,
      "0x409550": 2095,
      "138": 2096,
      "320": 2097,
      "a88": 2098,
      "b40": 2099,
      "d20": 2100,
      "e20": 2101,
      "ec8": 2102,
      "f60": 2103,
      "0x4127": 2104,
      "0x4141": 2105,
      "0x412478": 2106,
      "0x404e10": 2107,
      "0x4077f8": 2108,
      "0x404790": 2109,
      "0x40c7": 2110,
      "0x408a": 2111,
      "0x40e7": 2112,
      "0x40f5": 2113,
      "0x4048c8": 2114,
      "0x405a40": 2115,
      "0x405c68": 2116,
      "0x404690": 2117,
      "0x4056a8": 2118,
      "0x42be78": 2119,
      "5a0": 2120,
      "c90": 2121,
      "d18": 2122,
      "e10": 2123,
      "eb8": 2124,
      "f30": 2125,
      "ea8": 2126,
      "0x40ed": 2127,
      "0x40e8": 2128,
      "0x42b078": 2129,
      "0x404648": 2130,
      "0x4139": 2131,
      "0x418678": 2132,
      "0x433078": 2133,
      "0x40ba": 2134,
      "0x4077e0": 2135,
      "0x404748": 2136,
      "0x40c478": 2137,
      "0x4067f8": 2138,
      "0x4076b8": 2139,
      "0x406928": 2140,
      "0x405c60": 2141,
      "0x41ce78": 2142,
      "0x417e78": 2143,
      "0x417a78": 2144,
      "0x42ce78": 2145,
      "0x414e78": 2146,
      "0x409348": 2147,
      "0x408d80": 2148,
      "0x4080d8": 2149,
      "0x414278": 2150,
      "1c0": 2151,
      "5d8": 2152,
      "b98": 2153,
      "b68": 2154,
      "c38": 2155,
      "f78": 2156,
      "0x40ae": 2157,
      "0x40ac": 2158,
      "0x40d9": 2159,
      "0x4084": 2160,
      "0x428478": 2161,
      "0x42d878": 2162,
      "0x426878": 2163,
      "0x406288": 2164,
      "0x411878": 2165,
      "0x406c80": 2166,
      "0x406b80": 2167,
      "0x407898": 2168,
      "0x408f38": 2169,
      "0x4052d8": 2170,
      "0x416c78": 2171,
      "0x416878": 2172,
      "0x404898": 2173,
      "0x407120": 2174,
      "0x406590": 2175,
      "0x406638": 2176,
      "0x4066b8": 2177,
      "0x42f278": 2178,
      "0x415e78": 2179,
      "0x440878": 2180,
      "0x408d78": 2181,
      "0x427c78": 2182,
      "938": 2183,
      "c88": 2184,
      "e88": 2185,
      "0x40da": 2186,
      "0x40e0": 2187,
      "0x40b0": 2188,
      "0x4262": 2189,
      "0x429078": 2190,
      "0x42ea78": 2191,
      "0x405208": 2192,
      "0x4187": 2193,
      "0x4145": 2194,
      "0x41fa78": 2195,
      "0x417278": 2196,
      "0x417678": 2197,
      "0x415678": 2198,
      "0x414478": 2199,
      "0x410878": 2200,
      "6678": 2201,
      "0x434078": 2202,
      "0x4477": 2203,
      "0x404e20": 2204,
      "0x404e30": 2205,
      "0x404ef8": 2206,
      "0x406c98": 2207,
      "0x406b48": 2208,
      "0x406f48": 2209,
      "0x406fc0": 2210,
      "0x404de8": 2211,
      "0x40d678": 2212,
      "0x406728": 2213,
      "0x40f4": 2214,
      "0x4076e0": 2215,
      "0x406968": 2216,
      "0x405a90": 2217,
      "0x406578": 2218,
      "0x406558": 2219,
      "0x4066f0": 2220,
      "0x405c38": 2221,
      "0x405c70": 2222,
      "0x405c90": 2223,
      "0x41a678": 2224,
      "0x409338": 2225,
      "0x409148": 2226,
      "0x448268": 2227,
      "5e8": 2228,
      "ad8": 2229,
      "be8": 2230,
      "bb0": 2231,
      "bb8": 2232,
      "bf8": 2233,
      "de0": 2234,
      "dc8": 2235,
      "e90": 2236,
      "fe0": 2237,
      "0x40ca": 2238,
      "0x40d0": 2239,
      "0x40c8": 2240,
      "0x42d9": 2241,
      "0x4235": 2242,
      "0x428678": 2243,
      "0x427478": 2244,
      "0x406648": 2245,
      "0x404678": 2246,
      "0x4100": 2247,
      "0x4155": 2248,
      "0x4113": 2249,
      "0x41a878": 2250,
      "0x417478": 2251,
      "0x417878": 2252,
      "0x406350": 2253,
      "0x4063e8": 2254,
      "0x407508": 2255,
      "0x404ef0": 2256,
      "0x404e38": 2257,
      "0x406c28": 2258,
      "0x407828": 2259,
      "0x409a": 2260,
      "0x409a78": 2261,
      "0x404f48": 2262,
      "0x406fe8": 2263,
      "0x40e278": 2264,
      "0x4165": 2265,
      "0x406730": 2266,
      "0x407628": 2267,
      "0x4076a8": 2268,
      "0x407010": 2269,
      "0x407018": 2270,
      "0x405a50": 2271,
      "0x407198": 2272,
      "0x407190": 2273,
      "0x407330": 2274,
      "0x41a3": 2275,
      "0x41f678": 2276,
      "0x41f478": 2277,
      "0x418fa8": 2278,
      "0x409548": 2279,
      "128": 2280,
      "190": 2281,
      "b30": 2282,
      "b48": 2283,
      "c20": 2284,
      "c18": 2285,
      "e18": 2286,
      "0x40fa": 2287,
      "0x40d8": 2288,
      "0x4287": 2289,
      "0x406580": 2290,
      "0x406980": 2291,
      "0x4131": 2292,
      "0x4195": 2293,
      "0x4185": 2294,
      "0x4115": 2295,
      "0x4159": 2296,
      "0x4149": 2297,
      "0x418278": 2298,
      "0x411678": 2299,
      "0x415278": 2300,
      "0x411478": 2301,
      "0x412678": 2302,
      "0x432078": 2303,
      "0x437078": 2304,
      "0x43a878": 2305,
      "0x437878": 2306,
      "0x407708": 2307,
      "0x407ed8": 2308,
      "0x404e48": 2309,
      "0x404470": 2310,
      "0x40b6": 2311,
      "0x40bd": 2312,
      "0x406bd0": 2313,
      "0x404f18": 2314,
      "0x406f18": 2315,
      "0x40e3": 2316,
      "0x4163": 2317,
      "0x4067f0": 2318,
      "0x407058": 2319,
      "0x406838": 2320,
      "0x407460": 2321,
      "0x407128": 2322,
      "0x4071e8": 2323,
      "0x406550": 2324,
      "0x4066c0": 2325,
      "0x407510": 2326,
      "0x4053a0": 2327,
      "0x41c478": 2328,
      "0x418e78": 2329,
      "0x42e478": 2330,
      "0x420e78": 2331,
      "0x4054f8": 2332,
      "120": 2333,
      "130": 2334,
      "410": 2335,
      "590": 2336,
      "668": 2337,
      "a28": 2338,
      "b78": 2339,
      "d30": 2340,
      "e40": 2341,
      "ef8": 2342,
      "fe8": 2343,
      "0x40ea": 2344,
      "0x4215": 2345,
      "0x42d078": 2346,
      "0x426478": 2347,
      "0x421678": 2348,
      "0x406ff0": 2349,
      "0x404640": 2350,
      "0x43ff": 2351,
      "0x407680": 2352,
      "0x404e80": 2353,
      "0x404458": 2354,
      "0x404448": 2355,
      "0x406c18": 2356,
      "0x406f50": 2357,
      "0x405070": 2358,
      "0x405088": 2359,
      "0x404d10": 2360,
      "0x416a78": 2361,
      "0x406748": 2362,
      "0x4067e8": 2363,
      "0x40f678": 2364,
      "0x406480": 2365,
      "0x406408": 2366,
      "0x4074d0": 2367,
      "0x406d28": 2368,
      "0x406d70": 2369,
      "0x406990": 2370,
      "0x406960": 2371,
      "0x405a98": 2372,
      "0x405a48": 2373,
      "0x407150": 2374,
      "0x406a18": 2375,
      "0x407528": 2376,
      "0x4075a8": 2377,
      "0x405c98": 2378,
      "0x41e9": 2379,
      "0x41e678": 2380,
      "0x438078": 2381,
      "0x440078": 2382,
      "0x422e78": 2383,
      "0x424c78": 2384,
      "0x426e78": 2385,
      "5f0": 2386,
      "a10": 2387,
      "a00": 2388,
      "bf0": 2389,
      "cd8": 2390,
      "cc8": 2391,
      "fb0": 2392,
      "0x40bc": 2393,
      "0x4201": 2394,
      "0x429478": 2395,
      "0x423478": 2396,
      "0x424478": 2397,
      "0x406708": 2398,
      "0x406ca0": 2399,
      "0x406788": 2400,
      "0x406ca8": 2401,
      "0x404ca0": 2402,
      "0x405100": 2403,
      "0x418d": 2404,
      "0x4197": 2405,
      "0x4123": 2406,
      "0x4143": 2407,
      "0x419478": 2408,
      "0x406310": 2409,
      "0x406348": 2410,
      "0x43e078": 2411,
      "0x436078": 2412,
      "0x407380": 2413,
      "0x407108": 2414,
      "0x404e68": 2415,
      "0x40a2": 2416,
      "0x406c20": 2417,
      "0x406b68": 2418,
      "0x407870": 2419,
      "0x407880": 2420,
      "0x4059d0": 2421,
      "0x408f40": 2422,
      "0x404f20": 2423,
      "0x406f20": 2424,
      "0x40e2": 2425,
      "0x404d38": 2426,
      "0x404d70": 2427,
      "0x404d20": 2428,
      "0x404d50": 2429,
      "0x404d60": 2430,
      "0x404d08": 2431,
      "0x406738": 2432,
      "0x406790": 2433,
      "0x4067a0": 2434,
      "0x407670": 2435,
      "0x407620": 2436,
      "0x406498": 2437,
      "0x4068e8": 2438,
      "0x406d50": 2439,
      "0x407138": 2440,
      "0x407158": 2441,
      "0x407148": 2442,
      "0x406540": 2443,
      "0x4065d8": 2444,
      "0x406a28": 2445,
      "0x406a58": 2446,
      "0x407518": 2447,
      "0x405c58": 2448,
      "0x41d678": 2449,
      "0x4056c0": 2450,
      "0x41c3": 2451,
      "0x411e78": 2452,
      "0x42c478": 2453,
      "0x418c78": 2454,
      "0x432e78": 2455,
      "0x409170": 2456,
      "0x408d38": 2457,
      "0x427e78": 2458,
      "0x408528": 2459,
      "118": 2460,
      "b90": 2461,
      "ba8": 2462,
      "d40": 2463,
      "f10": 2464,
      "f58": 2465,
      "0x4a": 2466,
      "0x4249": 2467,
      "0x4242": 2468,
      "0x425478": 2469,
      "0x429878": 2470,
      "0x420278": 2471,
      "0x425678": 2472,
      "0x425278": 2473,
      "0x406508": 2474,
      "0x406d98": 2475,
      "0x404ed8": 2476,
      "0x4140": 2477,
      "0x4148": 2478,
      "0x4105": 2479,
      "0x4125": 2480,
      "0x41ae78": 2481,
      "0x41e878": 2482,
      "0x41da78": 2483,
      "0x419678": 2484,
      "0x431078": 2485,
      "0x435078": 2486,
      "0x407280": 2487,
      "0x407640": 2488,
      "0x407788": 2489,
      "0x44c078": 2490,
      "0x44d078": 2491,
      "0x449078": 2492,
      "0x44c878": 2493,
      "0x446478": 2494,
      "0x406cb8": 2495,
      "0x406b18": 2496,
      "0x407868": 2497,
      "0x4078a8": 2498,
      "0x406fd0": 2499,
      "0x405060": 2500,
      "0x404ce8": 2501,
      "0x404d18": 2502,
      "0x404d58": 2503,
      "0x416e78": 2504,
      "0x406720": 2505,
      "0x406430": 2506,
      "0x4064f8": 2507,
      "0x4070e8": 2508,
      "0x4070d0": 2509,
      "0x407440": 2510,
      "0x407468": 2511,
      "0x406d20": 2512,
      "0x406d60": 2513,
      "0x405a38": 2514,
      "0x405a88": 2515,
      "0x405aa0": 2516,
      "0x407338": 2517,
      "0x407398": 2518,
      "0x4073c0": 2519,
      "0x406a30": 2520,
      "0x406a88": 2521,
      "0x4066d0": 2522,
      "0x407530": 2523,
      "0x404670": 2524,
      "0x41a278": 2525,
      "0x41b678": 2526,
      "0x41d3": 2527,
      "0x411c78": 2528,
      "0x41e478": 2529,
      "0x42c9": 2530,
      "0x414a78": 2531,
      "0x42fc78": 2532,
      "0x405ef0": 2533,
      "0x435c78": 2534,
      "0x444278": 2535,
      "0x44b478": 2536,
      "0x408728": 2537,
      "0x408128": 2538,
      "198": 2539,
      "140": 2540,
      "5c0": 2541,
      "a18": 2542,
      "be0": 2543,
      "c70": 2544,
      "c68": 2545,
      "c58": 2546,
      "cb0": 2547,
      "df0": 2548,
      "d00": 2549,
      "db8": 2550,
      "e98": 2551,
      "eb0": 2552,
      "0x46": 2553,
      "0x4205": 2554,
      "0x4267": 2555,
      "0x4241": 2556,
      "0x423278": 2557,
      "0x406908": 2558,
      "0x406688": 2559,
      "0x404ae0": 2560,
      "0x404da0": 2561,
      "0x41ac": 2562,
      "0x4120": 2563,
      "0x4118": 2564,
      "0x4101": 2565,
      "0x4183": 2566,
      "0x4181": 2567,
      "0x4129": 2568,
      "0x4144": 2569,
      "0x4147": 2570,
      "0x406330": 2571,
      "0x433878": 2572,
      "0x437278": 2573,
      "0x407188": 2574,
      "0x407908": 2575,
      "0x407180": 2576,
      "0x407500": 2577,
      "0x404e18": 2578,
      "0x406b30": 2579,
      "0x407838": 2580,
      "0x407830": 2581,
      "0x407860": 2582,
      "0x4059c8": 2583,
      "0x404fe0": 2584,
      "0x404f70": 2585,
      "0x404f60": 2586,
      "0x404fb8": 2587,
      "0x406f38": 2588,
      "0x406fb8": 2589,
      "0x405068": 2590,
      "0x4050a0": 2591,
      "0x404df8": 2592,
      "0x406750": 2593,
      "0x407698": 2594,
      "0x407660": 2595,
      "0x4076c0": 2596,
      "0x406458": 2597,
      "0x406840": 2598,
      "0x406818": 2599,
      "0x406860": 2600,
      "0x407438": 2601,
      "0x407450": 2602,
      "0x4074d8": 2603,
      "0x406df0": 2604,
      "0x406978": 2605,
      "0x406920": 2606,
      "0x405a30": 2607,
      "0x405a18": 2608,
      "0x407220": 2609,
      "0x4073e8": 2610,
      "0x406618": 2611,
      "0x407598": 2612,
      "0x404638": 2613,
      "0x41a9": 2614,
      "0x407b58": 2615,
      "0x41dc78": 2616,
      "0x406e98": 2617,
      "0x41c278": 2618,
      "0x417c78": 2619,
      "0x415c78": 2620,
      "0x440a78": 2621,
      "0x405ee0": 2622,
      "0x435e78": 2623,
      "0x408d70": 2624,
      "0x408d50": 2625,
      "0x43fc78": 2626,
      "0x405bf0": 2627,
      "0x43b678": 2628,
      "0x423c78": 2629,
      "0x408978": 2630,
      "0x40a150": 2631,
      "0x408618": 2632,
      "5e0": 2633,
      "a80": 2634,
      "c28": 2635,
      "c40": 2636,
      "c48": 2637,
      "cd0": 2638,
      "cb8": 2639,
      "d10": 2640,
      "d88": 2641,
      "e28": 2642,
      "e68": 2643,
      "0x4289": 2644,
      "0x4295": 2645,
      "0x4212": 2646,
      "0x4297": 2647,
      "0x4225": 2648,
      "0x420478": 2649,
      "0x424678": 2650,
      "0x406dd0": 2651,
      "0x406308": 2652,
      "0x406ed8": 2653,
      "0x406ff8": 2654,
      "0x404c78": 2655,
      "0x404d98": 2656,
      "0x404ac8": 2657,
      "0x41ed": 2658,
      "0x4116": 2659,
      "0x4178": 2660,
      "0x4133": 2661,
      "0x41ea78": 2662,
      "0x406340": 2663,
      "0x4337": 2664,
      "0x43f078": 2665,
      "0x43ae78": 2666,
      "0x43d878": 2667,
      "0x43e878": 2668,
      "0x404b00": 2669,
      "0x407688": 2670,
      "0x44a078": 2671,
      "0x44b078": 2672,
      "0x449878": 2673,
      "0x406c70": 2674,
      "0x406b28": 2675,
      "0x406b50": 2676,
      "0x407728": 2677,
      "0x407790": 2678,
      "0x4077a8": 2679,
      "0x407890": 2680,
      "0x407848": 2681,
      "0x4078a0": 2682,
      "0x4078d8": 2683,
      "0x40c4": 2684,
      "0x409188": 2685,
      "0x404f90": 2686,
      "0x404f68": 2687,
      "0x404fc0": 2688,
      "0x404fc8": 2689,
      "0x405250": 2690,
      "0x406f28": 2691,
      "0x406f40": 2692,
      "0x406f58": 2693,
      "0x406f80": 2694,
      "0x405038": 2695,
      "0x405018": 2696,
      "0x4050b0": 2697,
      "0x404d68": 2698,
      "0x404d88": 2699,
      "0x404db0": 2700,
      "0x4067d8": 2701,
      "0x407690": 2702,
      "0x407630": 2703,
      "0x404870": 2704,
      "0x404ab8": 2705,
      "0x407050": 2706,
      "0x4070d8": 2707,
      "0x404958": 2708,
      "0x406828": 2709,
      "0x4068c8": 2710,
      "0x4068f8": 2711,
      "0x406dc8": 2712,
      "0x407110": 2713,
      "0x407130": 2714,
      "0x4071a0": 2715,
      "0x4071d8": 2716,
      "0x407310": 2717,
      "0x4073b8": 2718,
      "0x4073c8": 2719,
      "0x406538": 2720,
      "0x406530": 2721,
      "0x406560": 2722,
      "0x4065b0": 2723,
      "0x406a50": 2724,
      "0x406a10": 2725,
      "0x407590": 2726,
      "0x4060b8": 2727,
      "0x407b98": 2728,
      "0x407b90": 2729,
      "0x41de78": 2730,
      "0x41d478": 2731,
      "0x406e70": 2732,
      "0x406e68": 2733,
      "0x406e60": 2734,
      "0x405360": 2735,
      "0x41ec78": 2736,
      "0x407a20": 2737,
      "0x407a60": 2738,
      "0x41fc78": 2739,
      "0x41f278": 2740,
      "0x409340": 2741,
      "0x409368": 2742,
      "0x42dc78": 2743,
      "0x42d478": 2744,
      "0x42e278": 2745,
      "0x408b88": 2746,
      "0x43a678": 2747,
      "0x409670": 2748,
      "0x405f10": 2749,
      "0x409950": 2750,
      "0x427a78": 2751,
      "0x4045c0": 2752,
      "0x40a550": 2753,
      "2d8": 2754,
      "538": 2755,
      "598": 2756,
      "5d0": 2757,
      "6b0": 2758,
      "748": 2759,
      "998": 2760,
      "af0": 2761,
      "a98": 2762,
      "aa0": 2763,
      "b60": 2764,
      "c10": 2765,
      "c80": 2766,
      "ce8": 2767,
      "d50": 2768,
      "d48": 2769,
      "ec0": 2770,
      "0x4283": 2771,
      "0x429278": 2772,
      "0x423678": 2773,
      "0x421878": 2774,
      "0x422278": 2775,
      "0x420878": 2776,
      "0x426678": 2777,
      "0x406f08": 2778,
      "0x406988": 2779,
      "0x406600": 2780,
      "0x406ea0": 2781,
      "0x406ea8": 2782,
      "0x4041": 2783,
      "0x404dd8": 2784,
      "0x404ca8": 2785,
      "0x404ae8": 2786,
      "0x405000": 2787,
      "0x4164": 2788,
      "0x4180": 2789,
      "0x4199": 2790,
      "0x4182": 2791,
      "0x41d878": 2792,
      "0x418878": 2793,
      "0x419878": 2794,
      "0x4368": 2795,
      "0x439078": 2796,
      "0x407388": 2797,
      "0x407288": 2798,
      "0x407608": 2799,
      "0x407900": 2800,
      "0x407700": 2801,
      "0x442078": 2802,
      "0x445078": 2803,
      "0x44bc78": 2804,
      "0x404e98": 2805,
      "0x404e60": 2806,
      "0x404ec8": 2807,
      "0x40a610": 2808,
      "0x406c58": 2809,
      "0x406cc0": 2810,
      "0x406cd0": 2811,
      "0x406b20": 2812,
      "0x407770": 2813,
      "0x407710": 2814,
      "0x407768": 2815,
      "0x407758": 2816,
      "0x407888": 2817,
      "0x4051b0": 2818,
      "0x4051c0": 2819,
      "0x404f58": 2820,
      "0x404f80": 2821,
      "0x404f88": 2822,
      "0x404fd0": 2823,
      "0x4052e0": 2824,
      "0x406f68": 2825,
      "0x406f60": 2826,
      "0x406fb0": 2827,
      "0x406fc8": 2828,
      "0x405098": 2829,
      "0x4050f8": 2830,
      "0x404cb0": 2831,
      "0x404d78": 2832,
      "0x404d28": 2833,
      "0x404d48": 2834,
      "0x404d80": 2835,
      "0x407638": 2836,
      "0x407650": 2837,
      "0x407618": 2838,
      "0x406450": 2839,
      "0x4064e8": 2840,
      "0x4064c0": 2841,
      "0x4064a8": 2842,
      "0x404810": 2843,
      "0x404848": 2844,
      "0x4070f0": 2845,
      "0x404950": 2846,
      "0x4074f0": 2847,
      "0x407490": 2848,
      "0x406de8": 2849,
      "0x406948": 2850,
      "0x405a70": 2851,
      "0x405a60": 2852,
      "0x405a08": 2853,
      "0x407230": 2854,
      "0x407178": 2855,
      "0x4071d0": 2856,
      "0x407320": 2857,
      "0x407348": 2858,
      "0x406a70": 2859,
      "0x406a68": 2860,
      "0x406a60": 2861,
      "0x406a80": 2862,
      "0x4066f8": 2863,
      "0x407520": 2864,
      "0x41b278": 2865,
      "0x405340": 2866,
      "0x407928": 2867,
      "0x407910": 2868,
      "0x41c678": 2869,
      "0x406220": 2870,
      "0x406248": 2871,
      "0x41e278": 2872,
      "0x41fe78": 2873,
      "0x42f4": 2874,
      "0x438e78": 2875,
      "0x434e78": 2876,
      "0x418a78": 2877,
      "0x448e78": 2878,
      "0x43ec78": 2879,
      "0x408b70": 2880,
      "0x422c78": 2881,
      "0x424e78": 2882,
      "0x42a678": 2883,
      "0x409750": 2884,
      "0x409718": 2885,
      "0x44be78": 2886,
      "0x44ba78": 2887,
      "0x429c78": 2888,
      "0x421e78": 2889,
      "0x447a78": 2890,
      "0x408520": 2891,
      "0x4482e0": 2892,
      "0x40a008": 2893,
      "338": 2894,
      "520": 2895,
      "6a0": 2896,
      "790": 2897,
      "7d8": 2898,
      "a20": 2899,
      "a40": 2900,
      "b70": 2901,
      "b58": 2902,
      "b80": 2903,
      "b00": 2904,
      "ba0": 2905,
      "c60": 2906,
      "d70": 2907,
      "d80": 2908,
      "df8": 2909,
      "0x4088": 2910,
      "0x4218": 2911,
      "0x4275": 2912,
      "0x4296": 2913,
      "0x4203": 2914,
      "0x4229": 2915,
      "0x42c8": 2916,
      "0x42f878": 2917,
      "0x425878": 2918,
      "0x42b878": 2919,
      "0x42e878": 2920,
      "0x421278": 2921,
      "0x406900": 2922,
      "0x406808": 2923,
      "0x404488": 2924,
      "0x404ff8": 2925,
      "0x404da8": 2926,
      "0x405280": 2927,
      "0x4128": 2928,
      "0x4130": 2929,
      "0x4175": 2930,
      "0x4179": 2931,
      "0x4191": 2932,
      "0x4151": 2933,
      "0x4109": 2934,
      "0x4121": 2935,
      "0x41ca78": 2936,
      "0x4063f8": 2937,
      "0x43f878": 2938,
      "0x433478": 2939,
      "0x431878": 2940,
      "0x407580": 2941,
      "0x407648": 2942,
      "0x407208": 2943,
      "0x407168": 2944,
      "0x407600": 2945,
      "0x407480": 2946,
      "0x44d": 2947,
      "0x4455": 2948,
      "0x443078": 2949,
      "0x447078": 2950,
      "0x445878": 2951,
      "0x447878": 2952,
      "0x404e58": 2953,
      "0x404e88": 2954,
      "0x404430": 2955,
      "0x406ce0": 2956,
      "0x406c10": 2957,
      "0x406cd8": 2958,
      "0x406b10": 2959,
      "0x406b58": 2960,
      "0x4077a0": 2961,
      "0x405178": 2962,
      "0x405190": 2963,
      "0x40c2": 2964,
      "0x4059f0": 2965,
      "0x408f18": 2966,
      "0x404f28": 2967,
      "0x404f98": 2968,
      "0x404f30": 2969,
      "0x405228": 2970,
      "0x405298": 2971,
      "0x405230": 2972,
      "0x406f78": 2973,
      "0x406f30": 2974,
      "0x40e4": 2975,
      "0x405028": 2976,
      "0x405040": 2977,
      "0x405058": 2978,
      "0x405048": 2979,
      "0x405080": 2980,
      "0x405008": 2981,
      "0x4050c0": 2982,
      "0x404cf0": 2983,
      "0x404c38": 2984,
      "0x404c00": 2985,
      "0x404d40": 2986,
      "0x404d30": 2987,
      "0x404db8": 2988,
      "0x406778": 2989,
      "0x4067d0": 2990,
      "0x4076f0": 2991,
      "0x407658": 2992,
      "0x4076a0": 2993,
      "0x4076b0": 2994,
      "0x4076d0": 2995,
      "0x4064d0": 2996,
      "0x4064b8": 2997,
      "0x4064d8": 2998,
      "0x404838": 2999,
      "0x404a58": 3000,
      "0x404a88": 3001,
      "0x407020": 3002,
      "0x407068": 3003,
      "0x407000": 3004,
      "0x4068f0": 3005,
      "0x406820": 3006,
      "0x406850": 3007,
      "0x406898": 3008,
      "0x406890": 3009,
      "0x406858": 3010,
      "0x4068a0": 3011,
      "0x4068a8": 3012,
      "0x407420": 3013,
      "0x4074c0": 3014,
      "0x406d18": 3015,
      "0x406d48": 3016,
      "0x406db0": 3017,
      "0x4069e0": 3018,
      "0x406950": 3019,
      "0x406910": 3020,
      "0x405a20": 3021,
      "0x405a10": 3022,
      "0x407270": 3023,
      "0x407290": 3024,
      "0x407210": 3025,
      "0x407268": 3026,
      "0x407248": 3027,
      "0x4072e8": 3028,
      "0x4072d8": 3029,
      "0x4071e0": 3030,
      "0x4071f0": 3031,
      "0x4071f8": 3032,
      "0x4073f0": 3033,
      "0x407350": 3034,
      "0x4073d8": 3035,
      "0x406598": 3036,
      "0x406518": 3037,
      "0x4065e8": 3038,
      "0x4066c8": 3039,
      "0x407568": 3040,
      "0x4075b0": 3041,
      "0x41aa78": 3042,
      "0x406e20": 3043,
      "0x406e18": 3044,
      "0x406e58": 3045,
      "0x405310": 3046,
      "0x4056a0": 3047,
      "0x407998": 3048,
      "0x407990": 3049,
      "0x407968": 3050,
      "0x4062b8": 3051,
      "0x419a78": 3052,
      "0x42cc78": 3053,
      "0x41f9": 3054,
      "0x438478": 3055,
      "0x432678": 3056,
      "0x42b678": 3057,
      "0x409138": 3058,
      "0x405e18": 3059,
      "0x435678": 3060,
      "0x408b90": 3061,
      "0x422a78": 3062,
      "0x424a78": 3063,
      "0x42a278": 3064,
      "0x439e78": 3065,
      "0x43de78": 3066,
      "0x43dc78": 3067,
      "0x43d278": 3068,
      "0x43f678": 3069,
      "0x4043f8": 3070,
      "0x409938": 3071,
      "0x428a78": 3072,
      "0x442e78": 3073,
      "0x40a350": 3074,
      "0x40a950": 3075,
      "0x412f68": 3076,
      "150": 3077,
      "1f8": 3078,
      "390": 3079,
      "368": 3080,
      "3d8": 3081,
      "468": 3082,
      "510": 3083,
      "568": 3084,
      "5c8": 3085,
      "6e0": 3086,
      "628": 3087,
      "618": 3088,
      "6c8": 3089,
      "728": 3090,
      "aa8": 3091,
      "d68": 3092,
      "dc0": 3093,
      "e48": 3094,
      "0x40f8": 3095,
      "0x42ae": 3096,
      "0x4298": 3097,
      "0x4285": 3098,
      "0x4257": 3099,
      "0x4233": 3100,
      "0x4227": 3101,
      "0x4206": 3102,
      "0x4263": 3103,
      "0x424878": 3104,
      "0x42ac78": 3105,
      "0x427678": 3106,
      "0x406280": 3107,
      "0x406f00": 3108,
      "0x406500": 3109,
      "0x406608": 3110,
      "0x406e08": 3111,
      "0x406588": 3112,
      "0x404fa8": 3113,
      "0x404688": 3114,
      "0x404980": 3115,
      "0x404d90": 3116,
      "0x404ed0": 3117,
      "0x404408": 3118,
      "0x405f38": 3119,
      "0x41f0": 3120,
      "0x4177": 3121,
      "0x4171": 3122,
      "0x4111": 3123,
      "0x4104": 3124,
      "0x4153": 3125,
      "0x406338": 3126,
      "0x406328": 3127,
      "0x4335": 3128,
      "0x43ea78": 3129,
      "0x437478": 3130,
      "0x431678": 3131,
      "0x404be0": 3132,
      "0x404b28": 3133,
      "0x404b68": 3134,
      "0x404bd8": 3135,
      "0x404ba8": 3136,
      "0x407dd8": 3137,
      "0x407308": 3138,
      "0x407f28": 3139,
      "0x407400": 3140,
      "0x407100": 3141,
      "0x441078": 3142,
      "0x443678": 3143,
      "0x442278": 3144,
      "0x404ee0": 3145,
      "0x404e90": 3146,
      "0x404410": 3147,
      "0x404468": 3148,
      "0x406cf0": 3149,
      "0x406c50": 3150,
      "0x406b70": 3151,
      "0x406bb0": 3152,
      "0x407750": 3153,
      "0x407748": 3154,
      "0x407760": 3155,
      "0x4078b8": 3156,
      "0x405148": 3157,
      "0x4051d8": 3158,
      "0x4047f0": 3159,
      "0x4059d8": 3160,
      "0x404fe8": 3161,
      "0x404fb0": 3162,
      "0x404fd8": 3163,
      "0x405238": 3164,
      "0x405220": 3165,
      "0x405240": 3166,
      "0x405260": 3167,
      "0x4052e8": 3168,
      "0x406f90": 3169,
      "0x406f88": 3170,
      "0x405050": 3171,
      "0x405010": 3172,
      "0x404c20": 3173,
      "0x404cc0": 3174,
      "0x404df0": 3175,
      "0x404d00": 3176,
      "0x4067a8": 3177,
      "0x4076d8": 3178,
      "0x4076c8": 3179,
      "0x406490": 3180,
      "0x406410": 3181,
      "0x406418": 3182,
      "0x406460": 3183,
      "0x4048f0": 3184,
      "0x404828": 3185,
      "0x4048b8": 3186,
      "0x404a80": 3187,
      "0x404a00": 3188,
      "0x404ab0": 3189,
      "0x404ad0": 3190,
      "0x407028": 3191,
      "0x4070b0": 3192,
      "0x4070f8": 3193,
      "0x404990": 3194,
      "0x404960": 3195,
      "0x4049b0": 3196,
      "0x4049c0": 3197,
      "0x4049b8": 3198,
      "0x407428": 3199,
      "0x407470": 3200,
      "0x407410": 3201,
      "0x4074a0": 3202,
      "0x406d78": 3203,
      "0x406dc0": 3204,
      "0x4069f0": 3205,
      "0x406998": 3206,
      "0x4069a8": 3207,
      "0x405a80": 3208,
      "0x407250": 3209,
      "0x4072d0": 3210,
      "0x407118": 3211,
      "0x407390": 3212,
      "0x407340": 3213,
      "0x4073d0": 3214,
      "0x406528": 3215,
      "0x406510": 3216,
      "0x4065f8": 3217,
      "0x406a48": 3218,
      "0x406aa0": 3219,
      "0x406ab8": 3220,
      "0x406628": 3221,
      "0x406620": 3222,
      "0x406650": 3223,
      "0x406698": 3224,
      "0x406690": 3225,
      "0x407578": 3226,
      "0x407540": 3227,
      "0x407558": 3228,
      "0x4075d8": 3229,
      "0x4075f8": 3230,
      "0x406080": 3231,
      "0x407b38": 3232,
      "0x407b60": 3233,
      "0x407b00": 3234,
      "0x41d200": 3235,
      "0x406e38": 3236,
      "0x406e28": 3237,
      "0x406e30": 3238,
      "0x406eb0": 3239,
      "0x405318": 3240,
      "0x407920": 3241,
      "0x406240": 3242,
      "0x406268": 3243,
      "0x419f18": 3244,
      "0x430678": 3245,
      "0x407a40": 3246,
      "0x407a80": 3247,
      "0x42f590": 3248,
      "0x438c78": 3249,
      "0x434a78": 3250,
      "0x434478": 3251,
      "0x415f38": 3252,
      "0x448078": 3253,
      "0x43ef38": 3254,
      "0x409178": 3255,
      "0x42de78": 3256,
      "0x409800": 3257,
      "0x408b38": 3258,
      "0x42a9": 3259,
      "0x43ce78": 3260,
      "0x43d678": 3261,
      "0x405f28": 3262,
      "0x43be78": 3263,
      "0x404368": 3264,
      "0x421c78": 3265,
      "0x421a78": 3266,
      "0x4045b0": 3267,
      "0x428c78": 3268,
      "0x425e78": 3269,
      "0x433c78": 3270,
      "0x4092a0": 3271,
      "0x407c00": 3272,
      "0x408a48": 3273,
      "0x43ff38": 3274,
      "0x42c9f8": 3275,
      "148": 3276,
      "290": 3277,
      "218": 3278,
      "328": 3279,
      "310": 3280,
      "3b8": 3281,
      "570": 3282,
      "518": 3283,
      "5b8": 3284,
      "778": 3285,
      "730": 3286,
      "7c0": 3287,
      "7b8": 3288,
      "8e0": 3289,
      "9d8": 3290,
      "a30": 3291,
      "ad0": 3292,
      "ab8": 3293,
      "cc0": 3294,
      "d78": 3295,
      "d58": 3296,
      "db0": 3297,
      "e50": 3298,
      "e30": 3299,
      "e58": 3300,
      "e60": 3301,
      "0x40a8": 3302,
      "0x4216": 3303,
      "0x428d": 3304,
      "0x42e0": 3305,
      "0x42bc": 3306,
      "0x4220": 3307,
      "0x4240": 3308,
      "0x4208": 3309,
      "0x4273": 3310,
      "0x4217": 3311,
      "0x4255": 3312,
      "0x4253": 3313,
      "0x4269": 3314,
      "0x428278": 3315,
      "0x42c878": 3316,
      "0x42da78": 3317,
      "0x421478": 3318,
      "0x406780": 3319,
      "0x406fa8": 3320,
      "0x406640": 3321,
      "0x406fa0": 3322,
      "0x406ed0": 3323,
      "0x406700": 3324,
      "0x406da8": 3325,
      "0x404bc0": 3326,
      "0x404908": 3327,
      "0x404fa0": 3328,
      "0x404988": 3329,
      "0x4048d8": 3330,
      "0x404ac0": 3331,
      "0x405f08": 3332,
      "0x405168": 3333,
      "0x4138": 3334,
      "0x4170": 3335,
      "0x4150": 3336,
      "0x4110": 3337,
      "0x4108": 3338,
      "0x4102": 3339,
      "0x4119": 3340,
      "0x41d0": 3341,
      "0x41c878": 3342,
      "0x41ac78": 3343,
      "0x406318": 3344,
      "0x4377": 3345,
      "0x439878": 3346,
      "0x436878": 3347,
      "0x404b20": 3348,
      "0x407160": 3349,
      "0x442678": 3350,
      "0x404478": 3351,
      "0x406c68": 3352,
      "0x406c60": 3353,
      "0x406b98": 3354,
      "0x406b90": 3355,
      "0x406b40": 3356,
      "0x406bb8": 3357,
      "0x407730": 3358,
      "0x4078e0": 3359,
      "0x4078f0": 3360,
      "0x407850": 3361,
      "0x4078f8": 3362,
      "0x405128": 3363,
      "0x405120": 3364,
      "0x405130": 3365,
      "0x405118": 3366,
      "0x405158": 3367,
      "0x4047d0": 3368,
      "0x4047c8": 3369,
      "0x409280": 3370,
      "0x409160": 3371,
      "0x408f50": 3372,
      "0x408988": 3373,
      "0x408e20": 3374,
      "0x404f38": 3375,
      "0x404f50": 3376,
      "0x405248": 3377,
      "0x4052b0": 3378,
      "0x405020": 3379,
      "0x405090": 3380,
      "0x4050d0": 3381,
      "0x4050d8": 3382,
      "0x4050c8": 3383,
      "0x404ce0": 3384,
      "0x404c50": 3385,
      "0x404c98": 3386,
      "0x404c18": 3387,
      "0x404c48": 3388,
      "0x404c60": 3389,
      "0x404c80": 3390,
      "0x404cd0": 3391,
      "0x404cf8": 3392,
      "0x4160": 3393,
      "0x416f38": 3394,
      "0x40dca0": 3395,
      "0x4067e0": 3396,
      "0x406770": 3397,
      "0x406740": 3398,
      "0x406760": 3399,
      "0x4067c0": 3400,
      "0x40f2": 3401,
      "0x4076e8": 3402,
      "0x4076f8": 3403,
      "0x406428": 3404,
      "0x406468": 3405,
      "0x406488": 3406,
      "0x4064c8": 3407,
      "0x4048b0": 3408,
      "0x4048f8": 3409,
      "0x407030": 3410,
      "0x4070c0": 3411,
      "0x404920": 3412,
      "0x404910": 3413,
      "0x406868": 3414,
      "0x406880": 3415,
      "0x407498": 3416,
      "0x407458": 3417,
      "0x4074b0": 3418,
      "0x4074c8": 3419,
      "0x406d80": 3420,
      "0x406df8": 3421,
      "0x406938": 3422,
      "0x406918": 3423,
      "0x4069e8": 3424,
      "0x4069b0": 3425,
      "0x4069b8": 3426,
      "0x405a28": 3427,
      "0x407260": 3428,
      "0x4072a0": 3429,
      "0x4072c0": 3430,
      "0x4072a8": 3431,
      "0x407378": 3432,
      "0x4073e0": 3433,
      "0x407318": 3434,
      "0x4073b0": 3435,
      "0x406568": 3436,
      "0x4065d0": 3437,
      "0x406af0": 3438,
      "0x406a90": 3439,
      "0x406a40": 3440,
      "0x406a08": 3441,
      "0x4066e8": 3442,
      "0x407570": 3443,
      "0x4075a0": 3444,
      "0x4075c0": 3445,
      "0x4060c8": 3446,
      "0x407bf0": 3447,
      "0x407b48": 3448,
      "0x410f38": 3449,
      "0x406e90": 3450,
      "0x406e40": 3451,
      "0x406e88": 3452,
      "0x406ec8": 3453,
      "0x405330": 3454,
      "0x4056e0": 3455,
      "0x4079c0": 3456,
      "0x406238": 3457,
      "0x406210": 3458,
      "0x4062c0": 3459,
      "0x4062a8": 3460,
      "0x411f38": 3461,
      "0x41ee78": 3462,
      "0x430a78": 3463,
      "0x407a38": 3464,
      "0x434c78": 3465,
      "0x434678": 3466,
      "0x418fa0": 3467,
      "0x432c78": 3468,
      "0x432a78": 3469,
      "0x448c78": 3470,
      "0x4488e0": 3471,
      "0x440e78": 3472,
      "0x43e478": 3473,
      "0x43ef40": 3474,
      "0x42d278": 3475,
      "0x42e678": 3476,
      "0x435a78": 3477,
      "0x409850": 3478,
      "0x409848": 3479,
      "0x408b98": 3480,
      "0x43cf38": 3481,
      "0x43fe78": 3482,
      "0x43f478": 3483,
      "0x406150": 3484,
      "0x44b278": 3485,
      "0x423e78": 3486,
      "0x408938": 3487,
      "0x408970": 3488,
      "0x426c78": 3489,
      "0x426a78": 3490,
      "0x428e78": 3491,
      "0x447c78": 3492,
      "0x409d50": 3493,
      "0x44a678": 3494,
      "0x412f10": 3495,
      "0x412f60": 3496,
      "0x446a78": 3497,
      "0x40c150": 3498,
      "0x409470": 3499,
      "0x40ba58": 3500,
      "0x424278": 3501,
      "110": 3502,
      "348": 3503,
      "4e0": 3504,
      "440": 3505,
      "550": 3506,
      "540": 3507,
      "620": 3508,
      "658": 3509,
      "6d0": 3510,
      "7e0": 3511,
      "7f0": 3512,
      "710": 3513,
      "718": 3514,
      "7a8": 3515,
      "9e0": 3516,
      "928": 3517,
      "9d0": 3518,
      "a08": 3519,
      "ab0": 3520,
      "bd0": 3521,
      "c08": 3522,
      "c00": 3523,
      "d60": 3524,
      "ef0": 3525,
      "0x47": 3526,
      "0x42ea": 3527,
      "0x4250": 3528,
      "0x4231": 3529,
      "0x4293": 3530,
      "0x4211": 3531,
      "0x4207": 3532,
      "0x4222": 3533,
      "0x4213": 3534,
      "0x4243": 3535,
      "0x42d0": 3536,
      "0x42a878": 3537,
      "0x423878": 3538,
      "0x42ca78": 3539,
      "0x428878": 3540,
      "0x422478": 3541,
      "0x406bc8": 3542,
      "0x406680": 3543,
      "0x406ae8": 3544,
      "0x4068d8": 3545,
      "0x406888": 3546,
      "0x404808": 3547,
      "0x405188": 3548,
      "0x405ae0": 3549,
      "0x405400": 3550,
      "0x405500": 3551,
      "0x405ac0": 3552,
      "0x41dd": 3553,
      "0x41bc": 3554,
      "0x41d9": 3555,
      "0x4174": 3556,
      "0x4173": 3557,
      "0x4132": 3558,
      "0x4189": 3559,
      "0x4112": 3560,
      "0x4122": 3561,
      "0x4156": 3562,
      "0x406320": 3563,
      "0x4372": 3564,
      "0x43c878": 3565,
      "0x43b878": 3566,
      "0x433678": 3567,
      "0x404b10": 3568,
      "0x404b18": 3569,
      "0x404b60": 3570,
      "0x404b88": 3571,
      "0x404bd0": 3572,
      "0x404bf8": 3573,
      "0x407988": 3574,
      "0x407200": 3575,
      "0x407d28": 3576,
      "0x407eb8": 3577,
      "0x4492": 3578,
      "0x4479": 3579,
      "0x4462": 3580,
      "0x4465": 3581,
      "0x442878": 3582,
      "0x447478": 3583,
      "0x445478": 3584,
      "0x446678": 3585,
      "0x40af38": 3586,
      "0x40af08": 3587,
      "0x40a108": 3588,
      "0x406b78": 3589,
      "0x406b60": 3590,
      "0x406b08": 3591,
      "0x406ba8": 3592,
      "0x407718": 3593,
      "0x4051c8": 3594,
      "0x404730": 3595,
      "0x4047b0": 3596,
      "0x4047c0": 3597,
      "0x409480": 3598,
      "0x4058f0": 3599,
      "0x404f78": 3600,
      "0x4052f0": 3601,
      "0x405218": 3602,
      "0x4052b8": 3603,
      "0x405030": 3604,
      "0x4050b8": 3605,
      "0x404c30": 3606,
      "0x4168": 3607,
      "0x407610": 3608,
      "0x405768": 3609,
      "0x406440": 3610,
      "0x406400": 3611,
      "0x4064b0": 3612,
      "0x404820": 3613,
      "0x404850": 3614,
      "0x404840": 3615,
      "0x4048a0": 3616,
      "0x4048a8": 3617,
      "0x404a70": 3618,
      "0x404aa8": 3619,
      "0x407040": 3620,
      "0x4070b8": 3621,
      "0x404968": 3622,
      "0x4049d0": 3623,
      "0x4049c8": 3624,
      "0x4068b8": 3625,
      "0x407418": 3626,
      "0x406d38": 3627,
      "0x406d58": 3628,
      "0x406940": 3629,
      "0x406930": 3630,
      "0x4069f8": 3631,
      "0x405ab0": 3632,
      "0x407240": 3633,
      "0x407258": 3634,
      "0x4072c8": 3635,
      "0x407170": 3636,
      "0x407140": 3637,
      "0x4071b0": 3638,
      "0x4071c8": 3639,
      "0x407368": 3640,
      "0x4073a8": 3641,
      "0x4065f0": 3642,
      "0x406570": 3643,
      "0x406548": 3644,
      "0x4065b8": 3645,
      "0x406a98": 3646,
      "0x4075f0": 3647,
      "0x407538": 3648,
      "0x407550": 3649,
      "0x407560": 3650,
      "0x4075e8": 3651,
      "0x4075b8": 3652,
      "0x406070": 3653,
      "0x406008": 3654,
      "0x4060a0": 3655,
      "0x4060d0": 3656,
      "0x405c40": 3657,
      "0x405c48": 3658,
      "0x4046b0": 3659,
      "0x41a478": 3660,
      "0x41af38": 3661,
      "0x407b78": 3662,
      "0x407bb0": 3663,
      "0x41b9": 3664,
      "0x406e10": 3665,
      "0x406ec0": 3666,
      "0x406eb8": 3667,
      "0x405338": 3668,
      "0x405328": 3669,
      "0x405348": 3670,
      "0x4056e8": 3671,
      "0x4079d8": 3672,
      "0x4079c8": 3673,
      "0x41cc78": 3674,
      "0x406260": 3675,
      "0x414f38": 3676,
      "0x430478": 3677,
      "0x407a90": 3678,
      "0x407a08": 3679,
      "0x438a78": 3680,
      "0x432278": 3681,
      "0x432478": 3682,
      "0x448278": 3683,
      "0x409378": 3684,
      "0x440c78": 3685,
      "0x409198": 3686,
      "0x409158": 3687,
      "0x42ee78": 3688,
      "0x42ec78": 3689,
      "0x405e40": 3690,
      "0x435478": 3691,
      "0x408b80": 3692,
      "0x408bd8": 3693,
      "0x431a78": 3694,
      "0x439478": 3695,
      "0x405d30": 3696,
      "0x43a278": 3697,
      "0x406120": 3698,
      "0x409758": 3699,
      "0x404358": 3700,
      "0x420c78": 3701,
      "0x409948": 3702,
      "0x423a78": 3703,
      "0x4045b8": 3704,
      "0x4045c8": 3705,
      "0x409b38": 3706,
      "0x40abb0": 3707,
      "0x445e78": 3708,
      "0x40c338": 3709,
      "0x441c78": 3710,
      "0x443a78": 3711,
      "0x404218": 3712,
      "0x426278": 3713,
      "0x4477b8": 3714,
      "0x42aee0": 3715,
      "0x420678": 3716,
      "1d8": 3717,
      "238": 3718,
      "340": 3719,
      "3b0": 3720,
      "428": 3721,
      "420": 3722,
      "458": 3723,
      "4c8": 3724,
      "548": 3725,
      "560": 3726,
      "6e8": 3727,
      "6b8": 3728,
      "798": 3729,
      "7f8": 3730,
      "af8": 3731,
      "ce0": 3732,
      "c50": 3733,
      "c98": 3734,
      "de8": 3735,
      "e80": 3736,
      "0x48": 3737,
      "0x4b": 3738,
      "0x42da": 3739,
      "0x4228": 3740,
      "0x4270": 3741,
      "0x4210": 3742,
      "0x4299": 3743,
      "0x4251": 3744,
      "0x4265": 3745,
      "0x4221": 3746,
      "0x4247": 3747,
      "0x4245": 3748,
      "0x42f8": 3749,
      "0x42bc78": 3750,
      "0x427878": 3751,
      "0x406188": 3752,
      "0x406d90": 3753,
      "0x406da0": 3754,
      "0x406300": 3755,
      "0x406800": 3756,
      "0x4068d0": 3757,
      "0x404bc8": 3758,
      "0x404788": 3759,
      "0x404680": 3760,
      "0x404ff0": 3761,
      "0x404480": 3762,
      "0x4048d0": 3763,
      "0x404888": 3764,
      "0x405308": 3765,
      "0x405ca0": 3766,
      "0x405180": 3767,
      "0x405f00": 3768,
      "0x4058d8": 3769,
      "0x405808": 3770,
      "0x41da": 3771,
      "0x4188": 3772,
      "0x4134": 3773,
      "0x4193": 3774,
      "0x4186": 3775,
      "0x4146": 3776,
      "0x41e8": 3777,
      "0x41c0": 3778,
      "0x4063f0": 3779,
      "0x4390": 3780,
      "0x4373": 3781,
      "0x4375": 3782,
      "0x43b078": 3783,
      "0x432878": 3784,
      "0x436478": 3785,
      "0x43fa78": 3786,
      "0x433278": 3787,
      "0x437678": 3788,
      "0x404b38": 3789,
      "0x404b70": 3790,
      "0x404b50": 3791,
      "0x404b08": 3792,
      "0x404be8": 3793,
      "0x404bb0": 3794,
      "0x404bb8": 3795,
      "0x407ac0": 3796,
      "0x407ac8": 3797,
      "0x407300": 3798,
      "0x4438": 3799,
      "0x4473": 3800,
      "0x4491": 3801,
      "0x4427": 3802,
      "0x4413": 3803,
      "0x441478": 3804,
      "0x404e70": 3805,
      "0x40a208": 3806,
      "0x407858": 3807,
      "0x4078e8": 3808,
      "0x4078b0": 3809,
      "0x4078c0": 3810,
      "0x405198": 3811,
      "0x4051d0": 3812,
      "0x4047a0": 3813,
      "0x4047f8": 3814,
      "0x405968": 3815,
      "0x409380": 3816,
      "0x409168": 3817,
      "0x408f20": 3818,
      "0x4058f8": 3819,
      "0x405258": 3820,
      "0x4052c8": 3821,
      "0x406fe0": 3822,
      "0x4050e0": 3823,
      "0x4050f0": 3824,
      "0x4050e8": 3825,
      "0x404c28": 3826,
      "0x404c10": 3827,
      "0x404c88": 3828,
      "0x404cb8": 3829,
      "0x404dc0": 3830,
      "0x40df38": 3831,
      "0x406718": 3832,
      "0x4067c8": 3833,
      "0x407668": 3834,
      "0x4064e0": 3835,
      "0x404878": 3836,
      "0x404860": 3837,
      "0x404a08": 3838,
      "0x404ad8": 3839,
      "0x407038": 3840,
      "0x407098": 3841,
      "0x407048": 3842,
      "0x407060": 3843,
      "0x407080": 3844,
      "0x407008": 3845,
      "0x4070c8": 3846,
      "0x4070a8": 3847,
      "0x404978": 3848,
      "0x404998": 3849,
      "0x4049a0": 3850,
      "0x4049a8": 3851,
      "0x407430": 3852,
      "0x407448": 3853,
      "0x4074b8": 3854,
      "0x4074a8": 3855,
      "0x406de0": 3856,
      "0x406d08": 3857,
      "0x406d00": 3858,
      "0x4069a0": 3859,
      "0x4069c0": 3860,
      "0x4069d8": 3861,
      "0x4069c8": 3862,
      "0x407298": 3863,
      "0x407218": 3864,
      "0x4072b8": 3865,
      "0x4071a8": 3866,
      "0x407358": 3867,
      "0x407360": 3868,
      "0x4073a0": 3869,
      "0x4073f8": 3870,
      "0x406ab0": 3871,
      "0x406ad0": 3872,
      "0x406610": 3873,
      "0x406658": 3874,
      "0x406660": 3875,
      "0x4075c8": 3876,
      "0x4060e0": 3877,
      "0x406098": 3878,
      "0x406018": 3879,
      "0x406048": 3880,
      "0x406088": 3881,
      "0x405c28": 3882,
      "0x405c50": 3883,
      "0x405c10": 3884,
      "0x405c30": 3885,
      "0x405c80": 3886,
      "0x407b30": 3887,
      "0x407b18": 3888,
      "0x407b80": 3889,
      "0x407bf8": 3890,
      "0x410f88": 3891,
      "0x41d5a0": 3892,
      "0x406ef0": 3893,
      "0x4053f0": 3894,
      "0x405320": 3895,
      "0x405350": 3896,
      "0x405358": 3897,
      "0x4079e0": 3898,
      "0x4079f0": 3899,
      "0x407970": 3900,
      "0x407950": 3901,
      "0x407940": 3902,
      "0x407958": 3903,
      "0x407948": 3904,
      "0x406290": 3905,
      "0x4062a0": 3906,
      "0x417f70": 3907,
      "0x42c678": 3908,
      "0x42cf90": 3909,
      "0x430278": 3910,
      "0x407a70": 3911,
      "0x407ad8": 3912,
      "0x42fe78": 3913,
      "0x42f190": 3914,
      "0x438278": 3915,
      "0x448678": 3916,
      "0x448878": 3917,
      "0x43e278": 3918,
      "0x43ef98": 3919,
      "0x42dc90": 3920,
      "0x405e98": 3921,
      "0x405e10": 3922,
      "0x405e30": 3923,
      "0x405ef8": 3924,
      "0x409870": 3925,
      "0x431c78": 3926,
      "0x431278": 3927,
      "0x424e50": 3928,
      "0x43c478": 3929,
      "0x405d68": 3930,
      "0x409698": 3931,
      "0x405fb0": 3932,
      "0x405520": 3933,
      "0x405598": 3934,
      "0x4055f8": 3935,
      "0x436278": 3936,
      "0x43b478": 3937,
      "0x406138": 3938,
      "0x4097f0": 3939,
      "0x409748": 3940,
      "0x444c78": 3941,
      "0x409958": 3942,
      "0x429e78": 3943,
      "0x4095f0": 3944,
      "0x426d90": 3945,
      "0x409bb8": 3946,
      "0x409ba8": 3947,
      "0x425c78": 3948,
      "0x425a78": 3949,
      "0x44c278": 3950,
      "0x409d78": 3951,
      "0x409db8": 3952,
      "0x44aa78": 3953,
      "0x40a548": 3954,
      "0x442c78": 3955,
      "0x433a78": 3956,
      "0x409270": 3957,
      "0x409218": 3958,
      "0x409260": 3959,
      "0x40a748": 3960,
      "0x40b138": 3961,
      "0x40ff38": 3962,
      "0x40ad50": 3963,
      "0x409090": 3964,
      "0x40f9b8": 3965,
      "0x40f008": 3966,
      "0x414120": 3967,
      "0x40f520": 3968,
      "0x40e8c8": 3969,
      "0x40f4c8": 3970,
      "0x40d008": 3971,
      "0x40c828": 3972,
      "0x40e2b8": 3973,
      "0x446278": 3974,
      "1e8": 3975,
      "1d0": 3976,
      "1c8": 3977,
      "2c0": 3978,
      "2d0": 3979,
      "2b8": 3980,
      "378": 3981,
      "3e0": 3982,
      "398": 3983,
      "360": 3984,
      "3a0": 3985,
      "578": 3986,
      "528": 3987,
      "720": 3988,
      "760": 3989,
      "950": 3990,
      "910": 3991,
      "9c0": 3992,
      "9b8": 3993,
      "9c8": 3994,
      "a48": 3995,
      "fa68": 3996,
      "0x42ed": 3997,
      "0x42ca": 3998,
      "0x4290": 3999,
      "0x4268": 4000,
      "0x4271": 4001,
      "0x4292": 4002,
      "0x4279": 4003,
      "0x4237": 4004,
      "0x4202": 4005,
      "0x4259": 4006,
      "0x427278": 4007,
      "0x429678": 4008,
      "0x406ee8": 4009,
      "0x406100": 4010,
      "0x405bc0": 4011,
      "0x405580": 4012,
      "0x405108": 4013,
      "0x405688": 4014,
      "0x405d90": 4015,
      "0x405200": 4016,
      "0x405ed0": 4017,
      "0x405e08": 4018,
      "0x405160": 4019,
      "0x405300": 4020,
      "0x4190": 4021,
      "0x4154": 4022,
      "0x41a0": 4023,
      "0x41c8": 4024,
      "0x41f8": 4025,
      "0x4378": 4026,
      "0x4379": 4027,
      "0x43c0": 4028,
      "0x43f8": 4029,
      "0x43d078": 4030,
      "0x434878": 4031,
      "0x43ca78": 4032,
      "0x43da78": 4033,
      "0x404b58": 4034,
      "0x404b48": 4035,
      "0x404b80": 4036,
      "0x407488": 4037,
      "0x407408": 4038,
      "0x448d": 4039,
      "0x4440": 4040,
      "0x4458": 4041,
      "0x4475": 4042,
      "0x4471": 4043,
      "0x4499": 4044,
      "0x4437": 4045,
      "0x444078": 4046,
      "0x44ae78": 4047,
      "0x44a878": 4048,
      "0x444878": 4049,
      "0x445678": 4050,
      "0x445278": 4051,
      "0x404e40": 4052,
      "0x40a4": 4053,
      "0x40af50": 4054,
      "0x404438": 4055,
      "0x406ce8": 4056,
      "0x406b00": 4057,
      "0x406ba0": 4058,
      "0x4078d0": 4059,
      "0x4078c8": 4060,
      "0x4051e0": 4061,
      "0x4051f0": 4062,
      "0x405140": 4063,
      "0x405110": 4064,
      "0x4051f8": 4065,
      "0x4047e0": 4066,
      "0x404798": 4067,
      "0x4047e8": 4068,
      "0x4047b8": 4069,
      "0x4047d8": 4070,
      "0x40c380": 4071,
      "0x40c180": 4072,
      "0x40cc58": 4073,
      "0x409ca0": 4074,
      "0x409788": 4075,
      "0x409180": 4076,
      "0x408f28": 4077,
      "0x408c20": 4078,
      "0x4058e0": 4079,
      "0x405848": 4080,
      "0x404f40": 4081,
      "0x405290": 4082,
      "0x4052a0": 4083,
      "0x4052c0": 4084,
      "0x4052a8": 4085,
      "0x4052f8": 4086,
      "0x404c58": 4087,
      "0x404c08": 4088,
      "0x40de28": 4089,
      "0x406438": 4090,
      "0x406448": 4091,
      "0x4048e0": 4092,
      "0x404830": 4093,
      "0x404868": 4094,
      "0x404af0": 4095,
      "0x404a38": 4096,
      "0x404a48": 4097,
      "0x404a60": 4098,
      "0x4070e0": 4099,
      "0x407070": 4100,
      "0x407088": 4101,
      "0x404918": 4102,
      "0x4049e8": 4103,
      "0x4068e0": 4104,
      "0x406810": 4105,
      "0x4074e8": 4106,
      "0x4074f8": 4107,
      "0x406d88": 4108,
      "0x406970": 4109,
      "0x405ab8": 4110,
      "0x405aa8": 4111,
      "0x407238": 4112,
      "0x407228": 4113,
      "0x4072b0": 4114,
      "0x407370": 4115,
      "0x4065e0": 4116,
      "0x4065a8": 4117,
      "0x406a38": 4118,
      "0x406a00": 4119,
      "0x406ad8": 4120,
      "0x4066e0": 4121,
      "0x406668": 4122,
      "0x407548": 4123,
      "0x4060c0": 4124,
      "0x4060f8": 4125,
      "0x412b88": 4126,
      "0x405cb8": 4127,
      "0x41af88": 4128,
      "0x407b28": 4129,
      "0x407b70": 4130,
      "0x407b20": 4131,
      "0x407b50": 4132,
      "0x410f40": 4133,
      "0x410b08": 4134,
      "0x413f38": 4135,
      "0x406e50": 4136,
      "0x406e80": 4137,
      "0x405398": 4138,
      "0x405390": 4139,
      "0x405368": 4140,
      "0x4053e8": 4141,
      "0x4053f8": 4142,
      "0x405638": 4143,
      "0x405690": 4144,
      "0x405618": 4145,
      "0x4056f8": 4146,
      "0x407978": 4147,
      "0x4079b0": 4148,
      "0x4079d0": 4149,
      "0x4079b8": 4150,
      "0x4079a8": 4151,
      "0x4062f0": 4152,
      "0x4062f8": 4153,
      "0x417f38": 4154,
      "0x42c278": 4155,
      "0x430e78": 4156,
      "0x430878": 4157,
      "0x407a50": 4158,
      "0x407a98": 4159,
      "0x407a30": 4160,
      "0x407a58": 4161,
      "0x407a48": 4162,
      "0x407a00": 4163,
      "0x41fee8": 4164,
      "0x42f678": 4165,
      "0x42f478": 4166,
      "0x42b478": 4167,
      "0x409358": 4168,
      "0x409190": 4169,
      "0x4091f8": 4170,
      "0x42d6": 4171,
      "0x405e38": 4172,
      "0x408bf0": 4173,
      "0x408b30": 4174,
      "0x408ba0": 4175,
      "0x431478": 4176,
      "0x408d98": 4177,
      "0x408d90": 4178,
      "0x422f20": 4179,
      "0x424488": 4180,
      "0x42a478": 4181,
      "0x43cc78": 4182,
      "0x43cf40": 4183,
      "0x405d80": 4184,
      "0x405f78": 4185,
      "0x405fe0": 4186,
      "0x405f20": 4187,
      "0x405f60": 4188,
      "0x405f88": 4189,
      "0x405538": 4190,
      "0x405568": 4191,
      "0x405518": 4192,
      "0x4055c8": 4193,
      "0x405b20": 4194,
      "0x405b90": 4195,
      "0x405b68": 4196,
      "0x405bb8": 4197,
      "0x4061e0": 4198,
      "0x406128": 4199,
      "0x406140": 4200,
      "0x444e78": 4201,
      "0x444478": 4202,
      "0x408968": 4203,
      "0x4045a8": 4204,
      "0x405440": 4205,
      "0x405460": 4206,
      "0x44c678": 4207,
      "0x409d48": 4208,
      "0x40ab50": 4209,
      "0x40a348": 4210,
      "0x40b598": 4211,
      "0x445d38": 4212,
      "0x446c78": 4213,
      "0x40a750": 4214,
      "0x40d7d0": 4215,
      "0x404220": 4216,
      "0x4081b0": 4217,
      "0x449e78": 4218,
      "0x449c78": 4219,
      "0x40e9d8": 4220,
      "0x409468": 4221,
      "0x40bbf8": 4222,
      "0x40ca70": 4223,
      "0x42d990": 4224,
      "0x4131c8": 4225,
      "0x436868": 4226,
      "0x42c868": 4227,
      "0x42e068": 4228,
      "1a0": 4229,
      "1b0": 4230,
      "1b8": 4231,
      "298": 4232,
      "230": 4233,
      "258": 4234,
      "330": 4235,
      "3c0": 4236,
      "3d0": 4237,
      "438": 4238,
      "490": 4239,
      "4a8": 4240,
      "558": 4241,
      "5f8": 4242,
      "6d8": 4243,
      "750": 4244,
      "740": 4245,
      "758": 4246,
      "7e8": 4247,
      "7d0": 4248,
      "7c8": 4249,
      "920": 4250,
      "940": 4251,
      "9a0": 4252,
      "9a8": 4253,
      "0x45": 4254,
      "0x4e": 4255,
      "0x4f": 4256,
      "0x40a16": 4257,
      "0x4230": 4258,
      "0x4248": 4259,
      "0x4260": 4260,
      "0x4277": 4261,
      "0x4200": 4262,
      "0x4256": 4263,
      "0x4209": 4264,
      "0x42a0": 4265,
      "0x406180": 4266,
      "0x406000": 4267,
      "0x404700": 4268,
      "0x404800": 4269,
      "0x405388": 4270,
      "0x405ed8": 4271,
      "0x405608": 4272,
      "0x405900": 4273,
      "0x405ac8": 4274,
      "0x41ea": 4275,
      "0x4176": 4276,
      "0x4184": 4277,
      "0x4126": 4278,
      "0x41b0": 4279,
      "0x43ed": 4280,
      "0x4350": 4281,
      "0x4330": 4282,
      "0x43d0": 4283,
      "0x43d8": 4284,
      "0x43bc78": 4285,
      "0x404b78": 4286,
      "0x404bf0": 4287,
      "0x407bc0": 4288,
      "0x407f98": 4289,
      "0x407f88": 4290,
      "0x407e08": 4291,
      "0x407588": 4292,
      "0x4418": 4293,
      "0x4435": 4294,
      "0x4493": 4295,
      "0x4417": 4296,
      "0x4496": 4297,
      "0x4433": 4298,
      "0x4415": 4299,
      "0x4429": 4300,
      "0x4425": 4301,
      "0x4463": 4302,
      "0x4469": 4303,
      "0x44b8": 4304,
      "0x443878": 4305,
      "0x443478": 4306,
      "0x443278": 4307,
      "0x441878": 4308,
      "0x442478": 4309,
      "0x40a480": 4310,
      "0x404440": 4311,
      "0x407778": 4312,
      "0x407720": 4313,
      "0x405138": 4314,
      "0x4051e8": 4315,
      "0x4051b8": 4316,
      "0x404720": 4317,
      "0x404740": 4318,
      "0x404718": 4319,
      "0x40cbc0": 4320,
      "0x4059e0": 4321,
      "0x4059e8": 4322,
      "0x4059f8": 4323,
      "0x409308": 4324,
      "0x409980": 4325,
      "0x409200": 4326,
      "0x408bc0": 4327,
      "0x408f80": 4328,
      "0x408f88": 4329,
      "0x405820": 4330,
      "0x405270": 4331,
      "0x405210": 4332,
      "0x40e680": 4333,
      "0x40ecc8": 4334,
      "0x404cc8": 4335,
      "0x416580": 4336,
      "0x416cd8": 4337,
      "0x416aa0": 4338,
      "0x40d140": 4339,
      "0x406768": 4340,
      "0x4067b8": 4341,
      "0x405710": 4342,
      "0x4057f8": 4343,
      "0x4064f0": 4344,
      "0x406420": 4345,
      "0x4064a0": 4346,
      "0x404890": 4347,
      "0x4048c0": 4348,
      "0x404a98": 4349,
      "0x404a40": 4350,
      "0x404aa0": 4351,
      "0x404af8": 4352,
      "0x407090": 4353,
      "0x4070a0": 4354,
      "0x4049e0": 4355,
      "0x4049f0": 4356,
      "0x404938": 4357,
      "0x404970": 4358,
      "0x404948": 4359,
      "0x4049f8": 4360,
      "0x406870": 4361,
      "0x406830": 4362,
      "0x4068b0": 4363,
      "0x4074e0": 4364,
      "0x406d40": 4365,
      "0x406d30": 4366,
      "0x406db8": 4367,
      "0x405a00": 4368,
      "0x4072e0": 4369,
      "0x4072f8": 4370,
      "0x4071c0": 4371,
      "0x4071b8": 4372,
      "0x4065c0": 4373,
      "0x406af8": 4374,
      "0x4066a0": 4375,
      "0x4066a8": 4376,
      "0x4075e0": 4377,
      "0x4075d0": 4378,
      "0x406020": 4379,
      "0x406050": 4380,
      "0x406058": 4381,
      "0x412be8": 4382,
      "0x405c20": 4383,
      "0x405c88": 4384,
      "0x405c08": 4385,
      "0x405c00": 4386,
      "0x405cd8": 4387,
      "0x404650": 4388,
      "0x404668": 4389,
      "0x4046e8": 4390,
      "0x41a938": 4391,
      "0x407bb8": 4392,
      "0x413b88": 4393,
      "0x406e48": 4394,
      "0x406ef8": 4395,
      "0x4056b0": 4396,
      "0x4056d8": 4397,
      "0x407938": 4398,
      "0x407918": 4399,
      "0x4079f8": 4400,
      "0x406270": 4401,
      "0x406250": 4402,
      "0x406298": 4403,
      "0x4062c8": 4404,
      "0x411f50": 4405,
      "0x417f50": 4406,
      "0x417da0": 4407,
      "0x414f40": 4408,
      "0x414b08": 4409,
      "0x430c78": 4410,
      "0x407af0": 4411,
      "0x407a28": 4412,
      "0x407ab0": 4413,
      "0x407ad0": 4414,
      "0x407ab8": 4415,
      "0x42f290": 4416,
      "0x434f38": 4417,
      "0x418f38": 4418,
      "0x418f80": 4419,
      "0x415f40": 4420,
      "0x432668": 4421,
      "0x42b738": 4422,
      "0x42b790": 4423,
      "0x440678": 4424,
      "0x440478": 4425,
      "0x405e28": 4426,
      "0x405e20": 4427,
      "0x405e90": 4428,
      "0x405e48": 4429,
      "0x43c278": 4430,
      "0x439278": 4431,
      "0x405d78": 4432,
      "0x405d50": 4433,
      "0x405d58": 4434,
      "0x43a478": 4435,
      "0x405f90": 4436,
      "0x405f30": 4437,
      "0x405fb8": 4438,
      "0x405550": 4439,
      "0x4055e8": 4440,
      "0x43f278": 4441,
      "0x436a78": 4442,
      "0x436678": 4443,
      "0x4368d8": 4444,
      "0x405be8": 4445,
      "0x405ba8": 4446,
      "0x405bf8": 4447,
      "0x406178": 4448,
      "0x406170": 4449,
      "0x406190": 4450,
      "0x406110": 4451,
      "0x406118": 4452,
      "0x4061f8": 4453,
      "0x409738": 4454,
      "0x409720": 4455,
      "0x409740": 4456,
      "0x409768": 4457,
      "0x444678": 4458,
      "0x420a78": 4459,
      "0x420f38": 4460,
      "0x44b678": 4461,
      "0x409928": 4462,
      "0x409970": 4463,
      "0x409930": 4464,
      "0x409918": 4465,
      "0x409598": 4466,
      "0x409568": 4467,
      "0x409558": 4468,
      "0x421f38": 4469,
      "0x408928": 4470,
      "0x408998": 4471,
      "0x4089a0": 4472,
      "0x405430": 4473,
      "0x4054b0": 4474,
      "0x409b70": 4475,
      "0x447e78": 4476,
      "0x409d38": 4477,
      "0x44a478": 4478,
      "0x40a538": 4479,
      "0x40a5b8": 4480,
      "0x40ab78": 4481,
      "0x40ab18": 4482,
      "0x40abe8": 4483,
      "0x40a1e0": 4484,
      "0x40a198": 4485,
      "0x40a1b0": 4486,
      "0x40a368": 4487,
      "0x409258": 4488,
      "0x40a948": 4489,
      "0x40b538": 4490,
      "0x40b520": 4491,
      "0x40b548": 4492,
      "0x40b5f8": 4493,
      "0x445c78": 4494,
      "0x40c398": 4495,
      "0x4085d8": 4496,
      "0x446e78": 4497,
      "0x408720": 4498,
      "0x40a738": 4499,
      "0x40b1a8": 4500,
      "0x437a68": 4501,
      "0x441a78": 4502,
      "0x40ad48": 4503,
      "0x4080b8": 4504,
      "0x408120": 4505,
      "0x407c20": 4506,
      "0x40e928": 4507,
      "0x40e910": 4508,
      "0x40c178": 4509,
      "0x408328": 4510,
      "0x40f338": 4511,
      "0x40f320": 4512,
      "0x40b9c0": 4513,
      "0x411738": 4514,
      "0x408270": 4515,
      "0x40b4c0": 4516,
      "0x412720": 4517,
      "0x40c7b8": 4518,
      "0x40f598": 4519,
      "0x413998": 4520,
      "0x408438": 4521,
      "0x40da00": 4522,
      "0x447790": 4523,
      "0x42d9b8": 4524,
      "0x409a40": 4525,
      "0x418d38": 4526,
      "0x414320": 4527,
      "0x40a270": 4528,
      "0x4212e8": 4529,
      "0x429668": 4530,
      "0x44d278": 4531,
      "0x42d090": 4532,
      "0x42f890": 4533,
      "1e0": 4534,
      "1f0": 4535,
      "2e0": 4536,
      "270": 4537,
      "240": 4538,
      "2b0": 4539,
      "2a8": 4540,
      "350": 4541,
      "3e8": 4542,
      "3c8": 4543,
      "4f0": 4544,
      "470": 4545,
      "448": 4546,
      "4f8": 4547,
      "5a8": 4548,
      "698": 4549,
      "660": 4550,
      "6c0": 4551,
      "6f8": 4552,
      "768": 4553,
      "7a0": 4554,
      "9f0": 4555,
      "a50": 4556,
      "a58": 4557,
      "e38": 4558,
      "0x474": 4559,
      "0x475": 4560,
      "0x40add": 4561,
      "0x42ff": 4562,
      "0x4280": 4563,
      "0x4288": 4564,
      "0x4276": 4565,
      "0x4254": 4566,
      "0x4282": 4567,
      "0x4224": 4568,
      "0x4252": 4569,
      "0x4223": 4570,
      "0x4214": 4571,
      "0x4204": 4572,
      "0x4266": 4573,
      "0x4244": 4574,
      "0x4246": 4575,
      "0x42c0": 4576,
      "0x42c78": 4577,
      "0x42ae78": 4578,
      "0x422678": 4579,
      "0x406108": 4580,
      "0x406168": 4581,
      "0x406ac8": 4582,
      "0x404400": 4583,
      "0x405908": 4584,
      "0x405788": 4585,
      "0x405288": 4586,
      "0x405488": 4587,
      "0x405ff0": 4588,
      "0x405ca8": 4589,
      "0x405588": 4590,
      "0x4058d0": 4591,
      "0x41ae": 4592,
      "0x41ca": 4593,
      "0x4198": 4594,
      "0x4158": 4595,
      "0x4136": 4596,
      "0x4192": 4597,
      "0x4124": 4598,
      "0x4114": 4599,
      "0x41a8": 4600,
      "0x43ea": 4601,
      "0x43da": 4602,
      "0x4316": 4603,
      "0x4338": 4604,
      "0x4370": 4605,
      "0x4398": 4606,
      "0x4310": 4607,
      "0x4332": 4608,
      "0x4331": 4609,
      "0x43ac78": 4610,
      "0x404b30": 4611,
      "0x407780": 4612,
      "0x407bc8": 4613,
      "0x407ae0": 4614,
      "0x407fb0": 4615,
      "0x44ca": 4616,
      "0x4420": 4617,
      "0x4436": 4618,
      "0x4431": 4619,
      "0x4497": 4620,
      "0x4411": 4621,
      "0x4456": 4622,
      "0x4459": 4623,
      "0x4426": 4624,
      "0x4467": 4625,
      "0x44d0": 4626,
      "0x44b878": 4627,
      "0x44ac78": 4628,
      "0x441678": 4629,
      "0x441278": 4630,
      "0x447678": 4631,
      "0x446878": 4632,
      "0x40a380": 4633,
      "0x40af18": 4634,
      "0x40a400": 4635,
      "0x40afd8": 4636,
      "0x40aea0": 4637,
      "0x40aad8": 4638,
      "0x40a410": 4639,
      "0x404498": 4640,
      "0x404490": 4641,
      "0x404418": 4642,
      "0x4044c8": 4643,
      "0x40bf38": 4644,
      "0x40bf40": 4645,
      "0x40b780": 4646,
      "0x40b308": 4647,
      "0x40b188": 4648,
      "0x40b180": 4649,
      "0x40b400": 4650,
      "0x40bb10": 4651,
      "0x40bf68": 4652,
      "0x405150": 4653,
      "0x404738": 4654,
      "0x404728": 4655,
      "0x4047a8": 4656,
      "0x40cf28": 4657,
      "0x40cd38": 4658,
      "0x40cb10": 4659,
      "0x405910": 4660,
      "0x405960": 4661,
      "0x409f38": 4662,
      "0x409f20": 4663,
      "0x409f48": 4664,
      "0x408fa0": 4665,
      "0x408f78": 4666,
      "0x4058b8": 4667,
      "0x4058a8": 4668,
      "0x405268": 4669,
      "0x40ef38": 4670,
      "0x40eb08": 4671,
      "0x40eb20": 4672,
      "0x4050a8": 4673,
      "0x404c40": 4674,
      "0x4169": 4675,
      "0x416c38": 4676,
      "0x416128": 4677,
      "0x40d180": 4678,
      "0x40dfc0": 4679,
      "0x40dfe8": 4680,
      "0x406710": 4681,
      "0x4067b0": 4682,
      "0x405750": 4683,
      "0x4057b8": 4684,
      "0x406470": 4685,
      "0x404880": 4686,
      "0x404a90": 4687,
      "0x404a68": 4688,
      "0x404940": 4689,
      "0x4049d8": 4690,
      "0x406d10": 4691,
      "0x4069d0": 4692,
      "0x405af0": 4693,
      "0x406520": 4694,
      "0x4066b0": 4695,
      "0x406038": 4696,
      "0x406090": 4697,
      "0x406040": 4698,
      "0x406010": 4699,
      "0x4060b0": 4700,
      "0x4060a8": 4701,
      "0x412d38": 4702,
      "0x412bd8": 4703,
      "0x412ee0": 4704,
      "0x405ce8": 4705,
      "0x404610": 4706,
      "0x404630": 4707,
      "0x41af18": 4708,
      "0x41af80": 4709,
      "0x41afd8": 4710,
      "0x407b10": 4711,
      "0x407b68": 4712,
      "0x407b88": 4713,
      "0x407b08": 4714,
      "0x407ba0": 4715,
      "0x407ba8": 4716,
      "0x41bf38": 4717,
      "0x410780": 4718,
      "0x410fa0": 4719,
      "0x413bc8": 4720,
      "0x413b38": 4721,
      "0x413b10": 4722,
      "0x413f60": 4723,
      "0x41d400": 4724,
      "0x41db50": 4725,
      "0x41d6b0": 4726,
      "0x405378": 4727,
      "0x4053d0": 4728,
      "0x405620": 4729,
      "0x405610": 4730,
      "0x4056b8": 4731,
      "0x407960": 4732,
      "0x4079e8": 4733,
      "0x406228": 4734,
      "0x406230": 4735,
      "0x4062e8": 4736,
      "0x4062d0": 4737,
      "0x411f40": 4738,
      "0x411b88": 4739,
      "0x417280": 4740,
      "0x417e70": 4741,
      "0x417c88": 4742,
      "0x419f80": 4743,
      "0x414df0": 4744,
      "0x430468": 4745,
      "0x407a88": 4746,
      "0x407aa8": 4747,
      "0x407af8": 4748,
      "0x41f690": 4749,
      "0x438678": 4750,
      "0x434f40": 4751,
      "0x4342d8": 4752,
      "0x415d98": 4753,
      "0x42ba78": 4754,
      "0x448478": 4755,
      "0x448ee0": 4756,
      "0x409328": 4757,
      "0x409370": 4758,
      "0x4400": 4759,
      "0x440278": 4760,
      "0x43ee78": 4761,
      "0x42d678": 4762,
      "0x42d690": 4763,
      "0x42e690": 4764,
      "0x405e70": 4765,
      "0x405e50": 4766,
      "0x405ec8": 4767,
      "0x435278": 4768,
      "0x435f38": 4769,
      "0x409840": 4770,
      "0x408b78": 4771,
      "0x408b28": 4772,
      "0x408b18": 4773,
      "0x431e78": 4774,
      "0x408d18": 4775,
      "0x422f18": 4776,
      "0x424288": 4777,
      "0x42aa78": 4778,
      "0x43c678": 4779,
      "0x439c78": 4780,
      "0x439a78": 4781,
      "0x439678": 4782,
      "0x439f28": 4783,
      "0x439738": 4784,
      "0x405d88": 4785,
      "0x405d00": 4786,
      "0x405de8": 4787,
      "0x43d478": 4788,
      "0x43df38": 4789,
      "0x4096b0": 4790,
      "0x4096f8": 4791,
      "0x405f98": 4792,
      "0x405f18": 4793,
      "0x405f80": 4794,
      "0x405fc0": 4795,
      "0x405fd8": 4796,
      "0x405578": 4797,
      "0x4055e0": 4798,
      "0x405530": 4799,
      "0x405558": 4800,
      "0x4055b0": 4801,
      "0x4055d8": 4802,
      "0x4055a8": 4803,
      "0x436e78": 4804,
      "0x436dd8": 4805,
      "0x405b78": 4806,
      "0x405b28": 4807,
      "0x405b60": 4808,
      "0x405b88": 4809,
      "0x43ba78": 4810,
      "0x43b278": 4811,
      "0x43bd30": 4812,
      "0x43bab0": 4813,
      "0x406198": 4814,
      "0x406148": 4815,
      "0x4061b0": 4816,
      "0x409728": 4817,
      "0x409790": 4818,
      "0x4097d8": 4819,
      "0x444a78": 4820,
      "0x404318": 4821,
      "0x4043c8": 4822,
      "0x4099f0": 4823,
      "0x429a78": 4824,
      "0x429b08": 4825,
      "0x429588": 4826,
      "0x429a90": 4827,
      "0x429b70": 4828,
      "0x427a68": 4829,
      "0x423ae0": 4830,
      "0x409570": 4831,
      "0x409560": 4832,
      "0x408920": 4833,
      "0x408910": 4834,
      "0x408960": 4835,
      "0x404558": 4836,
      "0x4045a0": 4837,
      "0x4045f8": 4838,
      "0x405420": 4839,
      "0x405450": 4840,
      "0x405458": 4841,
      "0x426a90": 4842,
      "0x428bb0": 4843,
      "0x428a28": 4844,
      "0x409b78": 4845,
      "0x409b90": 4846,
      "0x409b68": 4847,
      "0x409b80": 4848,
      "0x447d90": 4849,
      "0x447c68": 4850,
      "0x44c478": 4851,
      "0x409d20": 4852,
      "0x409d68": 4853,
      "0x409d80": 4854,
      "0x44a278": 4855,
      "0x40a578": 4856,
      "0x40a520": 4857,
      "0x40ab48": 4858,
      "0x40ab80": 4859,
      "0x40abf8": 4860,
      "0x40a138": 4861,
      "0x40a148": 4862,
      "0x40a1a8": 4863,
      "0x40b378": 4864,
      "0x40b338": 4865,
      "0x40b350": 4866,
      "0x40b348": 4867,
      "0x442a78": 4868,
      "0x442c38": 4869,
      "0x40a320": 4870,
      "0x409210": 4871,
      "0x409268": 4872,
      "0x40a940": 4873,
      "0x408738": 4874,
      "0x408790": 4875,
      "0x40b150": 4876,
      "0x40b1b8": 4877,
      "0x40d738": 4878,
      "0x40d720": 4879,
      "0x437c78": 4880,
      "0x443c78": 4881,
      "0x40ff90": 4882,
      "0x404228": 4883,
      "0x449a78": 4884,
      "0x407c68": 4885,
      "0x40dd38": 4886,
      "0x40dd70": 4887,
      "0x409498": 4888,
      "0x408398": 4889,
      "0x408348": 4890,
      "0x40c538": 4891,
      "0x40b9f8": 4892,
      "0x4135a8": 4893,
      "0x409c70": 4894,
      "0x409c40": 4895,
      "0x410348": 4896,
      "0x40b250": 4897,
      "0x40d3b8": 4898,
      "0x4107c0": 4899,
      "0x415730": 4900,
      "0x40b870": 4901,
      "0x414128": 4902,
      "0x40ba18": 4903,
      "0x40ae18": 4904,
      "0x40d928": 4905,
      "0x414520": 4906,
      "0x411320": 4907,
      "0x411310": 4908,
      "0x416538": 4909,
      "0x40fa70": 4910,
      "0x40faa0": 4911,
      "0x40d840": 4912,
      "0x40d858": 4913,
      "0x418550": 4914,
      "0x4215b8": 4915,
      "0x41e9e0": 4916,
      "0x4201d8": 4917,
      "0x426738": 4918,
      "0x4144e0": 4919,
      "0x4175b8": 4920,
      "0x424338": 4921,
      "0x427798": 4922,
      "0x43ed20": 4923,
      "0x4429c8": 4924,
      "0x42c788": 4925,
      "178": 4926,
      "170": 4927,
      "228": 4928,
      "220": 4929,
      "210": 4930,
      "2a0": 4931,
      "2f8": 4932,
      "450": 4933,
      "430": 4934,
      "418": 4935,
      "4b0": 4936,
      "4b8": 4937,
      "530": 4938,
      "5b0": 4939,
      "6f0": 4940,
      "638": 4941,
      "630": 4942,
      "6a8": 4943,
      "770": 4944,
      "820": 4945,
      "990": 4946,
      "930": 4947,
      "948": 4948,
      "9b0": 4949,
      "9f8": 4950,
      "a38": 4951,
      "a60": 4952,
      "cf0": 4953,
      "c30": 4954,
      "0x4ac": 4955,
      "0x42dd": 4956,
      "0x42fa": 4957,
      "0x4278": 4958,
      "0x42f0": 4959,
      "0x4234": 4960,
      "0x4284": 4961,
      "0x4239": 4962,
      "0x4291": 4963,
      "0x4261": 4964,
      "0x4281": 4965,
      "0x4226": 4966,
      "0x4219": 4967,
      "0x42e8": 4968,
      "0x42b0": 4969,
      "0x42a8": 4970,
      "bcb0": 4971,
      "0x406ae0": 4972,
      "0x406208": 4973,
      "0x406ac0": 4974,
      "0x406160": 4975,
      "0x404388": 4976,
      "0x404708": 4977,
      "0x404600": 4978,
      "0x4041c0": 4979,
      "0x405f40": 4980,
      "0x405780": 4981,
      "0x405508": 4982,
      "0x405bc8": 4983,
      "0x405640": 4984,
      "0x405648": 4985,
      "0x405680": 4986,
      "0x405e00": 4987,
      "0x405ea0": 4988,
      "0x405408": 4989,
      "0x405800": 4990,
      "0x405888": 4991,
      "0x405ea8": 4992,
      "0x41fa": 4993,
      "0x41e0": 4994,
      "0x4172": 4995,
      "0x4152": 4996,
      "0x43fa": 4997,
      "0x438d": 4998,
      "0x43ca": 4999,
      "0x43e0": 5000,
      "0x4358": 5001,
      "0x4348": 5002,
      "0x4339": 5003,
      "0x43c8": 5004,
      "0x43fa68": 5005,
      "0x407d98": 5006,
      "0x407ae8": 5007,
      "0x407fd8": 5008,
      "0x407f90": 5009,
      "0x407de0": 5010,
      "0x4416": 5011,
      "0x4470": 5012,
      "0x4498": 5013,
      "0x4460": 5014,
      "0x4474": 5015,
      "0x4412": 5016,
      "0x4457": 5017,
      "0x4461": 5018,
      "0x4419": 5019,
      "0x449278": 5020,
      "0x449478": 5021,
      "0x44ca78": 5022,
      "0x449678": 5023,
      "0x40af40": 5024,
      "0x40a708": 5025,
      "0x40a680": 5026,
      "0x40ada0": 5027,
      "0x4044e8": 5028,
      "0x4044b0": 5029,
      "0x4044c0": 5030,
      "0x4044a8": 5031,
      "0x40bf50": 5032,
      "0x40bb38": 5033,
      "0x40bf20": 5034,
      "0x40be00": 5035,
      "0x40b600": 5036,
      "0x40bf88": 5037,
      "0x40bb18": 5038,
      "0x40bb88": 5039,
      "0x40bec8": 5040,
      "0x40bd18": 5041,
      "0x40cf38": 5042,
      "0x40cf40": 5043,
      "0x40c908": 5044,
      "0x40cd28": 5045,
      "0x40cf48": 5046,
      "0x40cee0": 5047,
      "0x40cd08": 5048,
      "0x40cfb8": 5049,
      "0x40cf60": 5050,
      "0x40cdc8": 5051,
      "0x40cc20": 5052,
      "0x40ce58": 5053,
      "0x405938": 5054,
      "0x4059a8": 5055,
      "0x409f08": 5056,
      "0x409f40": 5057,
      "0x409780": 5058,
      "0x409708": 5059,
      "0x409fa8": 5060,
      "0x409bc8": 5061,
      "0x409f50": 5062,
      "0x409680": 5063,
      "0x409688": 5064,
      "0x409208": 5065,
      "0x409488": 5066,
      "0x409f98": 5067,
      "0x409f80": 5068,
      "0x409ca8": 5069,
      "0x409fc0": 5070,
      "0x409f68": 5071,
      "0x409fe0": 5072,
      "0x408108": 5073,
      "0x408f98": 5074,
      "0x408ff0": 5075,
      "0x408f70": 5076,
      "0x408e70": 5077,
      "0x408fb8": 5078,
      "0x405890": 5079,
      "0x405810": 5080,
      "0x405860": 5081,
      "0x4058e8": 5082,
      "0x4058b0": 5083,
      "0x4058c0": 5084,
      "0x40ef40": 5085,
      "0x40e280": 5086,
      "0x40e708": 5087,
      "0x40eb38": 5088,
      "0x40e180": 5089,
      "0x40eb18": 5090,
      "0x40ef48": 5091,
      "0x40e300": 5092,
      "0x40e668": 5093,
      "0x416708": 5094,
      "0x416308": 5095,
      "0x416f18": 5096,
      "0x416d98": 5097,
      "0x416d38": 5098,
      "0x416b20": 5099,
      "0x416b28": 5100,
      "0x416320": 5101,
      "0x416b30": 5102,
      "0x416198": 5103,
      "0x416db8": 5104,
      "0x416748": 5105,
      "0x40db38": 5106,
      "0x40df28": 5107,
      "0x40d200": 5108,
      "0x40db18": 5109,
      "0x40db10": 5110,
      "0x40dfc8": 5111,
      "0x40db50": 5112,
      "0x40db48": 5113,
      "0x40dc18": 5114,
      "0x40f508": 5115,
      "0x40fd20": 5116,
      "0x40fd18": 5117,
      "0x40fc88": 5118,
      "0x40fd50": 5119,
      "0x405778": 5120,
      "0x405728": 5121,
      "0x405720": 5122,
      "0x405798": 5123,
      "0x405790": 5124,
      "0x405730": 5125,
      "0x405718": 5126,
      "0x4057c0": 5127,
      "0x4057d0": 5128,
      "0x4057c8": 5129,
      "0x404818": 5130,
      "0x404a50": 5131,
      "0x404a10": 5132,
      "0x404930": 5133,
      "0x4068c0": 5134,
      "0x4072f0": 5135,
      "0x4065a0": 5136,
      "0x4065c8": 5137,
      "0x406aa8": 5138,
      "0x406670": 5139,
      "0x4060f0": 5140,
      "0x406028": 5141,
      "0x406068": 5142,
      "0x4060e8": 5143,
      "0x412f38": 5144,
      "0x412f08": 5145,
      "0x412f18": 5146,
      "0x412a90": 5147,
      "0x405cf0": 5148,
      "0x405c18": 5149,
      "0x405cb0": 5150,
      "0x405cc8": 5151,
      "0x405cf8": 5152,
      "0x404658": 5153,
      "0x4046d8": 5154,
      "0x41af40": 5155,
      "0x41afa8": 5156,
      "0x41ab38": 5157,
      "0x41afc0": 5158,
      "0x41ab10": 5159,
      "0x41aa00": 5160,
      "0x407be0": 5161,
      "0x407be8": 5162,
      "0x41bf40": 5163,
      "0x41bf18": 5164,
      "0x41b488": 5165,
      "0x410f28": 5166,
      "0x410f98": 5167,
      "0x410f80": 5168,
      "0x410fd8": 5169,
      "0x410bd8": 5170,
      "0x413f40": 5171,
      "0x413508": 5172,
      "0x413b20": 5173,
      "0x413ac0": 5174,
      "0x413f68": 5175,
      "0x413fb8": 5176,
      "0x413ec8": 5177,
      "0x413e40": 5178,
      "0x41df38": 5179,
      "0x41d130": 5180,
      "0x41d5e0": 5181,
      "0x4053e0": 5182,
      "0x4053b8": 5183,
      "0x4053c8": 5184,
      "0x405658": 5185,
      "0x405660": 5186,
      "0x407930": 5187,
      "0x41c320": 5188,
      "0x41c6b0": 5189,
      "0x4062e0": 5190,
      "0x406258": 5191,
      "0x4062d8": 5192,
      "0x411b38": 5193,
      "0x411f80": 5194,
      "0x411fc8": 5195,
      "0x411f60": 5196,
      "0x411bb8": 5197,
      "0x417b20": 5198,
      "0x417b28": 5199,
      "0x417ad8": 5200,
      "0x417b90": 5201,
      "0x417d10": 5202,
      "0x417aa8": 5203,
      "0x419f38": 5204,
      "0x419e88": 5205,
      "0x419ad8": 5206,
      "0x419cd0": 5207,
      "0x41e1e8": 5208,
      "0x42cff8": 5209,
      "0x42c320": 5210,
      "0x42cc90": 5211,
      "0x42c130": 5212,
      "0x42c590": 5213,
      "0x414f28": 5214,
      "0x414b20": 5215,
      "0x414d08": 5216,
      "0x414bb8": 5217,
      "0x4300": 5218,
      "0x430f38": 5219,
      "0x430b68": 5220,
      "0x430190": 5221,
      "0x430b48": 5222,
      "0x407a10": 5223,
      "0x407a68": 5224,
      "0x407a18": 5225,
      "0x42f640": 5226,
      "0x4380": 5227,
      "0x438288": 5228,
      "0x434fa0": 5229,
      "0x4345e8": 5230,
      "0x418788": 5231,
      "0x418f20": 5232,
      "0x418f70": 5233,
      "0x418f78": 5234,
      "0x415ee8": 5235,
      "0x415fa0": 5236,
      "0x415d28": 5237,
      "0x415d08": 5238,
      "0x415fc8": 5239,
      "0x415d20": 5240,
      "0x432b28": 5241,
      "0x4325f0": 5242,
      "0x432aa8": 5243,
      "0x42b278": 5244,
      "0x42bb38": 5245,
      "0x42bf68": 5246,
      "0x42b690": 5247,
      "0x42bb78": 5248,
      "0x42bd30": 5249,
      "0x4480": 5250,
      "0x448a78": 5251,
      "0x4093e0": 5252,
      "0x4093f0": 5253,
      "0x409320": 5254,
      "0x409398": 5255,
      "0x409390": 5256,
      "0x409360": 5257,
      "0x440f38": 5258,
      "0x43e678": 5259,
      "0x43e308": 5260,
      "0x43e738": 5261,
      "0x43efb8": 5262,
      "0x43e548": 5263,
      "0x4091e0": 5264,
      "0x409128": 5265,
      "0x4091e8": 5266,
      "0x4091b0": 5267,
      "0x4091c0": 5268,
      "0x42df98": 5269,
      "0x42dbd8": 5270,
      "0x42d338": 5271,
      "0x42ec20": 5272,
      "0x42e120": 5273,
      "0x42e2d8": 5274,
      "0x405e58": 5275,
      "0x405e60": 5276,
      "0x405e88": 5277,
      "0x405ec0": 5278,
      "0x4098b0": 5279,
      "0x408b50": 5280,
      "0x408b40": 5281,
      "0x408bb0": 5282,
      "0x431a68": 5283,
      "0x4313b0": 5284,
      "0x4311b0": 5285,
      "0x408df0": 5286,
      "0x408d68": 5287,
      "0x408d88": 5288,
      "0x422eb0": 5289,
      "0x424d38": 5290,
      "0x424f30": 5291,
      "0x42a618": 5292,
      "0x43c128": 5293,
      "0x439a68": 5294,
      "0x405d20": 5295,
      "0x405d10": 5296,
      "0x405d18": 5297,
      "0x405db8": 5298,
      "0x405df8": 5299,
      "0x43df40": 5300,
      "0x43d368": 5301,
      "0x43d6f8": 5302,
      "0x409618": 5303,
      "0x4096d0": 5304,
      "0x405f50": 5305,
      "0x405f58": 5306,
      "0x405fe8": 5307,
      "0x4055f0": 5308,
      "0x405540": 5309,
      "0x405548": 5310,
      "0x405560": 5311,
      "0x4055a0": 5312,
      "0x4055b8": 5313,
      "0x436c78": 5314,
      "0x436f38": 5315,
      "0x436f90": 5316,
      "0x405be0": 5317,
      "0x405b38": 5318,
      "0x405b50": 5319,
      "0x405b80": 5320,
      "0x405b00": 5321,
      "0x405bd0": 5322,
      "0x405bd8": 5323,
      "0x406130": 5324,
      "0x406158": 5325,
      "0x4061a0": 5326,
      "0x4061d8": 5327,
      "0x409778": 5328,
      "0x409798": 5329,
      "0x4097a0": 5330,
      "0x4097b0": 5331,
      "0x444468": 5332,
      "0x4043f0": 5333,
      "0x404370": 5334,
      "0x4043e8": 5335,
      "0x420f40": 5336,
      "0x420b38": 5337,
      "0x420b08": 5338,
      "0x420bd8": 5339,
      "0x409990": 5340,
      "0x409968": 5341,
      "0x409960": 5342,
      "0x4099b0": 5343,
      "0x4099c0": 5344,
      "0x4099c8": 5345,
      "0x4099f8": 5346,
      "0x429dd0": 5347,
      "0x429388": 5348,
      "0x429d68": 5349,
      "0x423f40": 5350,
      "0x423ea0": 5351,
      "0x423eb0": 5352,
      "0x409578": 5353,
      "0x409538": 5354,
      "0x421f40": 5355,
      "0x421508": 5356,
      "0x408990": 5357,
      "0x408930": 5358,
      "0x4089d8": 5359,
      "0x404598": 5360,
      "0x404510": 5361,
      "0x4045e8": 5362,
      "0x405470": 5363,
      "0x405498": 5364,
      "0x405468": 5365,
      "0x4054d8": 5366,
      "0x409b20": 5367,
      "0x409b50": 5368,
      "0x409b98": 5369,
      "0x409b30": 5370,
      "0x409b48": 5371,
      "0x409ba0": 5372,
      "0x409bd0": 5373,
      "0x447d00": 5374,
      "0x425488": 5375,
      "0x425d28": 5376,
      "0x44c310": 5377,
      "0x409de0": 5378,
      "0x409d40": 5379,
      "0x409d88": 5380,
      "0x409d08": 5381,
      "0x44af38": 5382,
      "0x44ab20": 5383,
      "0x40a570": 5384,
      "0x40a540": 5385,
      "0x40a518": 5386,
      "0x40a558": 5387,
      "0x40a5e8": 5388,
      "0x40ab20": 5389,
      "0x40ab08": 5390,
      "0x40a1f0": 5391,
      "0x40b370": 5392,
      "0x40b390": 5393,
      "0x40b340": 5394,
      "0x40b310": 5395,
      "0x40b318": 5396,
      "0x40b360": 5397,
      "0x40b3b0": 5398,
      "0x40b3b8": 5399,
      "0x442f28": 5400,
      "0x442bf8": 5401,
      "0x40a3e8": 5402,
      "0x40a3b0": 5403,
      "0x40a3b8": 5404,
      "0x433e78": 5405,
      "0x433320": 5406,
      "0x40a938": 5407,
      "0x40a958": 5408,
      "0x40a9c0": 5409,
      "0x40b570": 5410,
      "0x40b5d0": 5411,
      "0x40b5c8": 5412,
      "0x445f38": 5413,
      "0x40c328": 5414,
      "0x40c330": 5415,
      "0x40c348": 5416,
      "0x40c3c0": 5417,
      "0x40c3d8": 5418,
      "0x40c3a8": 5419,
      "0x412fe0": 5420,
      "0x412f90": 5421,
      "0x408548": 5422,
      "0x4085b0": 5423,
      "0x446b68": 5424,
      "0x4087d8": 5425,
      "0x40b110": 5426,
      "0x40b130": 5427,
      "0x40b1a0": 5428,
      "0x40d778": 5429,
      "0x40d740": 5430,
      "0x437a78": 5431,
      "0x441e78": 5432,
      "0x443160": 5433,
      "0x40ff68": 5434,
      "0x40ffa8": 5435,
      "0x40ad08": 5436,
      "0x40ade8": 5437,
      "0x408020": 5438,
      "0x404270": 5439,
      "0x404230": 5440,
      "0x449f38": 5441,
      "0x40e9c8": 5442,
      "0x40b778": 5443,
      "0x40b738": 5444,
      "0x40b720": 5445,
      "0x40b750": 5446,
      "0x40b798": 5447,
      "0x40c1a0": 5448,
      "0x40c1a8": 5449,
      "0x40ddb8": 5450,
      "0x409020": 5451,
      "0x409410": 5452,
      "0x408310": 5453,
      "0x4086e0": 5454,
      "0x40c520": 5455,
      "0x40c540": 5456,
      "0x40c510": 5457,
      "0x40c5a0": 5458,
      "0x40c5c0": 5459,
      "0x40f330": 5460,
      "0x40b9d0": 5461,
      "0x40f7f0": 5462,
      "0x40a070": 5463,
      "0x40c010": 5464,
      "0x40c058": 5465,
      "0x40c080": 5466,
      "0x40c0e8": 5467,
      "0x413528": 5468,
      "0x413540": 5469,
      "0x40e578": 5470,
      "0x40e530": 5471,
      "0x4117c0": 5472,
      "0x40b290": 5473,
      "0x40b2a0": 5474,
      "0x40b2c0": 5475,
      "0x40b2d0": 5476,
      "0x40d328": 5477,
      "0x40d3e8": 5478,
      "0x40d3d0": 5479,
      "0x408220": 5480,
      "0x408290": 5481,
      "0x4082d8": 5482,
      "0x41ff28": 5483,
      "0x41ff50": 5484,
      "0x41ffc0": 5485,
      "0x41ffb8": 5486,
      "0x4137f0": 5487,
      "0x4137a8": 5488,
      "0x415738": 5489,
      "0x415718": 5490,
      "0x40f978": 5491,
      "0x40f918": 5492,
      "0x40f9d8": 5493,
      "0x40f0b0": 5494,
      "0x40b858": 5495,
      "0x40b8a8": 5496,
      "0x40c938": 5497,
      "0x412728": 5498,
      "0x412718": 5499,
      "0x4127c0": 5500,
      "0x40c710": 5501,
      "0x408ab8": 5502,
      "0x40e7e8": 5503,
      "0x40e7d0": 5504,
      "0x40eda0": 5505,
      "0x413920": 5506,
      "0x40ae30": 5507,
      "0x40ac40": 5508,
      "0x408470": 5509,
      "0x40da38": 5510,
      "0x40e080": 5511,
      "0x40e000": 5512,
      "0x40e0d0": 5513,
      "0x40b0a0": 5514,
      "0x418738": 5515,
      "0x418748": 5516,
      "0x414550": 5517,
      "0x4145c8": 5518,
      "0x40f490": 5519,
      "0x40d0d8": 5520,
      "0x40c870": 5521,
      "0x40c8b8": 5522,
      "0x423540": 5523,
      "0x4235a0": 5524,
      "0x409a70": 5525,
      "0x416520": 5526,
      "0x4165b8": 5527,
      "0x41a378": 5528,
      "0x40d8c0": 5529,
      "0x428720": 5530,
      "0x413148": 5531,
      "0x4185d8": 5532,
      "0x411598": 5533,
      "0x411518": 5534,
      "0x4115e8": 5535,
      "0x415928": 5536,
      "0x415920": 5537,
      "0x415990": 5538,
      "0x414930": 5539,
      "0x40bd50": 5540,
      "0x40e338": 5541,
      "0x40e348": 5542,
      "0x416350": 5543,
      "0x4215d8": 5544,
      "0x43ff28": 5545,
      "0x41e970": 5546,
      "0x41e9d8": 5547,
      "0x40bc20": 5548,
      "0x420128": 5549,
      "0x419738": 5550,
      "0x419798": 5551,
      "0x4123b0": 5552,
      "0x4123a8": 5553,
      "0x414328": 5554,
      "0x414390": 5555,
      "0x41c3b0": 5556,
      "0x4a7": 5557,
      "0x4af": 5558,
      "0x4249e8": 5559,
      "0x424250": 5560,
      "0x4140e8": 5561,
      "0x414800": 5562,
      "0x4148a0": 5563,
      "0x41d318": 5564,
      "0x46e": 5565,
      "0x4205e0": 5566,
      "0x4205c8": 5567,
      "0x424110": 5568,
      "0x41ac10": 5569,
      "0x41ac08": 5570,
      "0x4120b0": 5571,
      "0x410150": 5572,
      "0x418350": 5573,
      "0x418310": 5574,
      "0x418140": 5575,
      "0x4129c8": 5576,
      "0x414448": 5577,
      "0x414720": 5578,
      "0x41a928": 5579,
      "0x41a990": 5580,
      "0x428968": 5581,
      "0x4295a0": 5582,
      "0x41ed80": 5583,
      "0x413328": 5584,
      "0x4337d8": 5585,
      "0x4283b0": 5586,
      "0x4041e8": 5587,
      "0x421838": 5588,
      "0x4275b8": 5589,
      "0x4296a8": 5590,
      "0x420338": 5591,
      "0x445528": 5592,
      "0x40c210": 5593,
      "0x40c2d0": 5594,
      "0x40e4c8": 5595,
      "0x41f950": 5596,
      "0x41f918": 5597,
      "0x40f810": 5598,
      "0x4257f0": 5599,
      "0x422718": 5600,
      "0x426348": 5601,
      "0x415370": 5602,
      "0x428d38": 5603,
      "0x42bc58": 5604,
      "0x420840": 5605,
      "0x41d058": 5606,
      "0x425088": 5607,
      "0x421138": 5608,
      "0x41dd38": 5609,
      "0x41bc48": 5610,
      "0x418968": 5611,
      "0x4492d8": 5612,
      "0x4479f8": 5613,
      "0x4465f8": 5614,
      "0x416818": 5615,
      "0x42da90": 5616,
      "0x4186a0": 5617,
      "0x41c088": 5618,
      "0x449128": 5619,
      "0x444068": 5620,
      "0x445818": 5621,
      "0x449968": 5622,
      "0x443768": 5623,
      "0x42d650": 5624,
      "0x40a168": 5625,
      "0x424860": 5626,
      "0x43d8e0": 5627,
      "0x449320": 5628,
      "0x44b868": 5629,
      "0x425490": 5630,
      "0x426668": 5631,
      "0x419858": 5632,
      "0x41a8b0": 5633,
      "0x431628": 5634,
      "0x44d048": 5635,
      "0c0": 5636,
      "1a8": 5637,
      "250": 5638,
      "260": 5639,
      "2e8": 5640,
      "3f0": 5641,
      "370": 5642,
      "358": 5643,
      "3a8": 5644,
      "3f8": 5645,
      "498": 5646,
      "460": 5647,
      "4c0": 5648,
      "4d8": 5649,
      "670": 5650,
      "970": 5651,
      "968": 5652,
      "918": 5653,
      "958": 5654,
      "960": 5655,
      "9e8": 5656,
      "0x49": 5657,
      "0x4d9": 5658,
      "0x458": 5659,
      "0x477": 5660,
      "0x479": 5661,
      "0x499": 5662,
      "0x462": 5663,
      "0x496": 5664,
      "0x452": 5665,
      "0x467": 5666,
      "0x40a78": 5667,
      "ac48": 5668,
      "0x4264": 5669,
      "0x4274": 5670,
      "0x4232": 5671,
      "0x4236": 5672,
      "0x4286": 5673,
      "0x4294": 5674,
      "0x42b8": 5675,
      "0x42fa78": 5676,
      "0x42ac48": 5677,
      "0x406200": 5678,
      "0x404168": 5679,
      "0x404608": 5680,
      "0x404900": 5681,
      "0x404588": 5682,
      "0x4040c0": 5683,
      "0x405dd8": 5684,
      "0x405380": 5685,
      "0x405708": 5686,
      "0x405fa8": 5687,
      "0x405980": 5688,
      "0x405480": 5689,
      "0x405700": 5690,
      "0x4194": 5691,
      "0x41d8": 5692,
      "0x41fa68": 5693,
      "3000": 5694,
      "1868": 5695,
      "a0e8": 5696,
      "0x4364": 5697,
      "0x43f0": 5698,
      "0x43d9": 5699,
      "0x4328": 5700,
      "0x4320": 5701,
      "0x4340": 5702,
      "0x4374": 5703,
      "0x4376": 5704,
      "0x43e8": 5705,
      "0x43b8": 5706,
      "0x43bcb0": 5707,
      "0x431868": 5708,
      "0x407ca0": 5709,
      "0x407f20": 5710,
      "0x407e00": 5711,
      "0x407fc0": 5712,
      "0x407da8": 5713,
      "0x407f48": 5714,
      "0x407e20": 5715,
      "0x407d18": 5716,
      "0x407e10": 5717,
      "0x407ef8": 5718,
      "0x407db0": 5719,
      "0x4464": 5720,
      "0x44fa": 5721,
      "0x4428": 5722,
      "0x4410": 5723,
      "0x4476": 5724,
      "0x4432": 5725,
      "0x4424": 5726,
      "0x4422": 5727,
      "0x4421": 5728,
      "0x44c0": 5729,
      "0x44c8": 5730,
      "0x44a8": 5731,
      "0x447278": 5732,
      "0x443000": 5733,
      "0x40a280": 5734,
      "0x40a508": 5735,
      "0x40a188": 5736,
      "0x40a908": 5737,
      "0x40af20": 5738,
      "0x40ad98": 5739,
      "0x40af00": 5740,
      "0x40a488": 5741,
      "0x40af98": 5742,
      "0x40aff0": 5743,
      "0x40a8d8": 5744,
      "0x40a608": 5745,
      "0x40afc0": 5746,
      "0x40aac0": 5747,
      "0x40af90": 5748,
      "0x40af48": 5749,
      "0x40a808": 5750,
      "0x40a000": 5751,
      "0x40aa18": 5752,
      "0x40aa40": 5753,
      "0x40a6b8": 5754,
      "0x4044a0": 5755,
      "0x40b380": 5756,
      "0x40bdd0": 5757,
      "0x40b580": 5758,
      "0x40b108": 5759,
      "0x40b908": 5760,
      "0x40b980": 5761,
      "0x40b8d8": 5762,
      "0x40bb20": 5763,
      "0x40b900": 5764,
      "0x40b610": 5765,
      "0x40bfb8": 5766,
      "0x40be10": 5767,
      "0x40bf30": 5768,
      "0x40bfb0": 5769,
      "0x404710": 5770,
      "0x40cdd0": 5771,
      "0x40c508": 5772,
      "0x40cf50": 5773,
      "0x40c680": 5774,
      "0x40cb08": 5775,
      "0x40cf80": 5776,
      "0x40cbd8": 5777,
      "0x40cf70": 5778,
      "0x40c800": 5779,
      "0x40cfd0": 5780,
      "0x40cb50": 5781,
      "0x40cec8": 5782,
      "0x40c410": 5783,
      "0x40cfb0": 5784,
      "0x40cba8": 5785,
      "0x40cd40": 5786,
      "0x40cc28": 5787,
      "0x40ce68": 5788,
      "0x40cd48": 5789,
      "0x40cd58": 5790,
      "0x40c638": 5791,
      "0x405950": 5792,
      "0x405998": 5793,
      "0x405930": 5794,
      "0x405918": 5795,
      "0x405948": 5796,
      "0x409bc0": 5797,
      "0x409f18": 5798,
      "0x409ed8": 5799,
      "0x409908": 5800,
      "0x409988": 5801,
      "0x409d90": 5802,
      "0x409f88": 5803,
      "0x409fd8": 5804,
      "0x409da0": 5805,
      "0x409408": 5806,
      "0x409fc8": 5807,
      "0x409e20": 5808,
      "0x409ea8": 5809,
      "0x409fe8": 5810,
      "0x409fb0": 5811,
      "0x409f58": 5812,
      "0x408508": 5813,
      "0x408200": 5814,
      "0x408fd8": 5815,
      "0x408e10": 5816,
      "0x408f30": 5817,
      "0x408e90": 5818,
      "0x408f10": 5819,
      "0x405828": 5820,
      "0x405870": 5821,
      "0x405868": 5822,
      "0x405818": 5823,
      "0x405858": 5824,
      "0x405880": 5825,
      "0x4058a0": 5826,
      "0x4058c8": 5827,
      "0x40e380": 5828,
      "0x40e688": 5829,
      "0x40e988": 5830,
      "0x40efd8": 5831,
      "0x40eb28": 5832,
      "0x40e800": 5833,
      "0x40e610": 5834,
      "0x40efd0": 5835,
      "0x40eb40": 5836,
      "0x40eec8": 5837,
      "0x40ec90": 5838,
      "0x40ee10": 5839,
      "0x40ee18": 5840,
      "0x40e120": 5841,
      "0x40e130": 5842,
      "0x40eb78": 5843,
      "0x40eba0": 5844,
      "0x40e6c8": 5845,
      "0x40ee48": 5846,
      "0x40e658": 5847,
      "0x40e6d0": 5848,
      "0x404c90": 5849,
      "0x416f40": 5850,
      "0x416640": 5851,
      "0x416f80": 5852,
      "0x416a88": 5853,
      "0x416b40": 5854,
      "0x4165a0": 5855,
      "0x416938": 5856,
      "0x416dc8": 5857,
      "0x416fe0": 5858,
      "0x416120": 5859,
      "0x416c48": 5860,
      "0x4166a0": 5861,
      "0x416d68": 5862,
      "0x416ad0": 5863,
      "0x416620": 5864,
      "0x4162c0": 5865,
      "0x416770": 5866,
      "0x40d388": 5867,
      "0x40d108": 5868,
      "0x40d208": 5869,
      "0x40de00": 5870,
      "0x40df98": 5871,
      "0x40d400": 5872,
      "0x40d168": 5873,
      "0x40dfd8": 5874,
      "0x40d608": 5875,
      "0x40db28": 5876,
      "0x40df48": 5877,
      "0x40d300": 5878,
      "0x40de70": 5879,
      "0x40d800": 5880,
      "0x40d610": 5881,
      "0x40db40": 5882,
      "0x40dc38": 5883,
      "0x40dfe0": 5884,
      "0x40d128": 5885,
      "0x40d120": 5886,
      "0x40d668": 5887,
      "0x40dbf0": 5888,
      "0x40d118": 5889,
      "0x40dc68": 5890,
      "0x40db60": 5891,
      "0x40d468": 5892,
      "0x40d290": 5893,
      "0x40d440": 5894,
      "0x40d458": 5895,
      "0x40f780": 5896,
      "0x40f380": 5897,
      "0x40f308": 5898,
      "0x40fb38": 5899,
      "0x40f208": 5900,
      "0x40f980": 5901,
      "0x40fb28": 5902,
      "0x40f800": 5903,
      "0x40fe20": 5904,
      "0x40feb8": 5905,
      "0x40fdc8": 5906,
      "0x40fb48": 5907,
      "0x40f118": 5908,
      "0x40fdf0": 5909,
      "0x40fcd0": 5910,
      "0x40f6a0": 5911,
      "0x40fba0": 5912,
      "0x40fd78": 5913,
      "0x40f110": 5914,
      "0x40f658": 5915,
      "0x40fde8": 5916,
      "0x40f170": 5917,
      "0x4057e8": 5918,
      "0x4057a8": 5919,
      "0x404a18": 5920,
      "0x405ad0": 5921,
      "0x405af8": 5922,
      "0x406030": 5923,
      "0x4060d8": 5924,
      "0x412f40": 5925,
      "0x412280": 5926,
      "0x412640": 5927,
      "0x412f50": 5928,
      "0x412f20": 5929,
      "0x412288": 5930,
      "0x412500": 5931,
      "0x412ae8": 5932,
      "0x412e88": 5933,
      "0x412a80": 5934,
      "0x412b80": 5935,
      "0x412d80": 5936,
      "0x412ab0": 5937,
      "0x405ce0": 5938,
      "0x405cc0": 5939,
      "0x405cd0": 5940,
      "0x4046e0": 5941,
      "0x404618": 5942,
      "0x404660": 5943,
      "0x4046d0": 5944,
      "0x4046b8": 5945,
      "0x4046f8": 5946,
      "0x41af28": 5947,
      "0x41ad98": 5948,
      "0x41ab20": 5949,
      "0x41afd0": 5950,
      "0x41a888": 5951,
      "0x41ab40": 5952,
      "0x41a1c0": 5953,
      "0x41af78": 5954,
      "0x41a410": 5955,
      "0x41a5c0": 5956,
      "0x41aaf0": 5957,
      "0x41a520": 5958,
      "0x41a550": 5959,
      "0x41a6d0": 5960,
      "0x407bd8": 5961,
      "f388": 5962,
      "0x41bbc0": 5963,
      "0x41bf88": 5964,
      "0x41bfc8": 5965,
      "0x41ba88": 5966,
      "0x41be88": 5967,
      "0x41bde0": 5968,
      "0x41b130": 5969,
      "0x41b410": 5970,
      "0x41ba10": 5971,
      "0x41b538": 5972,
      "0x41b598": 5973,
      "0x41bd70": 5974,
      "0x41bdf8": 5975,
      "0x41b6e0": 5976,
      "0x41b328": 5977,
      "0x41b348": 5978,
      "0x41b710": 5979,
      "0x41b720": 5980,
      "0x41b558": 5981,
      "0x41b5b0": 5982,
      "0x410188": 5983,
      "0x410fa8": 5984,
      "0x410ff8": 5985,
      "0x410d28": 5986,
      "0x410b28": 5987,
      "0x410f90": 5988,
      "0x410ee0": 5989,
      "0x410d08": 5990,
      "0x410f60": 5991,
      "0x410b30": 5992,
      "0x410a10": 5993,
      "0x410bf0": 5994,
      "0x410c58": 5995,
      "0x410e98": 5996,
      "0x410d80": 5997,
      "0x413f18": 5998,
      "0x413108": 5999,
      "0x413f20": 6000,
      "0x413fa0": 6001,
      "0x413488": 6002,
      "0x413ff0": 6003,
      "0x413480": 6004,
      "0x413d38": 6005,
      "0x413ae8": 6006,
      "0x413b18": 6007,
      "0x413b68": 6008,
      "0x413cc8": 6009,
      "0x413a18": 6010,
      "0x413c40": 6011,
      "0x413cd0": 6012,
      "0x413ce8": 6013,
      "0x413e80": 6014,
      "0x41df50": 6015,
      "0x41d1c0": 6016,
      "0x41dc38": 6017,
      "0x41d5f0": 6018,
      "0x41d140": 6019,
      "0x41d148": 6020,
      "0x41d7a8": 6021,
      "0x41d420": 6022,
      "0x41d258": 6023,
      "0x41d558": 6024,
      "0x406ee0": 6025,
      "0x4053b0": 6026,
      "0x4053d8": 6027,
      "0x4056f0": 6028,
      "0x405628": 6029,
      "0x405670": 6030,
      "0x405698": 6031,
      "0x405668": 6032,
      "0x4079a0": 6033,
      "0x41cf08": 6034,
      "0x41cdd0": 6035,
      "0x41cf18": 6036,
      "0x41c108": 6037,
      "0x41cf20": 6038,
      "0x41c600": 6039,
      "0x41cfc0": 6040,
      "0x41c738": 6041,
      "0x41c138": 6042,
      "0x41c190": 6043,
      "0x41c120": 6044,
      "0x41c748": 6045,
      "0x41c520": 6046,
      "0x41c218": 6047,
      "0x41c7a8": 6048,
      "0x41cce0": 6049,
      "0x4062b0": 6050,
      "0x411780": 6051,
      "0x411d38": 6052,
      "0x411f88": 6053,
      "0x411fd8": 6054,
      "0x411b18": 6055,
      "0x411b28": 6056,
      "0x411fb8": 6057,
      "0x411b98": 6058,
      "0x411be0": 6059,
      "0x411af0": 6060,
      "0x411d58": 6061,
      "0x411a50": 6062,
      "0x417f40": 6063,
      "0x417508": 6064,
      "0x417580": 6065,
      "0x417b08": 6066,
      "0x417fa0": 6067,
      "0x417100": 6068,
      "0x417d28": 6069,
      "0x417fb8": 6070,
      "0x417a88": 6071,
      "0x417b40": 6072,
      "0x417be8": 6073,
      "0x417d30": 6074,
      "0x417ef8": 6075,
      "0x417f10": 6076,
      "0x417c80": 6077,
      "0x417a30": 6078,
      "0x419bc0": 6079,
      "0x419ae0": 6080,
      "0x419fa0": 6081,
      "0x419fd8": 6082,
      "0x419f48": 6083,
      "0x419f70": 6084,
      "0x419d08": 6085,
      "0x419e18": 6086,
      "0x419a00": 6087,
      "0x419ba8": 6088,
      "0x419f10": 6089,
      "0x419cb8": 6090,
      "0x419b60": 6091,
      "0x41e308": 6092,
      "0x41e640": 6093,
      "0x41eb18": 6094,
      "0x41eb88": 6095,
      "0x41e320": 6096,
      "0x41eb68": 6097,
      "0x41e130": 6098,
      "0x41ec10": 6099,
      "0x41e510": 6100,
      "0x41e310": 6101,
      "0x41e1d8": 6102,
      "0x41e458": 6103,
      "0x41e6e8": 6104,
      "0x41e2b8": 6105,
      "0x41e7e8": 6106,
      "0x42c108": 6107,
      "0x42cd98": 6108,
      "0x42cb08": 6109,
      "0x42c128": 6110,
      "0x42c118": 6111,
      "0x42cd50": 6112,
      "0x42c368": 6113,
      "0x42c3d8": 6114,
      "0x42c7f8": 6115,
      "0x42c740": 6116,
      "0x42c358": 6117,
      "0x414308": 6118,
      "0x414108": 6119,
      "0x414980": 6120,
      "0x414d90": 6121,
      "0x414b18": 6122,
      "0x414b28": 6123,
      "0x414f90": 6124,
      "0x414a90": 6125,
      "0x414a88": 6126,
      "0x414ce8": 6127,
      "0x414ec0": 6128,
      "0x414dc0": 6129,
      "0x430780": 6130,
      "0x430f00": 6131,
      "0x430d28": 6132,
      "0x430c88": 6133,
      "0x4302d8": 6134,
      "0x430a20": 6135,
      "0x4303b8": 6136,
      "0x430820": 6137,
      "0x430948": 6138,
      "0x407aa0": 6139,
      "0x41fae8": 6140,
      "0x41f138": 6141,
      "0x41f5e8": 6142,
      "0x41f5c0": 6143,
      "0x41f568": 6144,
      "0x41f328": 6145,
      "0x41f730": 6146,
      "0x41f4c8": 6147,
      "0x41f3d0": 6148,
      "0x42f108": 6149,
      "0x42fe00": 6150,
      "0x42f168": 6151,
      "0x42f8d8": 6152,
      "0x42fd08": 6153,
      "0x42f938": 6154,
      "0x42fde0": 6155,
      "0x42fdb8": 6156,
      "0x42f5e0": 6157,
      "0x42f998": 6158,
      "0x42f790": 6159,
      "0x42f3d0": 6160,
      "0x4388": 6161,
      "0x438f38": 6162,
      "0x438ae0": 6163,
      "0x438f50": 6164,
      "0x4385d8": 6165,
      "0x4387b8": 6166,
      "0x438550": 6167,
      "0x4389b8": 6168,
      "0x4382a8": 6169,
      "0x434b38": 6170,
      "0x4345f0": 6171,
      "0x434eb0": 6172,
      "0x434710": 6173,
      "0x434660": 6174,
      "0x418f40": 6175,
      "0x418f18": 6176,
      "0x418f50": 6177,
      "0x418b38": 6178,
      "0x418f48": 6179,
      "0x418a88": 6180,
      "0x418a10": 6181,
      "0x418ba0": 6182,
      "0x415708": 6183,
      "0x415bc8": 6184,
      "0x415f20": 6185,
      "0x415f98": 6186,
      "0x415f88": 6187,
      "0x4158d8": 6188,
      "0x415fc0": 6189,
      "0x415b88": 6190,
      "0x415ec8": 6191,
      "0x415ad8": 6192,
      "0x415bb0": 6193,
      "0x415ab8": 6194,
      "0x432188": 6195,
      "0x432108": 6196,
      "0x432f50": 6197,
      "0x432138": 6198,
      "0x432ba8": 6199,
      "0x432598": 6200,
      "0x4323b8": 6201,
      "0x432330": 6202,
      "0x42b280": 6203,
      "0x42bf20": 6204,
      "0x42bb08": 6205,
      "0x42b488": 6206,
      "0x42b198": 6207,
      "0x42bdf8": 6208,
      "0x42b5b8": 6209,
      "0x42b9d0": 6210,
      "0x42b3b0": 6211,
      "0x42b548": 6212,
      "0x448f38": 6213,
      "0x448f40": 6214,
      "0x448b78": 6215,
      "0x448338": 6216,
      "0x448760": 6217,
      "0x4489c0": 6218,
      "0x4093d8": 6219,
      "0x4093f8": 6220,
      "0x440f40": 6221,
      "0x440ae0": 6222,
      "0x440b38": 6223,
      "0x440e08": 6224,
      "0x440a68": 6225,
      "0x43e280": 6226,
      "0x43e708": 6227,
      "0x43ef28": 6228,
      "0x43efa0": 6229,
      "0x43ef48": 6230,
      "0x43efc8": 6231,
      "0x43e5d8": 6232,
      "0x43e5e8": 6233,
      "0x43e540": 6234,
      "0x43e378": 6235,
      "0x43e360": 6236,
      "0x409120": 6237,
      "0x409118": 6238,
      "0x42d580": 6239,
      "0x42db08": 6240,
      "0x42db10": 6241,
      "0x42d5d8": 6242,
      "0x42d190": 6243,
      "0x42dc18": 6244,
      "0x42d5c0": 6245,
      "0x42d7a0": 6246,
      "0x42ee08": 6247,
      "0x42efd0": 6248,
      "0x42e138": 6249,
      "0x42eec8": 6250,
      "0x42ee90": 6251,
      "0x42e410": 6252,
      "0x42ecb8": 6253,
      "0x42e998": 6254,
      "0x42e3d8": 6255,
      "0x42e6c8": 6256,
      "0x42e778": 6257,
      "0x42e928": 6258,
      "0x42e428": 6259,
      "0x405eb0": 6260,
      "0x405eb8": 6261,
      "0x435f40": 6262,
      "0x435fa8": 6263,
      "0x435f50": 6264,
      "0x435138": 6265,
      "0x4351c0": 6266,
      "0x435be0": 6267,
      "0x4357d8": 6268,
      "0x4357b8": 6269,
      "0x435238": 6270,
      "0x4351a0": 6271,
      "0x409828": 6272,
      "0x409820": 6273,
      "0x409898": 6274,
      "0x409818": 6275,
      "0x409860": 6276,
      "0x409880": 6277,
      "0x4098a8": 6278,
      "0x408b10": 6279,
      "0x408b68": 6280,
      "0x408b48": 6281,
      "0x408be8": 6282,
      "0x431f50": 6283,
      "0x431d90": 6284,
      "0x431f90": 6285,
      "0x431a90": 6286,
      "0x4315d8": 6287,
      "0x431db8": 6288,
      "0x4315d0": 6289,
      "0x4312d0": 6290,
      "0x431950": 6291,
      "0x408d40": 6292,
      "0x408d60": 6293,
      "0x422f08": 6294,
      "0x422f28": 6295,
      "0x422b08": 6296,
      "0x422ff0": 6297,
      "0x422f48": 6298,
      "0x422f70": 6299,
      "0x422a90": 6300,
      "0x422f68": 6301,
      "0x422f30": 6302,
      "0x422f78": 6303,
      "0x422df8": 6304,
      "0x424c88": 6305,
      "0x424e88": 6306,
      "0x424d88": 6307,
      "0x424d58": 6308,
      "0x42af38": 6309,
      "0x42aed8": 6310,
      "0x42a8d8": 6311,
      "0x42afd0": 6312,
      "0x42a5d8": 6313,
      "0x42ab68": 6314,
      "0x42a128": 6315,
      "0x42a3d8": 6316,
      "0x42a568": 6317,
      "0x42adb0": 6318,
      "0x42a718": 6319,
      "0x42a530": 6320,
      "0x43cbc0": 6321,
      "0x43c938": 6322,
      "0x43ce90": 6323,
      "0x43ccc8": 6324,
      "0x43c390": 6325,
      "0x43c4c8": 6326,
      "0x439f38": 6327,
      "0x439ed8": 6328,
      "0x439640": 6329,
      "0x439688": 6330,
      "0x439600": 6331,
      "0x439fd8": 6332,
      "0x439e08": 6333,
      "0x4391c0": 6334,
      "0x4395d8": 6335,
      "0x439c18": 6336,
      "0x439a98": 6337,
      "0x439728": 6338,
      "0x439920": 6339,
      "0x405df0": 6340,
      "0x405d38": 6341,
      "0x405d70": 6342,
      "0x405d40": 6343,
      "0x405d48": 6344,
      "0x405d08": 6345,
      "0x405db0": 6346,
      "0x405dc0": 6347,
      "0x43a980": 6348,
      "0x43a400": 6349,
      "0x43a5a0": 6350,
      "0x43ab98": 6351,
      "0x43aa28": 6352,
      "0x43aaf0": 6353,
      "0x43df18": 6354,
      "0x43df98": 6355,
      "0x43db20": 6356,
      "0x43d690": 6357,
      "0x43d5a0": 6358,
      "0x43d748": 6359,
      "0x43d730": 6360,
      "0x43d7f8": 6361,
      "0x43d3a0": 6362,
      "0x409610": 6363,
      "0x409660": 6364,
      "0x4096b8": 6365,
      "0x4096c8": 6366,
      "0x4096a8": 6367,
      "0x405f70": 6368,
      "0x405f48": 6369,
      "0x405fd0": 6370,
      "0x405fc8": 6371,
      "0x405528": 6372,
      "0x405590": 6373,
      "0x4055c0": 6374,
      "0x43fee8": 6375,
      "0x43fb20": 6376,
      "0x43fd18": 6377,
      "0x43fbf0": 6378,
      "0x43f7d8": 6379,
      "0x43f568": 6380,
      "0x43f290": 6381,
      "0x43fef0": 6382,
      "0x43f6e8": 6383,
      "0x43fce0": 6384,
      "0x436d38": 6385,
      "0x436668": 6386,
      "0x4365b8": 6387,
      "0x436110": 6388,
      "0x4366b8": 6389,
      "0x4363e0": 6390,
      "0x405b70": 6391,
      "0x405b18": 6392,
      "0x405b58": 6393,
      "0x405b48": 6394,
      "0x405b08": 6395,
      "0x405ba0": 6396,
      "0x43bf40": 6397,
      "0x43bf80": 6398,
      "0x43bb10": 6399,
      "0x43bd08": 6400,
      "0x43b1c0": 6401,
      "0x43bd40": 6402,
      "0x43b5e0": 6403,
      "0x43b9d8": 6404,
      "0x4061b8": 6405,
      "0x4061a8": 6406,
      "0x4097e0": 6407,
      "0x409730": 6408,
      "0x409760": 6409,
      "0x444188": 6410,
      "0x444f48": 6411,
      "0x444a88": 6412,
      "0x444128": 6413,
      "0x4447e0": 6414,
      "0x444360": 6415,
      "0x4443a0": 6416,
      "0x404350": 6417,
      "0x404310": 6418,
      "0x4043b0": 6419,
      "0x420280": 6420,
      "0x420308": 6421,
      "0x420908": 6422,
      "0x420b10": 6423,
      "0x420d18": 6424,
      "0x420c40": 6425,
      "0x420d80": 6426,
      "0x420c50": 6427,
      "0x44b580": 6428,
      "0x44b320": 6429,
      "0x44b5d8": 6430,
      "0x4099e0": 6431,
      "0x4099d0": 6432,
      "0x429fd0": 6433,
      "0x429c90": 6434,
      "0x429a00": 6435,
      "0x429f58": 6436,
      "0x429e98": 6437,
      "0x427f40": 6438,
      "0x427388": 6439,
      "0x427f20": 6440,
      "0x427fd8": 6441,
      "0x427b40": 6442,
      "0x427b68": 6443,
      "0x423f20": 6444,
      "0x423ff0": 6445,
      "0x423d48": 6446,
      "0x409528": 6447,
      "0x409590": 6448,
      "0x409540": 6449,
      "0x4095d8": 6450,
      "0x421f08": 6451,
      "0x421308": 6452,
      "0x421d08": 6453,
      "0x421e88": 6454,
      "0x421a10": 6455,
      "0x421df0": 6456,
      "0x4089b0": 6457,
      "0x4089c0": 6458,
      "0x4089b8": 6459,
      "0x4045f0": 6460,
      "0x404520": 6461,
      "0x404550": 6462,
      "0x4045d0": 6463,
      "0x4054e0": 6464,
      "0x405438": 6465,
      "0x405490": 6466,
      "0x405418": 6467,
      "0x4054e8": 6468,
      "0x4054a0": 6469,
      "0x4054c0": 6470,
      "0x4054b8": 6471,
      "0x426f38": 6472,
      "0x426b10": 6473,
      "0x426c50": 6474,
      "0x428f38": 6475,
      "0x428580": 6476,
      "0x428ae0": 6477,
      "0x428f20": 6478,
      "0x428fc0": 6479,
      "0x428e88": 6480,
      "0x428bf8": 6481,
      "0x428e90": 6482,
      "0x428b48": 6483,
      "0x409b28": 6484,
      "0x409b18": 6485,
      "0x409b88": 6486,
      "0x447f38": 6487,
      "0x447d28": 6488,
      "0x447fc0": 6489,
      "0x447d20": 6490,
      "0x447a98": 6491,
      "0x447ce8": 6492,
      "0x425f38": 6493,
      "0x425bc0": 6494,
      "0x425b08": 6495,
      "0x425e70": 6496,
      "0x425ef8": 6497,
      "0x44ce78": 6498,
      "0x44cc78": 6499,
      "0x44cf38": 6500,
      "0x44cf80": 6501,
      "0x44c9a0": 6502,
      "0x409d28": 6503,
      "0x409d60": 6504,
      "0x409dc0": 6505,
      "0x44a628": 6506,
      "0x44a3e0": 6507,
      "0x40a5f0": 6508,
      "0x40a528": 6509,
      "0x40a598": 6510,
      "0x40a530": 6511,
      "0x40a568": 6512,
      "0x40a5c0": 6513,
      "0x40a5d8": 6514,
      "0x40abe0": 6515,
      "0x40abf0": 6516,
      "0x40ab38": 6517,
      "0x40ab28": 6518,
      "0x40ab70": 6519,
      "0x40ab68": 6520,
      "0x40ab58": 6521,
      "0x40ab60": 6522,
      "0x40aba0": 6523,
      "0x40a178": 6524,
      "0x40a128": 6525,
      "0x40a110": 6526,
      "0x40a1a0": 6527,
      "0x40a1d0": 6528,
      "0x40a1b8": 6529,
      "0x40b3f0": 6530,
      "0x40b398": 6531,
      "0x40b330": 6532,
      "0x40b368": 6533,
      "0x40b3c0": 6534,
      "0x40b3d0": 6535,
      "0x40b3d8": 6536,
      "0x40b3c8": 6537,
      "0x40b3a8": 6538,
      "0x442d20": 6539,
      "0x40a378": 6540,
      "0x40a3e0": 6541,
      "0x40a3f0": 6542,
      "0x40a370": 6543,
      "0x40a398": 6544,
      "0x40a330": 6545,
      "0x40a3d0": 6546,
      "0x433f38": 6547,
      "0x433f18": 6548,
      "0x433a88": 6549,
      "0x433d88": 6550,
      "0x433e68": 6551,
      "0x409290": 6552,
      "0x40a9f0": 6553,
      "0x40a998": 6554,
      "0x40a910": 6555,
      "0x40a918": 6556,
      "0x40a9a0": 6557,
      "0x40a9b0": 6558,
      "0x40b578": 6559,
      "0x40b528": 6560,
      "0x40b550": 6561,
      "0x40b558": 6562,
      "0x40b5b0": 6563,
      "0x445a78": 6564,
      "0x445f40": 6565,
      "0x445b40": 6566,
      "0x40c378": 6567,
      "0x40c350": 6568,
      "0x40c340": 6569,
      "0x412fe8": 6570,
      "0x412fb8": 6571,
      "0x412fc8": 6572,
      "0x446ae8": 6573,
      "0x408710": 6574,
      "0x408718": 6575,
      "0x40a778": 6576,
      "0x40a7f0": 6577,
      "0x40a790": 6578,
      "0x40a718": 6579,
      "0x40a758": 6580,
      "0x40a7e8": 6581,
      "0x40a7b0": 6582,
      "0x40a7b8": 6583,
      "0x40a7d8": 6584,
      "0x40b178": 6585,
      "0x40b140": 6586,
      "0x40b118": 6587,
      "0x40b1d0": 6588,
      "0x40b1d8": 6589,
      "0x40d750": 6590,
      "0x40d710": 6591,
      "0x40d718": 6592,
      "0x40d748": 6593,
      "0x40d7e8": 6594,
      "0x40d7b8": 6595,
      "0x40d7c8": 6596,
      "0x437f38": 6597,
      "0x437b08": 6598,
      "0x437b40": 6599,
      "0x437dc8": 6600,
      "0x437ec0": 6601,
      "0x441ae8": 6602,
      "0x441a38": 6603,
      "0x443e78": 6604,
      "0x443f18": 6605,
      "0x443180": 6606,
      "0x443980": 6607,
      "0x443f80": 6608,
      "0x443e68": 6609,
      "0x40ff50": 6610,
      "0x40ff40": 6611,
      "0x40ff18": 6612,
      "0x40ff48": 6613,
      "0x40ff80": 6614,
      "0x40ffa0": 6615,
      "0x40ffb8": 6616,
      "0x40fff8": 6617,
      "0x40ade0": 6618,
      "0x40adf0": 6619,
      "0x40ad70": 6620,
      "0x40ad40": 6621,
      "0x40ad10": 6622,
      "0x40ad18": 6623,
      "0x40adb8": 6624,
      "0x408070": 6625,
      "0x4042f0": 6626,
      "0x404250": 6627,
      "0x404210": 6628,
      "0x4042a8": 6629,
      "0x4081e0": 6630,
      "0x408198": 6631,
      "0x408190": 6632,
      "0x4106d8": 6633,
      "0x4106a8": 6634,
      "0x449f40": 6635,
      "0x449ae0": 6636,
      "0x449e70": 6637,
      "0x407c08": 6638,
      "0x407cb8": 6639,
      "0x407cd8": 6640,
      "0x40e940": 6641,
      "0x40e9e8": 6642,
      "0x40b7e0": 6643,
      "0x40b728": 6644,
      "0x40b7a0": 6645,
      "0x40b7b0": 6646,
      "0x40b7d0": 6647,
      "0x40b7c8": 6648,
      "0x40c198": 6649,
      "0x40c148": 6650,
      "0x40c1f8": 6651,
      "0x40dd28": 6652,
      "0x40dd20": 6653,
      "0x40dd88": 6654,
      "0x40ddb0": 6655,
      "0x40ddd8": 6656,
      "0x409010": 6657,
      "0x409018": 6658,
      "0x409080": 6659,
      "0x409008": 6660,
      "0x4090a0": 6661,
      "0x4090b8": 6662,
      "0x409460": 6663,
      "0x4094c8": 6664,
      "0x408378": 6665,
      "0x408318": 6666,
      "0x4083d0": 6667,
      "0x4083b8": 6668,
      "0x4083d8": 6669,
      "0x4142e8": 6670,
      "0x4142b8": 6671,
      "0x4142d8": 6672,
      "0x408638": 6673,
      "0x408610": 6674,
      "0x4086e8": 6675,
      "0x40c550": 6676,
      "0x40c5b8": 6677,
      "0x40f3e0": 6678,
      "0x40f350": 6679,
      "0x40f390": 6680,
      "0x40f340": 6681,
      "0x40f318": 6682,
      "0x40f348": 6683,
      "0x40f3e8": 6684,
      "0x40b938": 6685,
      "0x40b970": 6686,
      "0x40b918": 6687,
      "0x40b948": 6688,
      "0x40b9d8": 6689,
      "0x40f778": 6690,
      "0x40f7e0": 6691,
      "0x40f728": 6692,
      "0x40f720": 6693,
      "0x40f798": 6694,
      "0x40f740": 6695,
      "0x40f748": 6696,
      "0x40f7d8": 6697,
      "0x40a0c0": 6698,
      "0x40c088": 6699,
      "0x40c0c0": 6700,
      "0x40c0f8": 6701,
      "0x413538": 6702,
      "0x413550": 6703,
      "0x413598": 6704,
      "0x413518": 6705,
      "0x413548": 6706,
      "0x4135c0": 6707,
      "0x4135c8": 6708,
      "0x409c38": 6709,
      "0x409c68": 6710,
      "0x409c48": 6711,
      "0x409c88": 6712,
      "0x409cc8": 6713,
      "0x40e538": 6714,
      "0x40e528": 6715,
      "0x40e520": 6716,
      "0x411778": 6717,
      "0x4117e0": 6718,
      "0x4117e8": 6719,
      "0x4117b8": 6720,
      "0x4117a8": 6721,
      "0x4103f0": 6722,
      "0x410320": 6723,
      "0x410368": 6724,
      "0x4103c0": 6725,
      "0x4103d8": 6726,
      "0x4103c8": 6727,
      "0x40b2e0": 6728,
      "0x40b218": 6729,
      "0x40b2b0": 6730,
      "0x40b2f8": 6731,
      "0x40bb90": 6732,
      "0x40bb58": 6733,
      "0x40bb48": 6734,
      "0x40bb60": 6735,
      "0x40bb80": 6736,
      "0x40d378": 6737,
      "0x40d338": 6738,
      "0x40d348": 6739,
      "0x408210": 6740,
      "0x408258": 6741,
      "0x41ff38": 6742,
      "0x41ff98": 6743,
      "0x41ff10": 6744,
      "0x41ffe8": 6745,
      "0x41ffd0": 6746,
      "0x413778": 6747,
      "0x4137e0": 6748,
      "0x413770": 6749,
      "0x413720": 6750,
      "0x4137b8": 6751,
      "0x4137c8": 6752,
      "0x410778": 6753,
      "0x410758": 6754,
      "0x410760": 6755,
      "0x415778": 6756,
      "0x4157d0": 6757,
      "0x4157f8": 6758,
      "0x40b4e0": 6759,
      "0x40b428": 6760,
      "0x40b490": 6761,
      "0x40b458": 6762,
      "0x40b4d8": 6763,
      "0x40f9d0": 6764,
      "0x40f000": 6765,
      "0x40f0a0": 6766,
      "0x40f0c8": 6767,
      "0x40b8b0": 6768,
      "0x40b8c0": 6769,
      "0x40c950": 6770,
      "0x40c940": 6771,
      "0x40c968": 6772,
      "0x40c948": 6773,
      "0x4127e0": 6774,
      "0x412798": 6775,
      "0x4127e8": 6776,
      "0x414178": 6777,
      "0x4141e0": 6778,
      "0x40c798": 6779,
      "0x40c758": 6780,
      "0x40c7f8": 6781,
      "0x408a28": 6782,
      "0x408a20": 6783,
      "0x408a10": 6784,
      "0x40e7e0": 6785,
      "0x40e728": 6786,
      "0x40e740": 6787,
      "0x40e730": 6788,
      "0x40e7c8": 6789,
      "0x40f5e8": 6790,
      "0x40f5c0": 6791,
      "0x40ed18": 6792,
      "0x40ed80": 6793,
      "0x40ed08": 6794,
      "0x40e828": 6795,
      "0x40e868": 6796,
      "0x40e858": 6797,
      "0x40e8c0": 6798,
      "0x413928": 6799,
      "0x413950": 6800,
      "0x413910": 6801,
      "0x40ae50": 6802,
      "0x40ae10": 6803,
      "0x40ae80": 6804,
      "0x40aef8": 6805,
      "0x40ac90": 6806,
      "0x40ac68": 6807,
      "0x40ac88": 6808,
      "0x40ac08": 6809,
      "0x40acf8": 6810,
      "0x40d938": 6811,
      "0x40d918": 6812,
      "0x40d9b8": 6813,
      "0x40d9d8": 6814,
      "0x40d9a8": 6815,
      "0x408440": 6816,
      "0x4084e8": 6817,
      "0x40da68": 6818,
      "0x40e010": 6819,
      "0x40b020": 6820,
      "0x40b018": 6821,
      "0x40b088": 6822,
      "0x40b0c0": 6823,
      "0x40b0f8": 6824,
      "0x426248": 6825,
      "0x4262c8": 6826,
      "0x4262f8": 6827,
      "0x418778": 6828,
      "0x418728": 6829,
      "0x4187c0": 6830,
      "0x4145b8": 6831,
      "0x4145d8": 6832,
      "0x447720": 6833,
      "0x40f460": 6834,
      "0x40f4b8": 6835,
      "0x40ca58": 6836,
      "0x40cab8": 6837,
      "0x42d938": 6838,
      "0x42d918": 6839,
      "0x4235f0": 6840,
      "0x423598": 6841,
      "0x423590": 6842,
      "0x410030": 6843,
      "0x4100e8": 6844,
      "0x4100a0": 6845,
      "0x4100b0": 6846,
      "0x4100d8": 6847,
      "0x4155f0": 6848,
      "0x415548": 6849,
      "0x4155c0": 6850,
      "0x4155d8": 6851,
      "0x4155c8": 6852,
      "0x411338": 6853,
      "0x411340": 6854,
      "0x409a60": 6855,
      "0x409aa0": 6856,
      "0x409ab0": 6857,
      "0x4165c0": 6858,
      "0x41a328": 6859,
      "0x41a310": 6860,
      "0x41a348": 6861,
      "0x41a3a0": 6862,
      "0x40d8b0": 6863,
      "0x428738": 6864,
      "0x428740": 6865,
      "0x428718": 6866,
      "0x4287c8": 6867,
      "0x4287a8": 6868,
      "0x413140": 6869,
      "0x4131e8": 6870,
      "0x419550": 6871,
      "0x419598": 6872,
      "0x419518": 6873,
      "0x4195a0": 6874,
      "0x4195c0": 6875,
      "0x4195d8": 6876,
      "0x418538": 6877,
      "0x418528": 6878,
      "0x411528": 6879,
      "0x411590": 6880,
      "0x4159c0": 6881,
      "0x4159d8": 6882,
      "0x414978": 6883,
      "0x414950": 6884,
      "0x414940": 6885,
      "0x4149d8": 6886,
      "0x40b628": 6887,
      "0x40b620": 6888,
      "0x40b660": 6889,
      "0x40b6a0": 6890,
      "0x40b6d8": 6891,
      "0x40b6a8": 6892,
      "0x40bd78": 6893,
      "0x40bd40": 6894,
      "0x40bd48": 6895,
      "0x40bd00": 6896,
      "0x40e3b0": 6897,
      "0x416338": 6898,
      "0x416310": 6899,
      "0x416330": 6900,
      "0x40ea10": 6901,
      "0x40ea68": 6902,
      "0x40eac8": 6903,
      "0x421538": 6904,
      "0x41e920": 6905,
      "0x40bc40": 6906,
      "0x40bcc8": 6907,
      "0x4201e0": 6908,
      "0x420150": 6909,
      "0x418d28": 6910,
      "0x418d18": 6911,
      "0x418dc0": 6912,
      "0x419710": 6913,
      "0x4197c0": 6914,
      "0x412338": 6915,
      "0x4123d8": 6916,
      "0x4143b8": 6917,
      "0x40a240": 6918,
      "0x40a2d8": 6919,
      "0x41c330": 6920,
      "0x41c318": 6921,
      "0x41c3a0": 6922,
      "0x41c3b8": 6923,
      "0x424998": 6924,
      "0x424990": 6925,
      "0x4249b8": 6926,
      "0x4140d8": 6927,
      "0x414830": 6928,
      "0x410520": 6929,
      "0x410510": 6930,
      "0x410518": 6931,
      "0x410548": 6932,
      "0x4105b0": 6933,
      "0x4125a0": 6934,
      "0x4125d8": 6935,
      "0x4125a8": 6936,
      "0x41d370": 6937,
      "0x41d398": 6938,
      "0x41d3a8": 6939,
      "0x41d3f8": 6940,
      "0x46fff0": 6941,
      "0x4205e8": 6942,
      "0x426778": 6943,
      "0x4267e0": 6944,
      "0x4267d0": 6945,
      "0x424120": 6946,
      "0x412018": 6947,
      "0x4120d8": 6948,
      "0x411820": 6949,
      "0x411858": 6950,
      "0x4101a0": 6951,
      "0x4101b8": 6952,
      "0x4101c8": 6953,
      "0x4183d8": 6954,
      "0x4183a8": 6955,
      "0x418150": 6956,
      "0x4181c0": 6957,
      "0x412938": 6958,
      "0x412950": 6959,
      "0x4129b8": 6960,
      "0x4129d8": 6961,
      "0x414778": 6962,
      "0x414710": 6963,
      "0x41a9d0": 6964,
      "0x428938": 6965,
      "0x428920": 6966,
      "0x429570": 6967,
      "0x4295b0": 6968,
      "0x421240": 6969,
      "0x429720": 6970,
      "0x429750": 6971,
      "0x429740": 6972,
      "0x4297c0": 6973,
      "0x4297d8": 6974,
      "0x422538": 6975,
      "0x422530": 6976,
      "0x4225b8": 6977,
      "0x41ed88": 6978,
      "0x4116e0": 6979,
      "0x411658": 6980,
      "0x417830": 6981,
      "0x4178b8": 6982,
      "0x4178d8": 6983,
      "0x4178a8": 6984,
      "0x4133e0": 6985,
      "0x433738": 6986,
      "0x433728": 6987,
      "0x40c470": 6988,
      "0x40c490": 6989,
      "0x40c458": 6990,
      "0x40c460": 6991,
      "0x428338": 6992,
      "0x428370": 6993,
      "0x4041b0": 6994,
      "0x4041c8": 6995,
      "0x416438": 6996,
      "0x416418": 6997,
      "0x4164a8": 6998,
      "0x418080": 6999,
      "0x418000": 7000,
      "0x4199c0": 7001,
      "0x4199d8": 7002,
      "0x418290": 7003,
      "0x418240": 7004,
      "0x42f438": 7005,
      "0x42f418": 7006,
      "0x408820": 7007,
      "0x408880": 7008,
      "0x4088e8": 7009,
      "0x421818": 7010,
      "0x427598": 7011,
      "0x429690": 7012,
      "0x420350": 7013,
      "0x422938": 7014,
      "0x422920": 7015,
      "0x422930": 7016,
      "0x412818": 7017,
      "0x412800": 7018,
      "0x413080": 7019,
      "0x4130e8": 7020,
      "0x417970": 7021,
      "0x417910": 7022,
      "0x4179b8": 7023,
      "0x4179d8": 7024,
      "0x419140": 7025,
      "0x419110": 7026,
      "0x415138": 7027,
      "0x415128": 7028,
      "0x415110": 7029,
      "0x4121a8": 7030,
      "0x4455f0": 7031,
      "0x40c260": 7032,
      "0x40e428": 7033,
      "0x40e420": 7034,
      "0x40e458": 7035,
      "0x41f9c0": 7036,
      "0x40f8f8": 7037,
      "0x4298e0": 7038,
      "0x429850": 7039,
      "0x429890": 7040,
      "0x4285c0": 7041,
      "0x4285b8": 7042,
      "0x4285d8": 7043,
      "0x425798": 7044,
      "0x423338": 7045,
      "0x423340": 7046,
      "0x422748": 7047,
      "0x426320": 7048,
      "0x41f0a0": 7049,
      "0x41f0c0": 7050,
      "0x417138": 7051,
      "0x411120": 7052,
      "0x410410": 7053,
      "0x410458": 7054,
      "0x4104d8": 7055,
      "0x415390": 7056,
      "0x4335f0": 7057,
      "0x433570": 7058,
      "0x42a940": 7059,
      "0x40a818": 7060,
      "0x421620": 7061,
      "0x421600": 7062,
      "0x428d40": 7063,
      "0x42bcd8": 7064,
      "0x42bcc8": 7065,
      "0x4220a0": 7066,
      "0x4220b8": 7067,
      "0x420810": 7068,
      "0x427378": 7069,
      "0x4217d0": 7070,
      "0x4217d8": 7071,
      "0x425538": 7072,
      "0x425320": 7073,
      "0x426920": 7074,
      "0x4269d8": 7075,
      "0x413840": 7076,
      "0x413800": 7077,
      "0x417018": 7078,
      "0x417080": 7079,
      "0x411080": 7080,
      "0x410870": 7081,
      "0x410830": 7082,
      "0x4119d8": 7083,
      "0x4119c8": 7084,
      "0x4377d8": 7085,
      "0x4160b8": 7086,
      "0x40f270": 7087,
      "0x40f2c8": 7088,
      "0x47e": 7089,
      "0x42ea20": 7090,
      "0x425040": 7091,
      "0x4250d0": 7092,
      "0x423158": 7093,
      "0x4293e0": 7094,
      "0x429320": 7095,
      "0x4211e8": 7096,
      "0x4207a8": 7097,
      "0x4222d8": 7098,
      "0x4213c0": 7099,
      "0x41bcd8": 7100,
      "0x41d9f0": 7101,
      "0x417328": 7102,
      "0x413290": 7103,
      "0x411258": 7104,
      "0x4112c8": 7105,
      "0x412220": 7106,
      "0x415690": 7107,
      "0x4156e8": 7108,
      "0x437240": 7109,
      "0x4492e0": 7110,
      "0x449290": 7111,
      "0x447928": 7112,
      "0x48c": 7113,
      "0x42da40": 7114,
      "0x42da68": 7115,
      "0x4228c8": 7116,
      "0x4270e0": 7117,
      "0x421080": 7118,
      "0x429920": 7119,
      "0x4299f8": 7120,
      "0x4221e0": 7121,
      "0x424730": 7122,
      "0x4247d8": 7123,
      "0x4245a0": 7124,
      "0x418888": 7125,
      "0x413440": 7126,
      "0x4134d0": 7127,
      "0x419358": 7128,
      "0x4193a8": 7129,
      "0x414620": 7130,
      "0x41e828": 7131,
      "0x437390": 7132,
      "0x437538": 7133,
      "0x4438e0": 7134,
      "0x443888": 7135,
      "0x447398": 7136,
      "0x449198": 7137,
      "0x4413c0": 7138,
      "0x42ed38": 7139,
      "0x42ca88": 7140,
      "0x426890": 7141,
      "0x426848": 7142,
      "0x429218": 7143,
      "0x4279d8": 7144,
      "0x4237f0": 7145,
      "0x420238": 7146,
      "0x4202b8": 7147,
      "0x4190c8": 7148,
      "0x4154c8": 7149,
      "0x41c818": 7150,
      "0x43f868": 7151,
      "0x448d20": 7152,
      "0x444038": 7153,
      "0x447578": 7154,
      "0x447120": 7155,
      "0x443790": 7156,
      "0x40a4c0": 7157,
      "0x4ec": 7158,
      "0x4f2": 7159,
      "0x40a160": 7160,
      "0x423018": 7161,
      "0x420038": 7162,
      "0x420930": 7163,
      "0x41ea48": 7164,
      "0x4176a0": 7165,
      "0x4176a8": 7166,
      "0x418440": 7167,
      "0x418448": 7168,
      "0x41b0c8": 7169,
      "0x4350b0": 7170,
      "0x4330c0": 7171,
      "0x43d010": 7172,
      "0x441750": 7173,
      "0x4415f0": 7174,
      "0x446348": 7175,
      "0x44b860": 7176,
      "0x40add0": 7177,
      "0x40add8": 7178,
      "0x427638": 7179,
      "0x422420": 7180,
      "0x4224d8": 7181,
      "0x4223b0": 7182,
      "0x41ae00": 7183,
      "0x41ca68": 7184,
      "0x43ea68": 7185,
      "0x43dae0": 7186,
      "0x431048": 7187,
      "0x433190": 7188,
      "0x44ca00": 7189,
      "0x443138": 7190,
      "0x4497b8": 7191,
      "0x4456a8": 7192,
      "0x445928": 7193,
      "0x416978": 7194,
      "0x42fa10": 7195,
      "0x42f020": 7196,
      "0x423918": 7197,
      "0x426148": 7198,
      "0x428120": 7199,
      "0x422698": 7200,
      "0x42e8c0": 7201,
      "0x42b0d8": 7202,
      "0x43fa50": 7203,
      "0x449890": 7204,
      "0x4474e8": 7205,
      "0x4380b0": 7206,
      "0x448098": 7207,
      "0x4af4f0": 7208,
      "0x40a780": 7209,
      "158": 7210,
      "1ca0": 7211,
      "1500": 7212,
      "268": 7213,
      "248": 7214,
      "318": 7215,
      "4e8": 7216,
      "4a0": 7217,
      "4d0": 7218,
      "4f30": 7219,
      "4c30": 7220,
      "5588": 7221,
      "5c38": 7222,
      "5ef0": 7223,
      "650": 7224,
      "6c70": 7225,
      "7b0": 7226,
      "830": 7227,
      "9d38": 7228,
      "a70": 7229,
      "a190": 7230,
      "aa20": 7231,
      "a1f8": 7232,
      "a4c8": 7233,
      "a1b8": 7234,
      "bf88": 7235,
      "b5c8": 7236,
      "b9f0": 7237,
      "cf8": 7238,
      "cc28": 7239,
      "d488": 7240,
      "d6c0": 7241,
      "ee00": 7242,
      "eff8": 7243,
      "ef90": 7244,
      "e928": 7245,
      "f478": 7246,
      "fe10": 7247,
      "fb98": 7248,
      "fb48": 7249,
      "fe80": 7250,
      "0x4ae": 7251,
      "0x4f0": 7252,
      "0x470": 7253,
      "0x498": 7254,
      "0x480": 7255,
      "0x472": 7256,
      "0x473": 7257,
      "0x492": 7258,
      "0x454": 7259,
      "0x486": 7260,
      "0x494": 7261,
      "0x483": 7262,
      "0x453": 7263,
      "0x4b0": 7264,
      "0x4a8": 7265,
      "0x4b28": 7266,
      "0x45a0": 7267,
      "0x45c0": 7268,
      "0x4e28": 7269,
      "0x47b8": 7270,
      "0x4e50": 7271,
      "0x49e0": 7272,
      "0x4940": 7273,
      "0x49f0": 7274,
      "ff00": 7275,
      "dd90": 7276,
      "add0": 7277,
      "0x40fff0": 7278,
      "0x40e78": 7279,
      "0x40c78": 7280,
      "da80": 7281,
      "a168": 7282,
      "0x4c4c30": 7283,
      "0x4c9d38": 7284,
      "0x4cbf88": 7285,
      "0x4238": 7286,
      "0x4258": 7287,
      "0x4272": 7288,
      "0x42478": 7289,
      "0x42fa68": 7290,
      "0x42f388": 7291,
      "0x42a168": 7292,
      "e0e8": 7293,
      "bc98": 7294,
      "bc68": 7295,
      "d920": 7296,
      "0x4d61": 7297,
      "0x4d43": 7298,
      "0x4d1ca0": 7299,
      "0x4d6c70": 7300,
      "0x4dee00": 7301,
      "0x404278": 7302,
      "0x404508": 7303,
      "0x404308": 7304,
      "0x404188": 7305,
      "0x404580": 7306,
      "0x404500": 7307,
      "0x404190": 7308,
      "0x404130": 7309,
      "0x404198": 7310,
      "0x405d98": 7311,
      "0x405fa0": 7312,
      "0x405988": 7313,
      "0x405600": 7314,
      "0x405da0": 7315,
      "0x405ff8": 7316,
      "0x405da8": 7317,
      "0x41fff0": 7318,
      "0x4196": 7319,
      "0x41b8": 7320,
      "0x41add0": 7321,
      "2830": 7322,
      "7048": 7323,
      "5070": 7324,
      "5090": 7325,
      "98a0": 7326,
      "90c8": 7327,
      "5828": 7328,
      "6010": 7329,
      "72a0": 7330,
      "75e8": 7331,
      "7178": 7332,
      "7190": 7333,
      "7110": 7334,
      "34c0": 7335,
      "3618": 7336,
      "3930": 7337,
      "95f0": 7338,
      "5498": 7339,
      "5418": 7340,
      "9150": 7341,
      "91b8": 7342,
      "1150": 7343,
      "8210": 7344,
      "0720": 7345,
      "9448": 7346,
      "5190": 7347,
      "5148": 7348,
      "51b8": 7349,
      "56c0": 7350,
      "5228": 7351,
      "15c0": 7352,
      "23e0": 7353,
      "0638": 7354,
      "53f0": 7355,
      "66a8": 7356,
      "b010": 7357,
      "b0a8": 7358,
      "b0f8": 7359,
      "0x43a8": 7360,
      "0x43a0e8": 7361,
      "0x43f388": 7362,
      "0x43dd90": 7363,
      "0x43bc98": 7364,
      "0x436010": 7365,
      "0x437110": 7366,
      "0x4334c0": 7367,
      "0x433618": 7368,
      "0x43b010": 7369,
      "0x407f08": 7370,
      "0x407dd0": 7371,
      "0x407980": 7372,
      "0x407e70": 7373,
      "0x407f68": 7374,
      "0x407d08": 7375,
      "0x407e90": 7376,
      "0x407fe0": 7377,
      "0x407e40": 7378,
      "0x407df0": 7379,
      "0x407db8": 7380,
      "0x407e28": 7381,
      "0x407ec0": 7382,
      "0x407dc0": 7383,
      "0x407d60": 7384,
      "a788": 7385,
      "0x44bcb0": 7386,
      "0x44a0e8": 7387,
      "0x44eff8": 7388,
      "0x44fe10": 7389,
      "0x44e0e8": 7390,
      "0x44bc68": 7391,
      "0x445090": 7392,
      "0x4490c8": 7393,
      "0x4472a0": 7394,
      "0x443930": 7395,
      "0x4495f0": 7396,
      "0x445418": 7397,
      "0x449448": 7398,
      "0x4451b8": 7399,
      "0x4423e0": 7400,
      "0x4453f0": 7401,
      "0x4466a8": 7402,
      "0x44a788": 7403,
      "f8e0": 7404,
      "0x40abc0": 7405,
      "0x40a580": 7406,
      "0x40afa8": 7407,
      "0x40abc8": 7408,
      "0x40aae0": 7409,
      "0x40af80": 7410,
      "0x40ad90": 7411,
      "0x40a600": 7412,
      "0x40a500": 7413,
      "0x40ad38": 7414,
      "0x40aae8": 7415,
      "0x40a200": 7416,
      "0x40af70": 7417,
      "0x40af68": 7418,
      "0x40a408": 7419,
      "0x40afc8": 7420,
      "0x40af78": 7421,
      "0x40aa00": 7422,
      "0x40afb0": 7423,
      "0x40a6b0": 7424,
      "0x40aa98": 7425,
      "0x40a6e0": 7426,
      "0x40a628": 7427,
      "0x40a618": 7428,
      "0x40aaa8": 7429,
      "0x40aa30": 7430,
      "0x40aad0": 7431,
      "0x40a4e0": 7432,
      "0x40a658": 7433,
      "0x40a428": 7434,
      "0x40aaf8": 7435,
      "0x40a698": 7436,
      "0x40aa58": 7437,
      "0x40a630": 7438,
      "0x40aa60": 7439,
      "0x4044d0": 7440,
      "0x4044d8": 7441,
      "0x4044f8": 7442,
      "0x40bee8": 7443,
      "0x40bdd8": 7444,
      "0x40b388": 7445,
      "0x40bbc0": 7446,
      "0x40b708": 7447,
      "0x40bf18": 7448,
      "0x40bed8": 7449,
      "0x40b788": 7450,
      "0x40bd98": 7451,
      "0x40b288": 7452,
      "0x40bb08": 7453,
      "0x40bfa0": 7454,
      "0x40bf80": 7455,
      "0x40b168": 7456,
      "0x40bd38": 7457,
      "0x40b100": 7458,
      "0x40bfd8": 7459,
      "0x40b608": 7460,
      "0x40bfc0": 7461,
      "0x40bac0": 7462,
      "0x40b700": 7463,
      "0x40bf48": 7464,
      "0x40ba90": 7465,
      "0x40bee0": 7466,
      "0x40be70": 7467,
      "0x40bd08": 7468,
      "0x40bfc8": 7469,
      "0x40b690": 7470,
      "0x40bfd0": 7471,
      "0x40b888": 7472,
      "0x40b000": 7473,
      "0x40ba88": 7474,
      "0x40be20": 7475,
      "0x40bf60": 7476,
      "0x40beb8": 7477,
      "0x40bde0": 7478,
      "0x40be18": 7479,
      "0x40bf58": 7480,
      "0x40be98": 7481,
      "0x40be68": 7482,
      "0x40be48": 7483,
      "0x40be58": 7484,
      "0x40c388": 7485,
      "0x40c708": 7486,
      "0x40c308": 7487,
      "0x40c188": 7488,
      "0x40cf18": 7489,
      "0x40c108": 7490,
      "0x40cfa8": 7491,
      "0x40cbc8": 7492,
      "0x40cca0": 7493,
      "0x40cb38": 7494,
      "0x40cf20": 7495,
      "0x40c988": 7496,
      "0x40c488": 7497,
      "0x40c400": 7498,
      "0x40c168": 7499,
      "0x40c600": 7500,
      "0x40cca8": 7501,
      "0x40c480": 7502,
      "0x40cf88": 7503,
      "0x40c200": 7504,
      "0x40cfd8": 7505,
      "0x40cfc0": 7506,
      "0x40cac0": 7507,
      "0x40ced0": 7508,
      "0x40cb18": 7509,
      "0x40cf90": 7510,
      "0x40c160": 7511,
      "0x40c588": 7512,
      "0x40cb88": 7513,
      "0x40c610": 7514,
      "0x40cfc8": 7515,
      "0x40c690": 7516,
      "0x40c738": 7517,
      "0x40cd20": 7518,
      "0x40cd18": 7519,
      "0x40ceb8": 7520,
      "0x40cb98": 7521,
      "0x40ce88": 7522,
      "0x40cbe8": 7523,
      "0x40cbb0": 7524,
      "0x40cbf8": 7525,
      "0x40cfe0": 7526,
      "0x40cb48": 7527,
      "0x40cc18": 7528,
      "0x40ce18": 7529,
      "0x40ce40": 7530,
      "0x40cfe8": 7531,
      "0x40cbe0": 7532,
      "0x40cc70": 7533,
      "0x40cd88": 7534,
      "0x40c2d8": 7535,
      "0x40c6b0": 7536,
      "0x40cb60": 7537,
      "0x40c6a0": 7538,
      "0x40cb70": 7539,
      "0x40cb80": 7540,
      "0x40cba0": 7541,
      "0x40cd70": 7542,
      "0x40cd80": 7543,
      "0x40cdc0": 7544,
      "0x40ccc0": 7545,
      "0x40cdb0": 7546,
      "0x40c6e8": 7547,
      "0x40c6a8": 7548,
      "0x405978": 7549,
      "0x405970": 7550,
      "0x405920": 7551,
      "0x405940": 7552,
      "0x405958": 7553,
      "0x409dd8": 7554,
      "0x409508": 7555,
      "0x409580": 7556,
      "0x409108": 7557,
      "0x409f28": 7558,
      "0x409d98": 7559,
      "0x409f00": 7560,
      "0x409ff0": 7561,
      "0x409ae8": 7562,
      "0x409608": 7563,
      "0x409ac0": 7564,
      "0x409ed0": 7565,
      "0x409ac8": 7566,
      "0x409700": 7567,
      "0x409588": 7568,
      "0x409300": 7569,
      "0x409f70": 7570,
      "0x409a90": 7571,
      "0x409a68": 7572,
      "0x409e70": 7573,
      "0x409fb8": 7574,
      "0x409ec8": 7575,
      "0x409e40": 7576,
      "0x409e30": 7577,
      "0x409e80": 7578,
      "0x408ee8": 7579,
      "0x408dd8": 7580,
      "0x408380": 7581,
      "0x408708": 7582,
      "0x408fa8": 7583,
      "0x408908": 7584,
      "0x408788": 7585,
      "0x408f00": 7586,
      "0x408980": 7587,
      "0x408600": 7588,
      "0x408ae8": 7589,
      "0x408da0": 7590,
      "0x408ff8": 7591,
      "0x408fc0": 7592,
      "0x408ed0": 7593,
      "0x408da8": 7594,
      "0x408160": 7595,
      "0x408808": 7596,
      "0x408ea0": 7597,
      "0x408ee0": 7598,
      "0x408f68": 7599,
      "0x408fc8": 7600,
      "0x408fd0": 7601,
      "0x4088d0": 7602,
      "0x408ec8": 7603,
      "0x408f60": 7604,
      "0x408eb8": 7605,
      "0x408e18": 7606,
      "0x408e40": 7607,
      "0x408f58": 7608,
      "0x408c68": 7609,
      "0x408e98": 7610,
      "0x408c28": 7611,
      "0x408c48": 7612,
      "0x408cb8": 7613,
      "0x408c10": 7614,
      "0x408c80": 7615,
      "0x408ec0": 7616,
      "0x408c60": 7617,
      "0x408e30": 7618,
      "0x408c08": 7619,
      "0x408c00": 7620,
      "0x405850": 7621,
      "0x405898": 7622,
      "0x405830": 7623,
      "0x40ebc0": 7624,
      "0x40e308": 7625,
      "0x40e188": 7626,
      "0x40ef18": 7627,
      "0x40efa8": 7628,
      "0x40ef50": 7629,
      "0x40ef28": 7630,
      "0x40ef20": 7631,
      "0x40e208": 7632,
      "0x40efa0": 7633,
      "0x40ee00": 7634,
      "0x40eff0": 7635,
      "0x40e400": 7636,
      "0x40e500": 7637,
      "0x40eca8": 7638,
      "0x40e480": 7639,
      "0x40e608": 7640,
      "0x40eed0": 7641,
      "0x40ee08": 7642,
      "0x40ef90": 7643,
      "0x40eb88": 7644,
      "0x40ebd8": 7645,
      "0x40eea0": 7646,
      "0x40ef70": 7647,
      "0x40eee0": 7648,
      "0x40e738": 7649,
      "0x40e138": 7650,
      "0x40ef30": 7651,
      "0x40eb98": 7652,
      "0x40ec88": 7653,
      "0x40ebb0": 7654,
      "0x40ebf8": 7655,
      "0x40e128": 7656,
      "0x40eb30": 7657,
      "0x40ec18": 7658,
      "0x40ee40": 7659,
      "0x40e118": 7660,
      "0x40ef10": 7661,
      "0x40ebe0": 7662,
      "0x40ec68": 7663,
      "0x40ec28": 7664,
      "0x40ecb8": 7665,
      "0x40ec80": 7666,
      "0x40ece8": 7667,
      "0x40eec0": 7668,
      "0x40e150": 7669,
      "0x40e1f8": 7670,
      "0x40e618": 7671,
      "0x40ee30": 7672,
      "0x40ee60": 7673,
      "0x40ec08": 7674,
      "0x40ec00": 7675,
      "0x40e1a0": 7676,
      "0x40e1f0": 7677,
      "0x40e6c0": 7678,
      "0x40ee38": 7679,
      "0x40e630": 7680,
      "0x40ec30": 7681,
      "0x416f08": 7682,
      "0x416bc0": 7683,
      "0x416508": 7684,
      "0x416ed8": 7685,
      "0x416908": 7686,
      "0x416788": 7687,
      "0x416648": 7688,
      "0x416680": 7689,
      "0x416b38": 7690,
      "0x416180": 7691,
      "0x416fa0": 7692,
      "0x416ae8": 7693,
      "0x416da0": 7694,
      "0x416fc0": 7695,
      "0x416588": 7696,
      "0x416ea0": 7697,
      "0x416f70": 7698,
      "0x416a90": 7699,
      "0x416ee0": 7700,
      "0x416a68": 7701,
      "0x416f68": 7702,
      "0x416e20": 7703,
      "0x416f60": 7704,
      "0x416c90": 7705,
      "0x416eb8": 7706,
      "0x4161c0": 7707,
      "0x4165d8": 7708,
      "0x416b98": 7709,
      "0x416b68": 7710,
      "0x416f78": 7711,
      "0x416c20": 7712,
      "0x416c18": 7713,
      "0x416b78": 7714,
      "0x416fe8": 7715,
      "0x416a10": 7716,
      "0x416a00": 7717,
      "0x416118": 7718,
      "0x416a18": 7719,
      "0x416cb0": 7720,
      "0x416c28": 7721,
      "0x416d88": 7722,
      "0x416998": 7723,
      "0x416af0": 7724,
      "0x416c80": 7725,
      "0x416ec0": 7726,
      "0x416a20": 7727,
      "0x416b70": 7728,
      "0x416c60": 7729,
      "0x416d70": 7730,
      "0x416150": 7731,
      "0x4166e0": 7732,
      "0x416628": 7733,
      "0x416e48": 7734,
      "0x416778": 7735,
      "0x416730": 7736,
      "0x416d78": 7737,
      "0x4167f0": 7738,
      "0x416d60": 7739,
      "0x416ef0": 7740,
      "0x416de8": 7741,
      "0x4161d0": 7742,
      "0x416950": 7743,
      "0x4169c8": 7744,
      "0x4161b8": 7745,
      "0x4162a0": 7746,
      "0x4166a8": 7747,
      "0x416670": 7748,
      "0x40df40": 7749,
      "0x40d780": 7750,
      "0x40d280": 7751,
      "0x40d708": 7752,
      "0x40d308": 7753,
      "0x40d188": 7754,
      "0x40dfa8": 7755,
      "0x40df00": 7756,
      "0x40db08": 7757,
      "0x40df80": 7758,
      "0x40d600": 7759,
      "0x40dca8": 7760,
      "0x40d480": 7761,
      "0x40de08": 7762,
      "0x40df68": 7763,
      "0x40d690": 7764,
      "0x40dfd0": 7765,
      "0x40dfb8": 7766,
      "0x40d000": 7767,
      "0x40d138": 7768,
      "0x40dec8": 7769,
      "0x40df60": 7770,
      "0x40d5a0": 7771,
      "0x40de10": 7772,
      "0x40deb8": 7773,
      "0x40df30": 7774,
      "0x40d1c0": 7775,
      "0x40df78": 7776,
      "0x40d5e8": 7777,
      "0x40dbe8": 7778,
      "0x40dbb8": 7779,
      "0x40dbf8": 7780,
      "0x40de90": 7781,
      "0x40db30": 7782,
      "0x40dc20": 7783,
      "0x40de18": 7784,
      "0x40d410": 7785,
      "0x40dcc8": 7786,
      "0x40df10": 7787,
      "0x40dbe0": 7788,
      "0x40dc70": 7789,
      "0x40dcb0": 7790,
      "0x40de98": 7791,
      "0x40dc28": 7792,
      "0x40dc48": 7793,
      "0x40d2d8": 7794,
      "0x40d538": 7795,
      "0x40d5d0": 7796,
      "0x40d6b0": 7797,
      "0x40dc10": 7798,
      "0x40db00": 7799,
      "0x40d1f8": 7800,
      "0x40d628": 7801,
      "0x40d618": 7802,
      "0x40d6c8": 7803,
      "0x40d218": 7804,
      "0x40de30": 7805,
      "0x40d540": 7806,
      "0x40d620": 7807,
      "0x40dc08": 7808,
      "0x40d560": 7809,
      "0x40d6b8": 7810,
      "0x40d1e8": 7811,
      "0x40d1d0": 7812,
      "0x40d1c8": 7813,
      "0x40d578": 7814,
      "0x40d258": 7815,
      "0x40d438": 7816,
      "0x40d4a8": 7817,
      "0x40d6d8": 7818,
      "0x40d2e0": 7819,
      "0x40d270": 7820,
      "0x40d698": 7821,
      "0x40d210": 7822,
      "0x40d638": 7823,
      "0x40d460": 7824,
      "0x40d4c0": 7825,
      "0x40d248": 7826,
      "0x40fee8": 7827,
      "0x40fbc0": 7828,
      "0x40f280": 7829,
      "0x40f108": 7830,
      "0x40f640": 7831,
      "0x40f788": 7832,
      "0x40f680": 7833,
      "0x40f688": 7834,
      "0x40fb08": 7835,
      "0x40f400": 7836,
      "0x40f500": 7837,
      "0x40fd38": 7838,
      "0x40f200": 7839,
      "0x40fd28": 7840,
      "0x40fb18": 7841,
      "0x40f588": 7842,
      "0x40fbd8": 7843,
      "0x40fea0": 7844,
      "0x40f300": 7845,
      "0x40f690": 7846,
      "0x40fb50": 7847,
      "0x40f138": 7848,
      "0x40fb40": 7849,
      "0x40fec8": 7850,
      "0x40f1c0": 7851,
      "0x40fbf8": 7852,
      "0x40fde0": 7853,
      "0x40f128": 7854,
      "0x40f120": 7855,
      "0x40fcd8": 7856,
      "0x40fcc8": 7857,
      "0x40fb90": 7858,
      "0x40fbe0": 7859,
      "0x40fc70": 7860,
      "0x40fc68": 7861,
      "0x40fcb0": 7862,
      "0x40fd10": 7863,
      "0x40fc10": 7864,
      "0x40fd48": 7865,
      "0x40fec0": 7866,
      "0x40fb00": 7867,
      "0x40fc60": 7868,
      "0x40fdf8": 7869,
      "0x40f150": 7870,
      "0x40f618": 7871,
      "0x40fdc0": 7872,
      "0x40f148": 7873,
      "0x40fe58": 7874,
      "0x40f620": 7875,
      "0x40f6d0": 7876,
      "0x40f6d8": 7877,
      "0x40f1e0": 7878,
      "0x40f660": 7879,
      "0x40f6f0": 7880,
      "0x40f6a8": 7881,
      "0x4057e0": 7882,
      "0x4057f0": 7883,
      "0x405770": 7884,
      "0x405758": 7885,
      "0x4048e8": 7886,
      "0x406060": 7887,
      "0x412dd8": 7888,
      "0x412bc0": 7889,
      "0x412708": 7890,
      "0x412508": 7891,
      "0x412580": 7892,
      "0x412108": 7893,
      "0x412908": 7894,
      "0x412ae0": 7895,
      "0x412648": 7896,
      "0x412680": 7897,
      "0x412b38": 7898,
      "0x412f28": 7899,
      "0x412b08": 7900,
      "0x412f98": 7901,
      "0x412f80": 7902,
      "0x412ff0": 7903,
      "0x412600": 7904,
      "0x412608": 7905,
      "0x412ff8": 7906,
      "0x412e08": 7907,
      "0x412160": 7908,
      "0x412300": 7909,
      "0x412e70": 7910,
      "0x412d08": 7911,
      "0x412b50": 7912,
      "0x412a88": 7913,
      "0x412c90": 7914,
      "0x412e10": 7915,
      "0x412eb8": 7916,
      "0x412c88": 7917,
      "0x412bb8": 7918,
      "0x412dc8": 7919,
      "0x412e90": 7920,
      "0x412b30": 7921,
      "0x412c20": 7922,
      "0x412c18": 7923,
      "0x412e18": 7924,
      "0x412d30": 7925,
      "0x412bf0": 7926,
      "0x412cc8": 7927,
      "0x412ba8": 7928,
      "0x412a18": 7929,
      "0x412c70": 7930,
      "0x412cb8": 7931,
      "0x412e68": 7932,
      "0x412c80": 7933,
      "0x412d48": 7934,
      "0x412a40": 7935,
      "0x412b58": 7936,
      "0x412b00": 7937,
      "0x412df8": 7938,
      "0x412dc0": 7939,
      "0x412e48": 7940,
      "0x412a30": 7941,
      "0x412ab8": 7942,
      "0x412d78": 7943,
      "0x412ef0": 7944,
      "0x412ce0": 7945,
      "0x412c98": 7946,
      "0x412a48": 7947,
      "0x412a50": 7948,
      "0x404620": 7949,
      "0x4046c8": 7950,
      "0x41a708": 7951,
      "0x41abc8": 7952,
      "0x41aae0": 7953,
      "0x41a180": 7954,
      "0x41af20": 7955,
      "0x41af98": 7956,
      "0x41a400": 7957,
      "0x41a600": 7958,
      "0x41ad38": 7959,
      "0x41ada0": 7960,
      "0x41aff8": 7961,
      "0x41ab18": 7962,
      "0x41ab28": 7963,
      "0x41af90": 7964,
      "0x41abd8": 7965,
      "0x41af70": 7966,
      "0x41a408": 7967,
      "0x41a800": 7968,
      "0x41a610": 7969,
      "0x41a690": 7970,
      "0x41a138": 7971,
      "0x41a5a0": 7972,
      "0x41a5d8": 7973,
      "0x41a5e8": 7974,
      "0x41abe8": 7975,
      "0x41adc8": 7976,
      "0x41ab30": 7977,
      "0x41ab48": 7978,
      "0x41a590": 7979,
      "0x41ad30": 7980,
      "0x41afe8": 7981,
      "0x41a5f0": 7982,
      "0x41aa10": 7983,
      "0x41aba8": 7984,
      "0x41af58": 7985,
      "0x41a140": 7986,
      "0x41aa18": 7987,
      "0x41ad10": 7988,
      "0x41a538": 7989,
      "0x41ad50": 7990,
      "0x41ab80": 7991,
      "0x41aba0": 7992,
      "0x41a150": 7993,
      "0x41a510": 7994,
      "0x41a618": 7995,
      "0x41a6c8": 7996,
      "0x41a728": 7997,
      "0x41a148": 7998,
      "0x41a570": 7999,
      "0x41a518": 8000,
      "0x41a5b8": 8001,
      "0x41a7c0": 8002,
      "0x41ad58": 8003,
      "0x41a540": 8004,
      "0x41a658": 8005,
      "0x41a718": 8006,
      "0x41a7a8": 8007,
      "0x41aa08": 8008,
      "0x41a1d8": 8009,
      "0x41a428": 8010,
      "0x41a420": 8011,
      "0x41a798": 8012,
      "0x41aaf8": 8013,
      "0x41a1e8": 8014,
      "0x41a1c8": 8015,
      "0x41a528": 8016,
      "0x41a298": 8017,
      "0x41a258": 8018,
      "0x41a490": 8019,
      "0x41a750": 8020,
      "0x41a740": 8021,
      "0x41a7e8": 8022,
      "0x41a7d0": 8023,
      "0x41a448": 8024,
      "0x41aa58": 8025,
      "0x41a178": 8026,
      "0x41a430": 8027,
      "0x41a4a0": 8028,
      "0x407bd0": 8029,
      "0x41bee8": 8030,
      "0x41bdd8": 8031,
      "0x41b708": 8032,
      "0x41b580": 8033,
      "0x41bf28": 8034,
      "0x41bd98": 8035,
      "0x41bf00": 8036,
      "0x41b688": 8037,
      "0x41be00": 8038,
      "0x41bf98": 8039,
      "0x41b480": 8040,
      "0x41bfd8": 8041,
      "0x41bb20": 8042,
      "0x41bff8": 8043,
      "0x41bd28": 8044,
      "0x41bed0": 8045,
      "0x41be08": 8046,
      "0x41bf90": 8047,
      "0x41bda8": 8048,
      "0x41bf70": 8049,
      "0x41b738": 8050,
      "0x41b8d0": 8051,
      "0x41b320": 8052,
      "0x41bd18": 8053,
      "0x41beb8": 8054,
      "0x41bb30": 8055,
      "0x41b120": 8056,
      "0x41bef8": 8057,
      "0x41bfe8": 8058,
      "0x41b118": 8059,
      "0x41bf58": 8060,
      "0x41b140": 8061,
      "0x41ba18": 8062,
      "0x41b5d0": 8063,
      "0x41bd48": 8064,
      "0x41b520": 8065,
      "0x41b6a0": 8066,
      "0x41bb70": 8067,
      "0x41b1f8": 8068,
      "0x41baa8": 8069,
      "0x41bdc0": 8070,
      "0x41be48": 8071,
      "0x41b148": 8072,
      "0x41b778": 8073,
      "0x41ba30": 8074,
      "0x41bd78": 8075,
      "0x41b110": 8076,
      "0x41b4e0": 8077,
      "0x41b6d0": 8078,
      "0x41ba08": 8079,
      "0x41bbd0": 8080,
      "0x41b340": 8081,
      "0x41b6b8": 8082,
      "0x41b798": 8083,
      "0x41b2d0": 8084,
      "0x41b490": 8085,
      "0x41b758": 8086,
      "0x41b1e0": 8087,
      "0x41b448": 8088,
      "0x41b768": 8089,
      "0x41b1a8": 8090,
      "0x410dd8": 8091,
      "0x410dd0": 8092,
      "0x410280": 8093,
      "0x410308": 8094,
      "0x410f18": 8095,
      "0x410ed8": 8096,
      "0x410ae0": 8097,
      "0x410f50": 8098,
      "0x410b38": 8099,
      "0x410f20": 8100,
      "0x410980": 8101,
      "0x410ff0": 8102,
      "0x410d90": 8103,
      "0x410600": 8104,
      "0x410b20": 8105,
      "0x410da0": 8106,
      "0x410608": 8107,
      "0x410fc0": 8108,
      "0x410b18": 8109,
      "0x410ac8": 8110,
      "0x410da8": 8111,
      "0x410f48": 8112,
      "0x410808": 8113,
      "0x410ea0": 8114,
      "0x410a90": 8115,
      "0x410e70": 8116,
      "0x410f68": 8117,
      "0x410fb8": 8118,
      "0x410b50": 8119,
      "0x410e20": 8120,
      "0x410f30": 8121,
      "0x410ea8": 8122,
      "0x410f78": 8123,
      "0x410c88": 8124,
      "0x410e88": 8125,
      "0x410ad8": 8126,
      "0x410e40": 8127,
      "0x410cd8": 8128,
      "0x410fb0": 8129,
      "0x410ba8": 8130,
      "0x410d40": 8131,
      "0x410f58": 8132,
      "0x410c70": 8133,
      "0x410a80": 8134,
      "0x410c40": 8135,
      "0x410c48": 8136,
      "0x410aa0": 8137,
      "0x410b60": 8138,
      "0x410c80": 8139,
      "0x410d50": 8140,
      "0x410d48": 8141,
      "0x410b58": 8142,
      "0x410b80": 8143,
      "0x410ba0": 8144,
      "0x410c60": 8145,
      "0x410a30": 8146,
      "0x410cc0": 8147,
      "0x410e30": 8148,
      "0x410e60": 8149,
      "0x410bd0": 8150,
      "0x410ef0": 8151,
      "0x410af8": 8152,
      "0x410a48": 8153,
      "0x413ee8": 8154,
      "0x413bc0": 8155,
      "0x413280": 8156,
      "0x413708": 8157,
      "0x413fa8": 8158,
      "0x413ca0": 8159,
      "0x413ae0": 8160,
      "0x413f50": 8161,
      "0x413680": 8162,
      "0x413180": 8163,
      "0x413288": 8164,
      "0x413b08": 8165,
      "0x4138d8": 8166,
      "0x413200": 8167,
      "0x413100": 8168,
      "0x413fd8": 8169,
      "0x413ff8": 8170,
      "0x413d28": 8171,
      "0x413ed0": 8172,
      "0x413700": 8173,
      "0x413588": 8174,
      "0x413f48": 8175,
      "0x413e70": 8176,
      "0x413b50": 8177,
      "0x413a88": 8178,
      "0x413d20": 8179,
      "0x413d18": 8180,
      "0x413e10": 8181,
      "0x413f30": 8182,
      "0x413b98": 8183,
      "0x413c38": 8184,
      "0x413c88": 8185,
      "0x413be8": 8186,
      "0x413de0": 8187,
      "0x413e18": 8188,
      "0x413ef8": 8189,
      "0x413b90": 8190,
      "0x413d00": 8191,
      "0x413d10": 8192,
      "0x413af0": 8193,
      "0x413a98": 8194,
      "0x413aa0": 8195,
      "0x413d48": 8196,
      "0x413a20": 8197,
      "0x413a40": 8198,
      "0x413cc0": 8199,
      "0x413e30": 8200,
      "0x413e60": 8201,
      "0x413e38": 8202,
      "0x41df40": 8203,
      "0x41d380": 8204,
      "0x41d388": 8205,
      "0x41dbc0": 8206,
      "0x41d280": 8207,
      "0x41d308": 8208,
      "0x41d108": 8209,
      "0x41d680": 8210,
      "0x41db38": 8211,
      "0x41df00": 8212,
      "0x41d488": 8213,
      "0x41df98": 8214,
      "0x41d480": 8215,
      "0x41db20": 8216,
      "0x41db18": 8217,
      "0x41dbd8": 8218,
      "0x41d408": 8219,
      "0x41d610": 8220,
      "0x41dfc8": 8221,
      "0x41d738": 8222,
      "0x41d8d0": 8223,
      "0x41de10": 8224,
      "0x41db98": 8225,
      "0x41de88": 8226,
      "0x41d5e8": 8227,
      "0x41dbb8": 8228,
      "0x41dbf8": 8229,
      "0x41de90": 8230,
      "0x41dfb0": 8231,
      "0x41dba8": 8232,
      "0x41df10": 8233,
      "0x41dc68": 8234,
      "0x41dcb0": 8235,
      "0x41dc28": 8236,
      "0x41d538": 8237,
      "0x41d5d0": 8238,
      "0x41dc80": 8239,
      "0x41d790": 8240,
      "0x41d5c8": 8241,
      "0x41d518": 8242,
      "0x41d5b8": 8243,
      "0x41d730": 8244,
      "0x41d7c0": 8245,
      "0x41d550": 8246,
      "0x41d7e0": 8247,
      "0x41d7f0": 8248,
      "0x41dbd0": 8249,
      "0x41d428": 8250,
      "0x41d458": 8251,
      "0x41d560": 8252,
      "0x41d6b8": 8253,
      "0x41d2b8": 8254,
      "0x41d7e8": 8255,
      "0x41d7c8": 8256,
      "0x41d240": 8257,
      "0x41d470": 8258,
      "0x41de38": 8259,
      "0x41d178": 8260,
      "0x41d228": 8261,
      "0x41d4b8": 8262,
      "0x41d4e8": 8263,
      "0x4053c0": 8264,
      "0x405650": 8265,
      "0x405630": 8266,
      "0x41cf38": 8267,
      "0x41cf40": 8268,
      "0x41c388": 8269,
      "0x41c508": 8270,
      "0x41cbc8": 8271,
      "0x41cae0": 8272,
      "0x41cf50": 8273,
      "0x41cb38": 8274,
      "0x41ce00": 8275,
      "0x41c488": 8276,
      "0x41cd90": 8277,
      "0x41cf88": 8278,
      "0x41c8d8": 8279,
      "0x41cda0": 8280,
      "0x41cff8": 8281,
      "0x41ced0": 8282,
      "0x41cb28": 8283,
      "0x41cb88": 8284,
      "0x41cf68": 8285,
      "0x41c690": 8286,
      "0x41c000": 8287,
      "0x41cec8": 8288,
      "0x41ce10": 8289,
      "0x41c1c0": 8290,
      "0x41cb98": 8291,
      "0x41cbb0": 8292,
      "0x41cde0": 8293,
      "0x41ce90": 8294,
      "0x41cfe0": 8295,
      "0x41cc18": 8296,
      "0x41ce18": 8297,
      "0x41c5f0": 8298,
      "0x41ccd8": 8299,
      "0x41cb90": 8300,
      "0x41cc58": 8301,
      "0x41cd10": 8302,
      "0x41ce68": 8303,
      "0x41c538": 8304,
      "0x41c598": 8305,
      "0x41c5d0": 8306,
      "0x41cc10": 8307,
      "0x41cc80": 8308,
      "0x41cce8": 8309,
      "0x41cd48": 8310,
      "0x41c7d8": 8311,
      "0x41cd70": 8312,
      "0x41cdf8": 8313,
      "0x41c510": 8314,
      "0x41c5c8": 8315,
      "0x41c148": 8316,
      "0x41c5b8": 8317,
      "0x41c7c0": 8318,
      "0x41c7b8": 8319,
      "0x41c440": 8320,
      "0x41c620": 8321,
      "0x41c7f0": 8322,
      "0x41c9e0": 8323,
      "0x41c560": 8324,
      "0x41c6e8": 8325,
      "0x41c798": 8326,
      "0x41c1c8": 8327,
      "0x41c2b8": 8328,
      "0x41c528": 8329,
      "0x41c1b0": 8330,
      "0x41c438": 8331,
      "0x41c940": 8332,
      "0x41c9a8": 8333,
      "0x41c4f0": 8334,
      "0x41c768": 8335,
      "0x41c6f0": 8336,
      "0x41c958": 8337,
      "0x411dd8": 8338,
      "0x411708": 8339,
      "0x411ed8": 8340,
      "0x411108": 8341,
      "0x411bc8": 8342,
      "0x411ca0": 8343,
      "0x411640": 8344,
      "0x411ae0": 8345,
      "0x411788": 8346,
      "0x411648": 8347,
      "0x411f28": 8348,
      "0x411f20": 8349,
      "0x411b08": 8350,
      "0x411ff0": 8351,
      "0x411400": 8352,
      "0x411168": 8353,
      "0x411d90": 8354,
      "0x411200": 8355,
      "0x411100": 8356,
      "0x411b20": 8357,
      "0x411d28": 8358,
      "0x411fc0": 8359,
      "0x411ed0": 8360,
      "0x411b10": 8361,
      "0x411f48": 8362,
      "0x411ea0": 8363,
      "0x411e70": 8364,
      "0x411d08": 8365,
      "0x411fd0": 8366,
      "0x411b50": 8367,
      "0x411a88": 8368,
      "0x411c90": 8369,
      "0x411f30": 8370,
      "0x411ad8": 8371,
      "0x411bf8": 8372,
      "0x411b48": 8373,
      "0x411a28": 8374,
      "0x411d30": 8375,
      "0x411cd8": 8376,
      "0x411cc8": 8377,
      "0x411b90": 8378,
      "0x411d40": 8379,
      "0x411c58": 8380,
      "0x411cb0": 8381,
      "0x411e98": 8382,
      "0x411eb0": 8383,
      "0x411a80": 8384,
      "0x411cb8": 8385,
      "0x411d10": 8386,
      "0x411e28": 8387,
      "0x411aa0": 8388,
      "0x411b60": 8389,
      "0x411a20": 8390,
      "0x411b58": 8391,
      "0x411ba0": 8392,
      "0x411c60": 8393,
      "0x411df8": 8394,
      "0x411ad0": 8395,
      "0x411ab8": 8396,
      "0x411c00": 8397,
      "0x411ef0": 8398,
      "0x411c98": 8399,
      "0x411de8": 8400,
      "0x411a58": 8401,
      "0x411cf0": 8402,
      "0x417dd8": 8403,
      "0x417188": 8404,
      "0x417788": 8405,
      "0x417b38": 8406,
      "0x417f28": 8407,
      "0x417180": 8408,
      "0x417f98": 8409,
      "0x417f80": 8410,
      "0x417ff0": 8411,
      "0x417168": 8412,
      "0x417d90": 8413,
      "0x417d38": 8414,
      "0x417f88": 8415,
      "0x417fc0": 8416,
      "0x417ac0": 8417,
      "0x417ac8": 8418,
      "0x417da8": 8419,
      "0x417f48": 8420,
      "0x417a68": 8421,
      "0x417f68": 8422,
      "0x417d08": 8423,
      "0x417fd0": 8424,
      "0x417b50": 8425,
      "0x417e20": 8426,
      "0x417f30": 8427,
      "0x417c38": 8428,
      "0x417de0": 8429,
      "0x417b30": 8430,
      "0x417a10": 8431,
      "0x417bf0": 8432,
      "0x417be0": 8433,
      "0x417eb0": 8434,
      "0x417c28": 8435,
      "0x417c40": 8436,
      "0x417b60": 8437,
      "0x417d50": 8438,
      "0x417c60": 8439,
      "0x417d70": 8440,
      "0x417cc0": 8441,
      "0x417d60": 8442,
      "0x419ee8": 8443,
      "0x419dd8": 8444,
      "0x419708": 8445,
      "0x419508": 8446,
      "0x419580": 8447,
      "0x419fa8": 8448,
      "0x419bc8": 8449,
      "0x419ca0": 8450,
      "0x419f50": 8451,
      "0x419b38": 8452,
      "0x419f28": 8453,
      "0x419f20": 8454,
      "0x419208": 8455,
      "0x419488": 8456,
      "0x419f98": 8457,
      "0x419600": 8458,
      "0x419500": 8459,
      "0x419d38": 8460,
      "0x419f88": 8461,
      "0x419200": 8462,
      "0x419fc0": 8463,
      "0x419900": 8464,
      "0x419b18": 8465,
      "0x419b28": 8466,
      "0x419f90": 8467,
      "0x419300": 8468,
      "0x4198d0": 8469,
      "0x419a88": 8470,
      "0x419b40": 8471,
      "0x419ec8": 8472,
      "0x419f60": 8473,
      "0x419f78": 8474,
      "0x419c88": 8475,
      "0x419e90": 8476,
      "0x419fe0": 8477,
      "0x419b78": 8478,
      "0x419fe8": 8479,
      "0x419cd8": 8480,
      "0x419d40": 8481,
      "0x419c70": 8482,
      "0x419eb0": 8483,
      "0x419a80": 8484,
      "0x419c48": 8485,
      "0x419d10": 8486,
      "0x419c10": 8487,
      "0x419c80": 8488,
      "0x419d50": 8489,
      "0x419b70": 8490,
      "0x419d68": 8491,
      "0x419dc0": 8492,
      "0x419e48": 8493,
      "0x419cc0": 8494,
      "0x419a08": 8495,
      "0x419a38": 8496,
      "0x419c30": 8497,
      "0x41ef38": 8498,
      "0x41e580": 8499,
      "0x41ef18": 8500,
      "0x41e108": 8501,
      "0x41e908": 8502,
      "0x41ef50": 8503,
      "0x41eb38": 8504,
      "0x41ef28": 8505,
      "0x41eb08": 8506,
      "0x41ef98": 8507,
      "0x41eca8": 8508,
      "0x41e480": 8509,
      "0x41eb28": 8510,
      "0x41ef68": 8511,
      "0x41eb50": 8512,
      "0x41e888": 8513,
      "0x41e138": 8514,
      "0x41ee20": 8515,
      "0x41ef60": 8516,
      "0x41e5a0": 8517,
      "0x41ee10": 8518,
      "0x41eeb8": 8519,
      "0x41eea8": 8520,
      "0x41e1c0": 8521,
      "0x41eb98": 8522,
      "0x41ef78": 8523,
      "0x41e938": 8524,
      "0x41e5e8": 8525,
      "0x41e120": 8526,
      "0x41e410": 8527,
      "0x41e668": 8528,
      "0x41eef8": 8529,
      "0x41ef10": 8530,
      "0x41e5e0": 8531,
      "0x41ecd0": 8532,
      "0x41e7d8": 8533,
      "0x41e468": 8534,
      "0x41e628": 8535,
      "0x41e148": 8536,
      "0x41e218": 8537,
      "0x41e3b8": 8538,
      "0x41e570": 8539,
      "0x41ecc0": 8540,
      "0x41ee58": 8541,
      "0x41e620": 8542,
      "0x41e658": 8543,
      "0x41e7f0": 8544,
      "0x41e710": 8545,
      "0x41e7a8": 8546,
      "0x41e560": 8547,
      "0x41e1d0": 8548,
      "0x41e398": 8549,
      "0x41e3a0": 8550,
      "0x41e528": 8551,
      "0x41e720": 8552,
      "0x41e258": 8553,
      "0x41e750": 8554,
      "0x41e758": 8555,
      "0x41e240": 8556,
      "0x41e2a8": 8557,
      "0x41e3e8": 8558,
      "0x41e3c8": 8559,
      "0x41e2f8": 8560,
      "0x41e318": 8561,
      "0x41ecf8": 8562,
      "0x42c388": 8563,
      "0x42c280": 8564,
      "0x42c188": 8565,
      "0x42cbc8": 8566,
      "0x42cae0": 8567,
      "0x42cf50": 8568,
      "0x42cb38": 8569,
      "0x42c488": 8570,
      "0x42cf80": 8571,
      "0x42cff0": 8572,
      "0x42c400": 8573,
      "0x42cd38": 8574,
      "0x42cfd8": 8575,
      "0x42cd28": 8576,
      "0x42cb18": 8577,
      "0x42ce08": 8578,
      "0x42cb10": 8579,
      "0x42cbd8": 8580,
      "0x42c610": 8581,
      "0x42cfd0": 8582,
      "0x42cb50": 8583,
      "0x42c000": 8584,
      "0x42ce20": 8585,
      "0x42cd18": 8586,
      "0x42cea8": 8587,
      "0x42cb98": 8588,
      "0x42c938": 8589,
      "0x42c5e8": 8590,
      "0x42cbe8": 8591,
      "0x42cbb8": 8592,
      "0x42c190": 8593,
      "0x42cb30": 8594,
      "0x42c120": 8595,
      "0x42cfe8": 8596,
      "0x42c5c0": 8597,
      "0x42cc68": 8598,
      "0x42c5d0": 8599,
      "0x42c520": 8600,
      "0x42cdf8": 8601,
      "0x42c1f8": 8602,
      "0x42c510": 8603,
      "0x42c5c8": 8604,
      "0x42c328": 8605,
      "0x42c3b8": 8606,
      "0x42ce60": 8607,
      "0x42c340": 8608,
      "0x42cde8": 8609,
      "0x42c1c8": 8610,
      "0x42c2c0": 8611,
      "0x42c2b8": 8612,
      "0x42c720": 8613,
      "0x42c2e0": 8614,
      "0x42c498": 8615,
      "0x414ee8": 8616,
      "0x414f08": 8617,
      "0x414dd8": 8618,
      "0x414380": 8619,
      "0x414388": 8620,
      "0x414708": 8621,
      "0x414f18": 8622,
      "0x414ed8": 8623,
      "0x414908": 8624,
      "0x414ae0": 8625,
      "0x414680": 8626,
      "0x414b38": 8627,
      "0x414e00": 8628,
      "0x414988": 8629,
      "0x414488": 8630,
      "0x414f80": 8631,
      "0x414ca8": 8632,
      "0x414480": 8633,
      "0x414d38": 8634,
      "0x414ae8": 8635,
      "0x414200": 8636,
      "0x414fd8": 8637,
      "0x414fc0": 8638,
      "0x414700": 8639,
      "0x414bd8": 8640,
      "0x414ee0": 8641,
      "0x414a68": 8642,
      "0x414b40": 8643,
      "0x414d20": 8644,
      "0x414f60": 8645,
      "0x414b68": 8646,
      "0x414c38": 8647,
      "0x414e88": 8648,
      "0x414ad8": 8649,
      "0x414a28": 8650,
      "0x414b78": 8651,
      "0x414d30": 8652,
      "0x414e40": 8653,
      "0x414ef8": 8654,
      "0x414a00": 8655,
      "0x414bf0": 8656,
      "0x414cd8": 8657,
      "0x414f10": 8658,
      "0x414a18": 8659,
      "0x414cb0": 8660,
      "0x414d00": 8661,
      "0x414db8": 8662,
      "0x414e98": 8663,
      "0x414a80": 8664,
      "0x414c40": 8665,
      "0x414cd0": 8666,
      "0x414aa0": 8667,
      "0x414c80": 8668,
      "0x414d68": 8669,
      "0x430380": 8670,
      "0x430508": 8671,
      "0x430308": 8672,
      "0x430580": 8673,
      "0x430ed8": 8674,
      "0x430788": 8675,
      "0x430f50": 8676,
      "0x430180": 8677,
      "0x430d98": 8678,
      "0x430e00": 8679,
      "0x430f80": 8680,
      "0x430168": 8681,
      "0x4308d8": 8682,
      "0x430da0": 8683,
      "0x430f90": 8684,
      "0x430da8": 8685,
      "0x430d20": 8686,
      "0x4305a0": 8687,
      "0x4301c0": 8688,
      "0x430938": 8689,
      "0x4305e8": 8690,
      "0x430bf8": 8691,
      "0x430dc8": 8692,
      "0x430128": 8693,
      "0x430cc8": 8694,
[...]
