{
  "version": "1.0",
  "truncation": {
    "direction": "Right",
    "max_length": 512,
    "strategy": "LongestFirst",
    "stride": 0
  },
  "padding": {
    "strategy": "BatchLongest",
    "direction": "Right",
    "pad_to_multiple_of": null,
    "pad_id": 0,
    "pad_type_id": 0,
    "pad_token": "<pad>"
  },
  "added_tokens": [
    {
      "id": 0,
      "content": "<unk>",
      "single_word": false,
      "lstrip": false,
      "rstrip": false,
      "normalized": false,
      "special": true
    },
    {
      "id": 1,
      "content": "<sep>",
      "single_word": false,
      "lstrip": false,
      "rstrip": false,
      "normalized": false,
      "special": true
    },
    {
      "id": 2,
      "content": "<mask>",
      "single_word": false,
      "lstrip": false,
      "rstrip": false,
      "normalized": false,
      "special": true
    },
    {
      "id": 3,
      "content": "<pad>",
      "single_word": false,
      "lstrip": false,
      "rstrip": false,
      "normalized": false,
      "special": true
    },
    {
      "id": 4,
      "content": "<s>",
      "single_word": false,
      "lstrip": false,
      "rstrip": false,
      "normalized": false,
      "special": true
    },
    {
      "id": 5,
      "content": "</s>",
      "single_word": false,
      "lstrip": false,
      "rstrip": false,
      "normalized": false,
      "special": true
    }
  ],
  "normalizer": null,
  "pre_tokenizer": {
    "type": "Whitespace"
  },
  "post_processor": {
    "type": "BertProcessing",
    "sep": [
      "</s>",
      5
    ],
    "cls": [
      "<s>",
      4
    ]
  },
  "decoder": null,
  "model": {
    "type": "BPE",
    "dropout": null,
    "unk_token": "<unk>",
    "continuing_subword_prefix": null,
    "end_of_word_suffix": null,
    "fuse_unk": false,
    "byte_fallback": false,
    "vocab": {
      "<unk>": 0,
      "<sep>": 1,
      "<mask>": 2,
      "<pad>": 3,
      "<s>": 4,
      "</s>": 5,
      "!": 6,
      "(": 7,
      ")": 8,
      "*": 9,
      "+": 10,
      ",": 11,
      "-": 12,
      "0": 13,
      "1": 14,
      "2": 15,
      "3": 16,
      "4": 17,
      "5": 18,
      "6": 19,
      "7": 20,
      "8": 21,
      "9": 22,
      ":": 23,
      "<": 24,
      ">": 25,
      "A": 26,
      "B": 27,
      "C": 28,
      "D": 29,
      "E": 30,
      "F": 31,
      "G": 32,
      "H": 33,
      "I": 34,
      "L": 35,
      "M": 36,
      "N": 37,
      "O": 38,
      "P": 39,
      "Q": 40,
      "R": 41,
      "S": 42,
      "T": 43,
      "U": 44,
      "V": 45,
      "W": 46,
      "X": 47,
      "Y": 48,
      "[": 49,
      "]": 50,
      "_": 51,
      "a": 52,
      "b": 53,
      "c": 54,
      "d": 55,
      "e": 56,
      "f": 57,
      "g": 58,
      "h": 59,
      "i": 60,
      "j": 61,
      "k": 62,
      "l": 63,
      "m": 64,
      "n": 65,
      "o": 66,
      "p": 67,
      "q": 68,
      "r": 69,
      "s": 70,
      "t": 71,
      "u": 72,
      "v": 73,
      "w": 74,
      "x": 75,
      "y": 76,
      "z": 77,
      "~": 78,
      "0x": 79,
      "mo": 80,
      "mov": 81,
      "rb": 82,
      "rbp": 83,
      "ax": 84,
      "TR": 85,
      "PTR": 86,
      "OR": 87,
      "WOR": 88,
      "WORD": 89,
      "rax": 90,
      "QWORD": 91,
      "rd": 92,
      "lc": 93,
      "0x1": 94,
      "],": 95,
      "rs": 96,
      "al": 97,
      "eax": 98,
      "rdi": 99,
      "0x8": 100,
      "all": 101,
      "call": 102,
      "rsp": 103,
      "ff": 104,
      "le": 105,
      "lea": 106,
      "0x10": 107,
      "sh": 108,
      "re": 109,
      "pu": 110,
      "rdx": 111,
      "0x0": 112,
      "push": 113,
      "0x4": 114,
      "DWORD": 115,
      "ret": 116,
      "ed": 117,
      "st": 118,
      "su": 119,
      "sub": 120,
      "ve": 121,
      "0x2": 122,
      "op": 123,
      "leave": 124,
      "ffff": 125,
      "mp": 126,
      ",[": 127,
      "edi": 128,
      "rsi": 129,
      "0x18": 130,
      "je": 131,
      "ad": 132,
      "cmp": 133,
      "0x3": 134,
      "add": 135,
      "0x40": 136,
      "lc5": 137,
      "cx": 138,
      "lc7": 139,
      "lc0": 140,
      "si": 141,
      "te": 142,
      "lc8": 143,
      "rbx": 144,
      "rcx": 145,
      "pop": 146,
      "0x20": 147,
      "in": 148,
      "nop": 149,
      "lc6": 150,
      "std": 151,
      "test": 152,
      "lc4": 153,
      "lc9": 154,
      "lc1": 155,
      "BY": 156,
      "TE": 157,
      "BYTE": 158,
      "0x6": 159,
      "ffffffff": 160,
      "::": 161,
      "0x7": 162,
      "jmp": 163,
      "ra": 164,
      "lc3": 165,
      "esi": 166,
      "ch": 167,
      "ar": 168,
      "lc2": 169,
      "char": 170,
      "edx": 171,
      "0xffffffff": 172,
      "lo": 173,
      "or": 174,
      "ts": 175,
      "0x14": 176,
      "0x5": 177,
      "mova": 178,
      "05": 179,
      "0xc": 180,
      "0x30": 181,
      "0x401": 182,
      "at": 183,
      "rin": 184,
      "0x28": 185,
      "ne": 186,
      "nd": 187,
      "_I": 188,
      "bx": 189,
      "ebx": 190,
      "prin": 191,
      "tf": 192,
      "printf": 193,
      "0x400": 194,
      "rand": 195,
      "se": 196,
      "stdin": 197,
      "mm": 198,
      "sed": 199,
      "xmm": 200,
      "jne": 201,
      "0xa": 202,
      "lc98": 203,
      "e0": 204,
      "od": 205,
      "0x1f": 206,
      "puts": 207,
      "90": 208,
      "ba": 209,
      "12": 210,
      "45": 211,
      "movs": 212,
      ":[": 213,
      "es": 214,
      "rep": 215,
      "33": 216,
      "shl": 217,
      "64": 218,
      "ood": 219,
      "O_": 220,
      "_u": 221,
      "0x9": 222,
      "_IO_": 223,
      "stdin_u": 224,
      "_IO_stdin_u": 225,
      "_IO_stdin_used": 226,
      "os": 227,
      "30": 228,
      "34": 229,
      "0xb": 230,
      "lc18": 231,
      "66": 232,
      "CW": 233,
      "MM": 234,
      "XMM": 235,
      "_i": 236,
      "am": 237,
      "c_i": 238,
      "fst": 239,
      "ps": 240,
      "0xf": 241,
      "ream": 242,
      "sic_i": 243,
      "movaps": 244,
      "basic_i": 245,
      "CWE": 246,
      "XMMWORD": 247,
      "fstream": 248,
      "basic_ifstream": 249,
      "__": 250,
      "aa": 251,
      "26": 252,
      "6e0": 253,
      "lc805": 254,
      "0x4006e0": 255,
      "zx": 256,
      "movzx": 257,
      "stos": 258,
      "ope": 259,
      "good": 260,
      "00": 261,
      "_t": 262,
      "0x70": 263,
      "lc989": 264,
      "movsx": 265,
      "11": 266,
      "03": 267,
      "74": 268,
      "bs": 269,
      "0x38": 270,
      "movabs": 271,
      "93": 272,
      "cd": 273,
      "ic": 274,
      "xor": 275,
      "atic": 276,
      "24": 277,
      "72": 278,
      "73": 279,
      "0x12": 280,
      "14": 281,
      "60": 282,
      "lc63": 283,
      "0x64": 284,
      "08": 285,
      "em": 286,
      "oc": 287,
      "lc745": 288,
      "0x63": 289,
      "lc185": 290,
      "31": 291,
      "lc55": 292,
      "0x78": 293,
      "cdq": 294,
      "88": 295,
      "tor": 296,
      "0xd": 297,
      "0x1c": 298,
      "rator": 299,
      "operator": 300,
      "28": 301,
      "29": 302,
      ">::": 303,
      "_O": 304,
      "its": 305,
      "jle": 306,
      "mem": 307,
      "str": 308,
      "lc800": 309,
      "raits": 310,
      "lc266": 311,
      "char_t": 312,
      "char_traits": 313,
      "G2": 314,
      "St": 315,
      "de": 316,
      "ex": 317,
      "0x4010": 318,
      "()": 319,
      "15": 320,
      "35": 321,
      "55": 322,
      "70": 323,
      "ca": 324,
      "sca": 325,
      "44": 326,
      "ecx": 327,
      "id": 328,
      "lc21": 329,
      "01": 330,
      "22": 331,
      "it": 332,
      "alloc": 333,
      "lc733": 334,
      "lc626": 335,
      "exit": 336,
      "20": 337,
      "B2": 338,
      "Dat": 339,
      "Tr": 340,
      "[]": 341,
      "_B": 342,
      "_f": 343,
      "_45": 344,
      "bal": 345,
      "er": 346,
      "flo": 347,
      "mu": 348,
      "rflo": 349,
      "ue": 350,
      "w__": 351,
      "verflo": 352,
      "lobal": 353,
      "0x4014": 354,
      "set": 355,
      "CWE1": 356,
      "goodG2": 357,
      "0x1230": 358,
      "_Overflo": 359,
      "Data": 360,
      "True": 361,
      "[](": 362,
      "_45_": 363,
      "er_Overflo": 364,
      "mul": 365,
      "er_Overflow__": 366,
      "iv": 367,
      "lc508": 368,
      "10": 369,
      "16": 370,
      "69": 371,
      "96": 372,
      "malloc": 373,
      "no": 374,
      "on": 375,
      "0xe": 376,
      "0x19": 377,
      "0x80": 378,
      "static": 379,
      "xmm0": 380,
      "aaaa": 381,
      "1414": 382,
      "cdqe": 383,
      "not": 384,
      "46": 385,
      "51": 386,
      "58": 387,
      "75": 388,
      "_F": 389,
      "clo": 390,
      "lc088": 391,
      "lc051": 392,
      "lc129": 393,
      "close": 394,
      "*)": 395,
      "83": 396,
      "cp": 397,
      "0x1e": 398,
      "0x60": 399,
      "goodB2": 400,
      "lc219": 401,
      "goodG2B": 402,
      "04": 403,
      "82": 404,
      "con": 405,
      "fprintf": 406,
      "vfprintf": 407,
      "0x43": 408,
      "0x24": 409,
      "0x330": 410,
      "lc734": 411,
      "lc703": 412,
      "lc024": 413,
      "lc872": 414,
      "lc655": 415,
      "lc632": 416,
      "lc556": 417,
      "17": 418,
      "50": 419,
      "80": 420,
      "87": 421,
      "736": 422,
      "memset": 423,
      "Static": 424,
      "staticTrue": 425,
      "49": 426,
      "fre": 427,
      "gn": 428,
      "nf": 429,
      "ng": 430,
      "nsi": 431,
      "oid": 432,
      "ro": 433,
      "unsi": 434,
      "void": 435,
      "0x1b": 436,
      "lete": 437,
      "lc003": 438,
      "lc816": 439,
      "long": 440,
      "new": 441,
      "movsd": 442,
      "delete": 443,
      "scanf": 444,
      "free": 445,
      "gned": 446,
      "unsigned": 447,
      "2f": 448,
      "84": 449,
      "91": 450,
      "99": 451,
      "AL": 452,
      "0xe0": 453,
      "lc512": 454,
      "lc450": 455,
      "lc499": 456,
      "lc990": 457,
      "lc173": 458,
      "lc39": 459,
      "0xe4": 460,
      "goodB2G": 461,
      "27": 462,
      "bad": 463,
      "0x41": 464,
      "0x21": 465,
      "0x31": 466,
      "lc701": 467,
      "0x68": 468,
      "0x52": 469,
      "open": 470,
      "2_": 471,
      "2e": 472,
      "36": 473,
      "62": 474,
      "65": 475,
      "805": 476,
      "98": 477,
      "BAL": 478,
      "CO": 479,
      "GL": 480,
      "Global": 481,
      "He": 482,
      "NS": 483,
      "OBAL": 484,
      "Un": 485,
      "_in": 486,
      "_lo": 487,
      "_CWE": 488,
      "_St": 489,
      "_22": 490,
      "_mul": 491,
      "_vfprintf": 492,
      "_CO": 493,
      "_Un": 494,
      "ap": 495,
      "ased": 496,
      "div": 497,
      "d_F": 498,
      "g__": 499,
      "global": 500,
      "ger_Overflow__": 501,
      "ip": 502,
      "ile": 503,
      "imul": 504,
      "ly": 505,
      "lle": 506,
      "mat": 507,
      "nz": 508,
      "nte": 509,
      "p_CWE": 510,
      "t64": 511,
      "t_f": 512,
      "tro": 513,
      "tip": 514,
      "uff": 515,
      "0x1a": 516,
      "len": 517,
      "shr": 518,
      "shor": 519,
      "op_22": 520,
      "lc575": 521,
      "lc615": 522,
      "lc424": 523,
      "char_f": 524,
      "0xffffffffffffffff": 525,
      "ormat": 526,
      "0x5c": 527,
      "0xc8": 528,
      "ring__": 529,
      "_Inte": 530,
      "0x4008": 531,
      "90_Inte": 532,
      "122_": 533,
      "repnz": 534,
      "0x9b": 535,
      "34_Un": 536,
      "0xb0": 537,
      "CWE122_": 538,
      "_t_lo": 539,
      "0x1c0": 540,
      ">::~": 541,
      "strlen": 542,
      "scas": 543,
      "_Based": 544,
      "_Buff": 545,
      "CWE190_Inte": 546,
      "CWE134_Un": 547,
      "er_Overflow__cp": 548,
      "contro": 549,
      "scanf_mul": 550,
      "805_in": 551,
      "GLOBAL": 552,
      "Heap": 553,
      "NST": 554,
      "_String__": 555,
      "_vfprintf_45_": 556,
      "_CONST": 557,
      "d_Format": 558,
      "ger_Overflow__shor": 559,
      "ile_vfprintf_45_": 560,
      "ly_45_": 561,
      "lled_Format": 562,
      "p_CWE805_in": 563,
      "t64_t_lo": 564,
      "t_fscanf_mul": 565,
      "tiply_45_": 566,
      "char_file_vfprintf_45_": 567,
      "CWE122_Heap": 568,
      "_Based_Buff": 569,
      "CWE190_Integer_Overflow__shor": 570,
      "CWE134_Uncontro": 571,
      "er_Overflow__cpp_CWE805_in": 572,
      "GLOBAL_CONST": 573,
      "_String__char_file_vfprintf_45_": 574,
      "lled_Format_String__char_file_vfprintf_45_": 575,
      "t64_t_loop_22": 576,
      "t_fscanf_multiply_45_": 577,
      "CWE122_Heap_Based_Buff": 578,
      "CWE190_Integer_Overflow__short_fscanf_multiply_45_": 579,
      "CWE134_Uncontrolled_Format_String__char_file_vfprintf_45_": 580,
      "er_Overflow__cpp_CWE805_int64_t_loop_22": 581,
      "CWE122_Heap_Based_Buffer_Overflow__cpp_CWE805_int64_t_loop_22": 582,
      "09": 583,
      "18": 584,
      "21": 585,
      "32": 586,
      "71": 587,
      "78": 588,
      "ist": 589,
      "r12": 590,
      "0x1010": 591,
      "ffffff": 592,
      "0x34": 593,
      "lc560": 594,
      "lc531": 595,
      "lc522": 596,
      "lc582": 597,
      "lc562": 598,
      "lc712": 599,
      "lc788": 600,
      "lc728": 601,
      "lc796": 602,
      "lc064": 603,
      "lc034": 604,
      "lc011": 605,
      "lc004": 606,
      "lc071": 607,
      "lc864": 608,
      "lc411": 609,
      "lc493": 610,
      "lc446": 611,
      "lc958": 612,
      "lc174": 613,
      "lc110": 614,
      "0x74": 615,
      "lc305": 616,
      "lc317": 617,
      "lc309": 618,
      "0x50": 619,
      "0xa1": 620,
      "lc981": 621,
      "lc638": 622,
      "idiv": 623,
      "0x40147": 624,
      "67": 625,
      "68": 626,
      "Fal": 627,
      "Good": 628,
      "and": 629,
      "be": 630,
      "c1": 631,
      "en": 632,
      "gGood": 633,
      "jbe": 634,
      "r8": 635,
      "move": 636,
      "0x1ff": 637,
      "0x88": 638,
      "0x1020": 639,
      "0x32": 640,
      "lc511": 641,
      "lc772": 642,
      "lc046": 643,
      "lc85": 644,
      "lc868": 645,
      "lc364": 646,
      "0xc0": 647,
      "0x4011": 648,
      "0x1228": 649,
      "0xd8": 650,
      "memmove": 651,
      "6966": 652,
      "goodG2BData": 653,
      "goodB2GData": 654,
      "0x4008c1": 655,
      "False": 656,
      "48": 657,
      "85": 658,
      "fe": 659,
      "jg": 660,
      "0x190": 661,
      "0x175": 662,
      "0x81": 663,
      "0x27": 664,
      "lc515": 665,
      "lc049": 666,
      "lc833": 667,
      "lc627": 668,
      "lc455": 669,
      "lc480": 670,
      "lc144": 671,
      "lc360": 672,
      "0xffffffffffffff": 673,
      "0xa0": 674,
      "ock": 675,
      "0x1b3": 676,
      "0x1af": 677,
      "GLOBAL_CONST_F": 678,
      "0xffffffffffffff80": 679,
      "13": 680,
      "39": 681,
      "47": 682,
      "59": 683,
      "564": 684,
      "6d": 685,
      "636": 686,
      "86": 687,
      "In": 688,
      "List": 689,
      "_n": 690,
      "_ba": 691,
      "_List": 692,
      "ai": 693,
      "cat": 694,
      "c6966": 695,
      "e_ba": 696,
      "tai": 697,
      "0x16": 698,
      "0x8f": 699,
      "0x42": 700,
      "0x4a": 701,
      "0x4c": 702,
      "0x2c": 703,
      "0x3d": 704,
      "0x3736": 705,
      "lc526": 706,
      "lc596": 707,
      "lc539": 708,
      "lc790": 709,
      "lc735": 710,
      "lc782": 711,
      "lc787": 712,
      "lc093": 713,
      "lc060": 714,
      "lc028": 715,
      "lc083": 716,
      "lc091": 717,
      "lc808": 718,
      "lc849": 719,
      "lc891": 720,
      "0x20736": 721,
      "lc658": 722,
      "lc698": 723,
      "lc648": 724,
      "lc431": 725,
      "lc435": 726,
      "lc470": 727,
      "lc401": 728,
      "lc486": 729,
      "lc924": 730,
      "lc970": 731,
      "lc921": 732,
      "lc167": 733,
      "0x6c6966": 734,
      "lc311": 735,
      "lc393": 736,
      "lc331": 737,
      "lc304": 738,
      "lc384": 739,
      "lc347": 740,
      "chr": 741,
      "lc205": 742,
      "lc229": 743,
      "lc269": 744,
      "lc283": 745,
      "lc259": 746,
      "0x58": 747,
      "0xc4": 748,
      "0x40115": 749,
      "ode_ba": 750,
      "3332": 751,
      "0x98": 752,
      "343332": 753,
      "0xbd": 754,
      "lc184": 755,
      "__de": 756,
      "2613": 757,
      "movsxd": 758,
      "742f": 759,
      "742e": 760,
      "938": 761,
      "141": 762,
      "lc636": 763,
      "3130": 764,
      "lc559": 765,
      "0x78742e": 766,
      "0xd7": 767,
      "strchr": 768,
      "0x401090": 769,
      "35343332": 770,
      "706d": 771,
      "lc217": 772,
      "0x401474": 773,
      "aaaaaaaa": 774,
      "14141414": 775,
      "cpy": 776,
      "2f706d": 777,
      "lc392": 778,
      "lc395": 779,
      "globalTrue": 780,
      "0x401477": 781,
      "lc852": 782,
      "564636": 783,
      "Int": 784,
      "_node_ba": 785,
      "_List_node_ba": 786,
      "tail": 787,
      "0x373635343332": 788,
      "0x20736c": 789,
      "0x6c69662f706d": 790,
      "__detail": 791,
      "2613938": 792,
      "0x78742e65": 793,
      "5646362613938": 794,
      "_List_node_base": 795,
      "0x3736353433323130": 796,
      "0x6c69662f706d742f": 797,
      "*,": 798,
      "0d": 799,
      "42": 800,
      "4e": 801,
      "89": 802,
      "972": 803,
      "IV": 804,
      "e44": 805,
      "js": 806,
      "ou": 807,
      "pen": 808,
      "r9": 809,
      "0x90": 810,
      "mode": 811,
      "0x126": 812,
      "0x83": 813,
      "0x800": 814,
      "0x4b": 815,
      "0x23": 816,
      "0x3a": 817,
      "lc617": 818,
      "lc685": 819,
      "stdou": 820,
      "lc916": 821,
      "0x666": 822,
      "0x79": 823,
      "0x7e44": 824,
      "lc344": 825,
      "lc235": 826,
      "0x51": 827,
      "_Ios": 828,
      "xmm1": 829,
      "xmm2": 830,
      "xmm3": 831,
      "xmm4": 832,
      "xmm5": 833,
      "xmm6": 834,
      "xmm7": 835,
      "0xa8": 836,
      "0xac": 837,
      "33972": 838,
      "0x91": 839,
      "0xb8": 840,
      "lc181": 841,
      "0xf0": 842,
      "cd0d": 843,
      "_Open": 844,
      "strcat": 845,
      "0x401070": 846,
      "0x401078": 847,
      "0xe2": 848,
      "0x19f": 849,
      "const": 850,
      "0x1b8": 851,
      "GLOBAL_CONST_FIV": 852,
      "0x401158": 853,
      "4ecd0d": 854,
      "0x1260": 855,
      "0x8000": 856,
      "stdout": 857,
      "0x6665646362613938": 858,
      "0x7e444ecd0d": 859,
      "_Ios_Open": 860,
      "33972b": 861,
      "GLOBAL_CONST_FIVE": 862,
      "0x7e444ecd0d33972b": 863,
      "_Ios_Openmode": 864,
      "1Static": 865,
      "1Global": 866,
      "2a": 867,
      "95": 868,
      "97": 869,
      "Lock": 870,
      "a2e": 871,
      "ge": 872,
      "0xff": 873,
      "0xed": 874,
      "0x1d": 875,
      "0x8a": 876,
      "0x1018": 877,
      "0x46": 878,
      "0x2a2e": 879,
      "0x3e": 880,
      "0x320": 881,
      "lc583": 882,
      "lc527": 883,
      "lc518": 884,
      "lc097": 885,
      "lc820": 886,
      "lc695": 887,
      "lc912": 888,
      "lc936": 889,
      "lc114": 890,
      "lc160": 891,
      "0x76": 892,
      "0x7d": 893,
      "0x7f": 894,
      "lc312": 895,
      "lc387": 896,
      "lc260": 897,
      "0x56": 898,
      "050": 899,
      "0xc2": 900,
      "0xc6": 901,
      "0x40103": 902,
      "0x401050": 903,
      "sete": 904,
      "lc987": 905,
      "0x99": 906,
      "lc557": 907,
      "0xd1": 908,
      "strn": 909,
      "G2Static": 910,
      "2098": 911,
      "B2Global": 912,
      "goodG2B2Global": 913,
      "staticFalse": 914,
      "0x602098": 915,
      "goodB2G2Static": 916,
      "goodG2BStatic": 917,
      "goodG2B1Global": 918,
      "goodB2G1Static": 919,
      "badData": 920,
      "globalFalse": 921,
      "CWE190_Integer_Overflow__short_fscanf_multiply_45_goodG2BData": 922,
      "CWE190_Integer_Overflow__short_fscanf_multiply_45_goodB2GData": 923,
      "CWE134_Uncontrolled_Format_String__char_file_vfprintf_45_goodG2BData": 924,
      "CWE134_Uncontrolled_Format_String__char_file_vfprintf_45_goodB2GData": 925,
      "gGoodInt": 926,
      "gGoodLock": 927,
      "0x2a2e2a": 928,
      "0x401038": 929,
      "41": 930,
      "63": 931,
      "987": 932,
      "M_": 933,
      "UE": 934,
      "_TR": 935,
      "_alloc": 936,
      "_bad": 937,
      "_M_": 938,
      "a8": 939,
      "ac": 940,
      "b0": 941,
      "bin": 942,
      "ce": 943,
      "cl": 944,
      "cv": 945,
      "et": 946,
      "ecl": 947,
      "fclose": 948,
      "fscanf": 949,
      "fopen": 950,
      "fge": 951,
      "ho": 952,
      "ht": 953,
      "hro": 954,
      "list": 955,
      "ok": 956,
      "pt": 957,
      "sy": 958,
      "sock": 959,
      "thro": 960,
      "w_bad": 961,
      "0xba": 962,
      "0x1008": 963,
      "recv": 964,
      "0x4141": 965,
      "0x414141414": 966,
      "stem": 967,
      "0x2f": 968,
      "0x180": 969,
      "lc584": 970,
      "lc773": 971,
      "lc096": 972,
      "lc089": 973,
      "lc672": 974,
      "lc405": 975,
      "lc421": 976,
      "lc441": 977,
      "lc942": 978,
      "lc963": 979,
      "lc101": 980,
      "lc132": 981,
      "0x61": 982,
      "0x66": 983,
      "0x6987": 984,
      "0x75": 985,
      "lc293": 986,
      "0x5f": 987,
      "0xc1": 988,
      "0x400fe": 989,
      "0xaa": 990,
      "0xaaaaaaaaa": 991,
      "0xb1": 992,
      "__thro": 993,
      "memcpy": 994,
      "execl": 995,
      "0x401484": 996,
      "setb": 997,
      "setne": 998,
      "ons": 999,
      "aaaaaa": 1000,
      "1414141": 1001,
      "GLOBAL_CONST_TR": 1002,
      "r12b": 1003,
      "0x401476": 1004,
      "r8d": 1005,
      "0x4011a8": 1006,
      "0x4011b0": 1007,
      "strncpy": 1008,
      "_M_ho": 1009,
      "acce": 1010,
      "bind": 1011,
      "fgets": 1012,
      "htons": 1013,
      "listen": 1014,
      "system": 1015,
      "socket": 1016,
      "w_bad_alloc": 1017,
      "0x4141414141414141": 1018,
      "0x400fe8": 1019,
      "0xaaaaaaaaaaaaaaa": 1020,
      "__throw_bad_alloc": 1021,
      "GLOBAL_CONST_TRUE": 1022,
      "_M_hook": 1023,
      "accept": 1024,
      "23": 1025,
      "274": 1026,
      "574": 1027,
      "6e": 1028,
      "7b": 1029,
      "92": 1030,
      "Bad": 1031,
      "SE": 1032,
      "b4": 1033,
      "d0": 1034,
      "ef": 1035,
      "f4": 1036,
      "f78": 1037,
      "gBad": 1038,
      "0xad": 1039,
      "0xffffff": 1040,
      "0x85": 1041,
      "0x87": 1042,
      "0x89": 1043,
      "0x8e": 1044,
      "ff0": 1045,
      "ffe": 1046,
      "0x1050": 1047,
      "0x49": 1048,
      "0x22": 1049,
      "0x25": 1050,
      "0x2d": 1051,
      "0x39": 1052,
      "0x3c": 1053,
      "0x3f": 1054,
      "0x3ffe": 1055,
      "lc528": 1056,
      "lc542": 1057,
      "lc789": 1058,
      "lc869": 1059,
      "lc690": 1060,
      "lc622": 1061,
      "lc665": 1062,
      "lc966": 1063,
      "lc923": 1064,
      "0x65": 1065,
      "0x7a": 1066,
      "0x7c": 1067,
      "0x7274": 1068,
      "0x57": 1069,
      "0x5a": 1070,
      "0x5e": 1071,
      "0xcc": 1072,
      "0x40111": 1073,
      "0x40185": 1074,
      "0x400ef": 1075,
      "0x400f78": 1076,
      "0x400ff0": 1077,
      "0xa3": 1078,
      "lc982": 1079,
      "6465": 1080,
      "0x95": 1081,
      "0x96": 1082,
      "0x9f": 1083,
      "0xbe": 1084,
      "lc180": 1085,
      "0xfc": 1086,
      "736465": 1087,
      "0x1258": 1088,
      "lc555": 1089,
      "0xdf": 1090,
      "0x401014": 1091,
      "0x40107b": 1092,
      "0x4010b4": 1093,
      "0x4010f4": 1094,
      "0x401493": 1095,
      "736574": 1096,
      "ALSE": 1097,
      "badStatic": 1098,
      "badGlobal": 1099,
      "0x400892": 1100,
      "CWE190_Integer_Overflow__short_fscanf_multiply_45_badData": 1101,
      "CWE134_Uncontrolled_Format_String__char_file_vfprintf_45_badData": 1102,
      "786966": 1103,
      "0x74736574": 1104,
      "676e": 1105,
      "lc856": 1106,
      "0x4011d0": 1107,
      "GLOBAL_CONST_FALSE": 1108,
      "0xfff": 1109,
      "0xfffe": 1110,
      "0x1d3": 1111,
      "gBadInt": 1112,
      "0xfffffffe": 1113,
      "0x7274736465": 1114,
      "0x401114": 1115,
      "0x401854": 1116,
      "0x400ef8": 1117,
      "0x74736574676e": 1118,
      "0x7274736465786966": 1119,
      "0x74736574676e69": 1120,
      "06": 1121,
      "07": 1122,
      "19": 1123,
      "1c": 1124,
      "52": 1125,
      "61": 1126,
      "94": 1127,
      "nv": 1128,
      "0x11c": 1129,
      "0x152": 1130,
      "0x8d": 1131,
      "0x1048": 1132,
      "0x4e": 1133,
      "0x2e": 1134,
      "0x185": 1135,
      "0x18c": 1136,
      "0x35": 1137,
      "lc503": 1138,
      "lc574": 1139,
      "lc705": 1140,
      "lc006": 1141,
      "tenv": 1142,
      "lc890": 1143,
      "lc674": 1144,
      "lc629": 1145,
      "lc487": 1146,
      "lc418": 1147,
      "lc461": 1148,
      "lc962": 1149,
      "lc907": 1150,
      "lc994": 1151,
      "0x65646362613938": 1152,
      "lc334": 1153,
      "lc329": 1154,
      "lc301": 1155,
      "lc319": 1156,
      "lc255": 1157,
      "0xcb": 1158,
      "0xa2": 1159,
      "0xae": 1160,
      "lc986": 1161,
      "0xb2": 1162,
      "0xfa": 1163,
      "0xfe": 1164,
      "0x120": 1165,
      "0x1c3": 1166,
      "0x1cf": 1167,
      "0xe1": 1168,
      "0x195": 1169,
      "0x1bf": 1170,
      "0x401154": 1171,
      "0x23a": 1172,
      "getenv": 1173,
      "strncat": 1174
    },
    "merges": [
      "0 x",
      "m o",
      "mo v",
      "r b",
      "rb p",
      "a x",
      "T R",
      "P TR",
      "O R",
      "W OR",
      "WOR D",
      "r ax",
      "Q WORD",
      "r d",
      "l c",
      "0x 1",
      "] ,",
      "r s",
      "a l",
      "e ax",
      "rd i",
      "0x 8",
      "al l",
      "c all",
      "rs p",
      "f f",
      "l e",
      "le a",
      "0x1 0",
      "s h",
      "r e",
      "p u",
      "rd x",
      "0x 0",
      "pu sh",
      "0x 4",
      "D WORD",
      "re t",
      "e d",
      "s t",
      "s u",
      "su b",
      "v e",
      "0x 2",
      "o p",
      "lea ve",
      "ff ff",
      "m p",
      ", [",
      "ed i",
      "rs i",
      "0x1 8",
      "j e",
      "a d",
      "c mp",
      "0x 3",
      "ad d",
      "0x4 0",
      "lc 5",
      "c x",
      "lc 7",
      "lc 0",
      "s i",
      "t e",
      "lc 8",
      "rb x",
      "r cx",
      "p op",
      "0x2 0",
      "i n",
      "n op",
      "lc 6",
      "st d",
      "te st",
      "lc 4",
      "lc 9",
      "lc 1",
      "B Y",
      "T E",
      "BY TE",
      "0x 6",
      "ffff ffff",
      ": :",
      "0x 7",
      "j mp",
      "r a",
      "lc 3",
      "e si",
      "c h",
      "a r",
      "lc 2",
      "ch ar",
      "ed x",
      "0x ffffffff",
      "l o",
      "o r",
      "t s",
      "0x1 4",
      "0x 5",
      "mov a",
      "0 5",
      "0x c",
      "0x3 0",
      "0x40 1",
      "a t",
      "r in",
      "0x2 8",
      "n e",
      "n d",
      "_ I",
      "b x",
      "e bx",
      "p rin",
      "t f",
      "prin tf",
      "0x40 0",
      "ra nd",
      "s e",
      "std in",
      "m m",
      "s ed",
      "x mm",
      "j ne",
      "0x a",
      "lc9 8",
      "e 0",
      "o d",
      "0x1 f",
      "pu ts",
      "9 0",
      "b a",
      "1 2",
      "4 5",
      "mov s",
      ": [",
      "e s",
      "re p",
      "3 3",
      "sh l",
      "6 4",
      "o od",
      "O _",
      "_ u",
      "0x 9",
      "_I O_",
      "stdin _u",
      "_IO_ stdin_u",
      "_IO_stdin_u sed",
      "o s",
      "3 0",
      "3 4",
      "0x b",
      "lc1 8",
      "6 6",
      "C W",
      "M M",
      "X MM",
      "_ i",
      "a m",
      "c _i",
      "f st",
      "p s",
      "0x f",
      "re am",
      "si c_i",
      "mova ps",
      "ba sic_i",
      "CW E",
      "XMM WORD",
      "fst ream",
      "basic_i fstream",
      "_ _",
      "a a",
      "2 6",
      "6 e0",
      "lc8 05",
      "0x400 6e0",
      "z x",
      "mov zx",
      "st os",
      "op e",
      "g ood",
      "0 0",
      "_ t",
      "0x7 0",
      "lc98 9",
      "movs x",
      "1 1",
      "0 3",
      "7 4",
      "b s",
      "0x3 8",
      "mova bs",
      "9 3",
      "c d",
      "i c",
      "x or",
      "at ic",
      "2 4",
      "7 2",
      "7 3",
      "0x1 2",
      "1 4",
      "6 0",
      "lc6 3",
      "0x6 4",
      "0 8",
      "e m",
      "o c",
      "lc7 45",
      "0x6 3",
      "lc18 5",
      "3 1",
      "lc5 5",
      "0x7 8",
      "cd q",
      "8 8",
      "t or",
      "0x d",
      "0x1 c",
      "ra tor",
      "ope rator",
      "2 8",
      "2 9",
      "> ::",
      "_ O",
      "i ts",
      "j le",
      "m em",
      "st r",
      "lc8 00",
      "ra its",
      "lc2 66",
      "char _t",
      "char_t raits",
      "G 2",
      "S t",
      "d e",
      "e x",
      "0x401 0",
      "( )",
      "1 5",
      "3 5",
      "5 5",
      "7 0",
      "c a",
      "s ca",
      "4 4",
      "e cx",
      "i d",
      "lc2 1",
      "0 1",
      "2 2",
      "i t",
      "all oc",
      "lc7 33",
      "lc6 26",
      "ex it",
      "2 0",
      "B 2",
      "D at",
      "T r",
      "[ ]",
      "_ B",
      "_ f",
      "_ 45",
      "b al",
      "e r",
      "f lo",
      "m u",
      "r flo",
      "u e",
      "w __",
      "ve rflo",
      "lo bal",
      "0x401 4",
      "se t",
      "CWE 1",
      "good G2",
      "0x12 30",
      "_O verflo",
      "Dat a",
      "Tr ue",
      "[] (",
      "_45 _",
      "er _Overflo",
      "mu l",
      "er_Overflo w__",
      "i v",
      "lc5 08",
      "1 0",
      "1 6",
      "6 9",
      "9 6",
      "m alloc",
      "n o",
      "o n",
      "0x e",
      "0x1 9",
      "0x8 0",
      "st atic",
      "xmm 0",
      "aa aa",
      "14 14",
      "cdq e",
      "no t",
      "4 6",
      "5 1",
      "5 8",
      "7 5",
      "_ F",
      "c lo",
      "lc0 88",
      "lc0 51",
      "lc1 29",
      "clo se",
      "* )",
      "8 3",
      "c p",
      "0x1 e",
      "0x6 0",
      "good B2",
      "lc21 9",
      "goodG2 B",
      "0 4",
      "8 2",
      "c on",
      "f printf",
      "v fprintf",
      "0x4 3",
      "0x2 4",
      "0x3 30",
      "lc7 34",
      "lc7 03",
      "lc0 24",
      "lc8 72",
      "lc6 55",
      "lc63 2",
      "lc55 6",
      "1 7",
      "5 0",
      "8 0",
      "8 7",
      "73 6",
      "mem set",
      "St atic",
      "static True",
      "4 9",
      "f re",
      "g n",
      "n f",
      "n g",
      "n si",
      "o id",
      "r o",
      "u nsi",
      "v oid",
      "0x1 b",
      "le te",
      "lc0 03",
      "lc8 16",
      "lo ng",
      "ne w",
      "movs d",
      "de lete",
      "sca nf",
      "fre e",
      "gn ed",
      "unsi gned",
      "2 f",
      "8 4",
      "9 1",
      "9 9",
      "A L",
      "0x e0",
      "lc5 12",
      "lc4 50",
      "lc4 99",
      "lc9 90",
      "lc1 73",
      "lc3 9",
      "0xe 4",
      "goodB2 G",
      "2 7",
      "b ad",
      "0x4 1",
      "0x2 1",
      "0x3 1",
      "lc7 01",
      "0x6 8",
      "0x5 2",
      "ope n",
      "2 _",
      "2 e",
      "3 6",
      "6 2",
      "6 5",
      "8 05",
      "9 8",
      "B AL",
      "C O",
      "G L",
      "G lobal",
      "H e",
      "N S",
      "O BAL",
      "U n",
      "_ in",
      "_ lo",
      "_ CWE",
      "_ St",
      "_ 22",
      "_ mul",
      "_ vfprintf",
      "_ CO",
      "_ Un",
      "a p",
      "a sed",
      "d iv",
      "d _F",
      "g __",
      "g lobal",
      "g er_Overflow__",
      "i p",
      "i le",
      "i mul",
      "l y",
      "l le",
      "m at",
      "n z",
      "n te",
      "p _CWE",
      "t 64",
      "t _f",
      "t ro",
      "t ip",
      "u ff",
      "0x1 a",
      "le n",
      "sh r",
      "sh or",
      "op _22",
      "lc5 75",
      "lc6 15",
      "lc4 24",
      "char _f",
      "0xffffffff ffffffff",
      "or mat",
      "0x5 c",
      "0xc 8",
      "rin g__",
      "_I nte",
      "0x400 8",
      "90 _Inte",
      "12 2_",
      "rep nz",
      "0x9 b",
      "34 _Un",
      "0xb 0",
      "CWE 122_",
      "_t _lo",
      "0x1c 0",
      ">:: ~",
      "str len",
      "sca s",
      "_B ased",
      "_B uff",
      "CWE1 90_Inte",
      "CWE1 34_Un",
      "er_Overflow__ cp",
      "con tro",
      "scanf _mul",
      "805 _in",
      "GL OBAL",
      "He ap",
      "NS T",
      "_St ring__",
      "_vfprintf _45_",
      "_CO NST",
      "d_F ormat",
      "ger_Overflow__ shor",
      "ile _vfprintf_45_",
      "ly _45_",
      "lle d_Format",
      "p_CWE 805_in",
      "t64 _t_lo",
      "t_f scanf_mul",
      "tip ly_45_",
      "char_f ile_vfprintf_45_",
      "CWE122_ Heap",
      "_Based _Buff",
      "CWE190_Inte ger_Overflow__shor",
      "CWE134_Un contro",
      "er_Overflow__cp p_CWE805_in",
      "GLOBAL _CONST",
      "_String__ char_file_vfprintf_45_",
      "lled_Format _String__char_file_vfprintf_45_",
      "t64_t_lo op_22",
      "t_fscanf_mul tiply_45_",
      "CWE122_Heap _Based_Buff",
      "CWE190_Integer_Overflow__shor t_fscanf_multiply_45_",
      "CWE134_Uncontro lled_Format_String__char_file_vfprintf_45_",
      "er_Overflow__cpp_CWE805_in t64_t_loop_22",
      "CWE122_Heap_Based_Buff er_Overflow__cpp_CWE805_int64_t_loop_22",
      "0 9",
      "1 8",
      "2 1",
      "3 2",
      "7 1",
      "7 8",
      "i st",
      "r 12",
      "0x10 10",
      "ffff ff",
      "0x3 4",
      "lc5 60",
      "lc5 31",
      "lc5 22",
      "lc5 82",
      "lc5 62",
      "lc7 12",
      "lc7 88",
      "lc7 28",
      "lc7 96",
      "lc0 64",
      "lc0 34",
      "lc0 11",
      "lc0 04",
      "lc0 71",
      "lc8 64",
      "lc4 11",
      "lc4 93",
      "lc4 46",
      "lc9 58",
      "lc1 74",
      "lc1 10",
      "0x7 4",
      "lc3 05",
      "lc3 17",
      "lc3 09",
      "0x5 0",
      "0xa 1",
      "lc98 1",
      "lc63 8",
      "id iv",
      "0x4014 7",
      "6 7",
      "6 8",
      "F al",
      "G ood",
      "a nd",
      "b e",
      "c 1",
      "e n",
      "g Good",
      "j be",
      "r 8",
      "mov e",
      "0x1 ff",
      "0x8 8",
      "0x10 20",
      "0x3 2",
      "lc5 11",
      "lc7 72",
      "lc0 46",
      "lc8 5",
      "lc8 68",
      "lc3 64",
      "0xc 0",
      "0x401 1",
      "0x12 28",
      "0xd 8",
      "mem move",
      "69 66",
      "goodG2B Data",
      "goodB2G Data",
      "0x4008 c1",
      "Fal se",
      "4 8",
      "8 5",
      "f e",
      "j g",
      "0x1 90",
      "0x1 75",
      "0x8 1",
      "0x2 7",
      "lc5 15",
      "lc0 49",
      "lc8 33",
      "lc6 27",
      "lc4 55",
      "lc4 80",
      "lc1 44",
      "lc3 60",
      "0xffffffff ffffff",
      "0xa 0",
      "oc k",
      "0x1b 3",
      "0x1a f",
      "GLOBAL_CONST _F",
      "0xffffffffffffff 80",
      "1 3",
      "3 9",
      "4 7",
      "5 9",
      "5 64",
      "6 d",
      "6 36",
      "8 6",
      "I n",
      "L ist",
      "_ n",
      "_ ba",
      "_ List",
      "a i",
      "c at",
      "c 6966",
      "e _ba",
      "t ai",
      "0x1 6",
      "0x8 f",
      "0x4 2",
      "0x4 a",
      "0x4 c",
      "0x2 c",
      "0x3 d",
      "0x3 736",
      "lc5 26",
      "lc5 96",
      "lc5 39",
      "lc7 90",
      "lc7 35",
      "lc7 82",
      "lc7 87",
      "lc0 93",
      "lc0 60",
      "lc0 28",
      "lc0 83",
      "lc0 91",
      "lc8 08",
      "lc8 49",
      "lc8 91",
      "0x20 736",
      "lc6 58",
      "lc6 98",
      "lc6 48",
      "lc4 31",
      "lc4 35",
      "lc4 70",
      "lc4 01",
      "lc4 86",
      "lc9 24",
      "lc9 70",
      "lc9 21",
      "lc1 67",
      "0x6 c6966",
      "lc3 11",
      "lc3 93",
      "lc3 31",
      "lc3 04",
      "lc3 84",
      "lc3 47",
      "ch r",
      "lc2 05",
      "lc2 29",
      "lc2 69",
      "lc2 83",
      "lc2 59",
      "0x5 8",
      "0xc 4",
      "0x401 15",
      "od e_ba",
      "33 32",
      "0x9 8",
      "34 3332",
      "0xb d",
      "lc18 4",
      "__ de",
      "26 13",
      "movsx d",
      "74 2f",
      "74 2e",
      "93 8",
      "14 1",
      "lc63 6",
      "31 30",
      "lc55 9",
      "0x78 742e",
      "0xd 7",
      "str chr",
      "0x4010 90",
      "35 343332",
      "70 6d",
      "lc21 7",
      "0x4014 74",
      "aaaa aaaa",
      "1414 1414",
      "cp y",
      "2f 706d",
      "lc39 2",
      "lc39 5",
      "global True",
      "0x40147 7",
      "lc85 2",
      "564 636",
      "In t",
      "_n ode_ba",
      "_List _node_ba",
      "tai l",
      "0x3736 35343332",
      "0x20736 c",
      "0x6c6966 2f706d",
      "__de tail",
      "2613 938",
      "0x78742e 65",
      "564636 2613938",
      "_List_node_ba se",
      "0x373635343332 3130",
      "0x6c69662f706d 742f",
      "* ,",
      "0 d",
      "4 2",
      "4 e",
      "8 9",
      "9 72",
      "I V",
      "e 44",
      "j s",
      "o u",
      "p en",
      "r 9",
      "0x 90",
      "mo de",
      "0x1 26",
      "0x8 3",
      "0x8 00",
      "0x4 b",
      "0x2 3",
      "0x3 a",
      "lc6 17",
      "lc6 85",
      "std ou",
      "lc9 16",
      "0x6 66",
      "0x7 9",
      "0x7 e44",
      "lc3 44",
      "lc2 35",
      "0x5 1",
      "_I os",
      "xmm 1",
      "xmm 2",
      "xmm 3",
      "xmm 4",
      "xmm 5",
      "xmm 6",
      "xmm 7",
      "0xa 8",
      "0xa c",
      "33 972",
      "0x9 1",
      "0xb 8",
      "lc18 1",
      "0xf 0",
      "cd 0d",
      "_O pen",
      "str cat",
      "0x4010 70",
      "0x4010 78",
      "0xe 2",
      "0x19 f",
      "con st",
      "0x1b 8",
      "GLOBAL_CONST_F IV",
      "0x40115 8",
      "4e cd0d",
      "0x126 0",
      "0x800 0",
      "stdou t",
      "0x666 5646362613938",
      "0x7e44 4ecd0d",
      "_Ios _Open",
      "33972 b",
      "GLOBAL_CONST_FIV E",
      "0x7e444ecd0d 33972b",
      "_Ios_Open mode",
      "1 Static",
      "1 Global",
      "2 a",
      "9 5",
      "9 7",
      "L ock",
      "a 2e",
      "g e",
      "0x ff",
      "0x ed",
      "0x1 d",
      "0x8 a",
      "0x10 18",
      "0x4 6",
      "0x2 a2e",
      "0x3 e",
      "0x3 20",
      "lc5 83",
      "lc5 27",
      "lc5 18",
      "lc0 97",
      "lc8 20",
      "lc6 95",
      "lc9 12",
      "lc9 36",
      "lc1 14",
      "lc1 60",
      "0x7 6",
      "0x7 d",
      "0x7 f",
      "lc3 12",
      "lc3 87",
      "lc2 60",
      "0x5 6",
      "05 0",
      "0xc 2",
      "0xc 6",
      "0x401 03",
      "0x401 050",
      "se te",
      "lc98 7",
      "0x9 9",
      "lc55 7",
      "0xd 1",
      "str n",
      "G2 Static",
      "20 98",
      "B2 Global",
      "goodG2 B2Global",
      "static False",
      "0x60 2098",
      "goodB2 G2Static",
      "goodG2B Static",
      "goodG2B 1Global",
      "goodB2G 1Static",
      "bad Data",
      "global False",
      "CWE190_Integer_Overflow__short_fscanf_multiply_45_ goodG2BData",
      "CWE190_Integer_Overflow__short_fscanf_multiply_45_ goodB2GData",
      "CWE134_Uncontrolled_Format_String__char_file_vfprintf_45_ goodG2BData",
      "CWE134_Uncontrolled_Format_String__char_file_vfprintf_45_ goodB2GData",
      "gGood Int",
      "gGood Lock",
      "0x2a2e 2a",
      "0x40103 8",
      "4 1",
      "6 3",
      "9 87",
      "M _",
      "U E",
      "_ TR",
      "_ alloc",
      "_ bad",
      "_ M_",
      "a 8",
      "a c",
      "b 0",
      "b in",
      "c e",
      "c l",
      "c v",
      "e t",
      "e cl",
      "f close",
      "f scanf",
      "f open",
      "f ge",
      "h o",
      "h t",
      "h ro",
      "l ist",
      "o k",
      "p t",
      "s y",
      "s ock",
      "t hro",
      "w _bad",
      "0x ba",
      "0x10 08",
      "re cv",
      "0x4 141",
      "0x4 14141414",
      "st em",
      "0x2 f",
      "0x18 0",
      "lc5 84",
      "lc7 73",
      "lc0 96",
      "lc0 89",
      "lc6 72",
      "lc4 05",
      "lc4 21",
      "lc4 41",
      "lc9 42",
      "lc9 63",
      "lc1 01",
      "lc1 32",
      "0x6 1",
      "0x6 6",
      "0x6 987",
      "0x7 5",
      "lc2 93",
      "0x5 f",
      "0xc 1",
      "0x400 fe",
      "0xa a",
      "0xa aaaaaaaa",
      "0xb 1",
      "__ thro",
      "mem cpy",
      "ex ecl",
      "0x4014 84",
      "set b",
      "set ne",
      "on s",
      "aaaa aa",
      "1414 141",
      "GLOBAL_CONST _TR",
      "r12 b",
      "0x40147 6",
      "r8 d",
      "0x4011 a8",
      "0x4011 b0",
      "strn cpy",
      "_M_ ho",
      "ac ce",
      "bin d",
      "fge ts",
      "ht ons",
      "list en",
      "sy stem",
      "sock et",
      "w_bad _alloc",
      "0x414141414 1414141",
      "0x400fe 8",
      "0xaaaaaaaaa aaaaaa",
      "__thro w_bad_alloc",
      "GLOBAL_CONST_TR UE",
      "_M_ho ok",
      "acce pt",
      "2 3",
      "2 74",
      "5 74",
      "6 e",
      "7 b",
      "9 2",
      "B ad",
      "S E",
      "b 4",
      "d 0",
      "e f",
      "f 4",
      "f 78",
      "g Bad",
      "0x ad",
      "0x ffffff",
      "0x8 5",
      "0x8 7",
      "0x8 9",
      "0x8 e",
      "ff 0",
      "ff e",
      "0x10 50",
      "0x4 9",
      "0x2 2",
      "0x2 5",
      "0x2 d",
      "0x3 9",
      "0x3 c",
      "0x3 f",
      "0x3 ffe",
      "lc5 28",
      "lc5 42",
      "lc7 89",
      "lc8 69",
      "lc6 90",
      "lc6 22",
      "lc6 65",
      "lc9 66",
      "lc9 23",
      "0x6 5",
      "0x7 a",
      "0x7 c",
      "0x7 274",
      "0x5 7",
      "0x5 a",
      "0x5 e",
      "0xc c",
      "0x401 11",
      "0x401 85",
      "0x400 ef",
      "0x400 f78",
      "0x400 ff0",
      "0xa 3",
      "lc98 2",
      "64 65",
      "0x9 5",
      "0x9 6",
      "0x9 f",
      "0xb e",
      "lc18 0",
      "0xf c",
      "73 6465",
      "0x12 58",
      "lc55 5",
      "0xd f",
      "0x4010 14",
      "0x4010 7b",
      "0x4010 b4",
      "0x4010 f4",
      "0x4014 93",
      "736 574",
      "AL SE",
      "bad Static",
      "bad Global",
      "0x4008 92",
      "CWE190_Integer_Overflow__short_fscanf_multiply_45_ badData",
      "CWE134_Uncontrolled_Format_String__char_file_vfprintf_45_ badData",
      "78 6966",
      "0x74 736574",
      "67 6e",
      "lc85 6",
      "0x4011 d0",
      "GLOBAL_CONST_F ALSE",
      "0xff f",
      "0xff fe",
      "0x1d 3",
      "gBad Int",
      "0xffffff fe",
      "0x7274 736465",
      "0x40111 4",
      "0x40185 4",
      "0x400ef 8",
      "0x74736574 676e",
      "0x7274736465 786966",
      "0x74736574676e 69",
      "0 6",
      "0 7",
      "1 9",
      "1 c",
      "5 2",
      "6 1",
      "9 4",
      "n v",
      "0x1 1c",
      "0x1 52",
      "0x8 d",
      "0x10 48",
      "0x4 e",
      "0x2 e",
      "0x18 5",
      "0x18 c",
      "0x3 5",
      "lc5 03",
      "lc5 74",
      "lc7 05",
      "lc0 06",
      "te nv",
      "lc8 90",
      "lc6 74",
      "lc6 29",
      "lc4 87",
      "lc4 18",
      "lc4 61",
      "lc9 62",
      "lc9 07",
      "lc9 94",
      "0x6 5646362613938",
      "lc3 34",
      "lc3 29",
      "lc3 01",
      "lc3 19",
      "lc2 55",
      "0xc b",
      "0xa 2",
      "0xa e",
      "lc98 6",
      "0xb 2",
      "0xf a",
      "0xf e",
      "0x12 0",
      "0x1c 3",
      "0x1c f",
      "0xe 1",
      "0x19 5",
      "0x1b f",
      "0x40115 4",
      "0x23 a",
      "ge tenv",
      "strn cat"
    ]
  }
}