{
  "version": "1.0",
  "truncation": {
    "direction": "Right",
    "max_length": 512,
    "strategy": "LongestFirst",
    "stride": 0
  },
  "padding": {
    "strategy": "BatchLongest",
    "direction": "Right",
    "pad_to_multiple_of": null,
    "pad_id": 0,
    "pad_type_id": 0,
    "pad_token": "<pad>"
  },
  "added_tokens": [
    {
      "id": 0,
      "content": "<unk>",
      "single_word": false,
      "lstrip": false,
      "rstrip": false,
      "normalized": false,
      "special": true
    },
    {
      "id": 1,
      "content": "<sep>",
      "single_word": false,
      "lstrip": false,
      "rstrip": false,
      "normalized": false,
      "special": true
    },
    {
      "id": 2,
      "content": "<mask>",
      "single_word": false,
      "lstrip": false,
      "rstrip": false,
      "normalized": false,
      "special": true
    },
    {
      "id": 3,
      "content": "<pad>",
      "single_word": false,
      "lstrip": false,
      "rstrip": false,
      "normalized": false,
      "special": true
    },
    {
      "id": 4,
      "content": "<s>",
      "single_word": false,
      "lstrip": false,
      "rstrip": false,
      "normalized": false,
      "special": true
    },
    {
      "id": 5,
      "content": "</s>",
      "single_word": false,
      "lstrip": false,
      "rstrip": false,
      "normalized": false,
      "special": true
    }
  ],
  "normalizer": null,
  "pre_tokenizer": {
    "type": "Whitespace"
  },
  "post_processor": {
    "type": "BertProcessing",
    "sep": [
      "</s>",
      5
    ],
    "cls": [
      "<s>",
      4
    ]
  },
  "decoder": null,
  "model": {
    "type": "BPE",
    "dropout": null,
    "unk_token": "<unk>",
    "continuing_subword_prefix": null,
    "end_of_word_suffix": null,
    "fuse_unk": false,
    "byte_fallback": false,
    "vocab": {
      "<unk>": 0,
      "<sep>": 1,
      "<mask>": 2,
      "<pad>": 3,
      "<s>": 4,
      "</s>": 5,
      "!": 6,
      "(": 7,
      ")": 8,
      "*": 9,
      "+": 10,
      ",": 11,
      "-": 12,
      "0": 13,
      "1": 14,
      "2": 15,
      "3": 16,
      "4": 17,
      "5": 18,
      "6": 19,
      "7": 20,
      "8": 21,
      "9": 22,
      ":": 23,
      "A": 24,
      "B": 25,
      "C": 26,
      "D": 27,
      "E": 28,
      "F": 29,
      "G": 30,
      "I": 31,
      "L": 32,
      "N": 33,
      "O": 34,
      "P": 35,
      "Q": 36,
      "R": 37,
      "S": 38,
      "T": 39,
      "U": 40,
      "W": 41,
      "Y": 42,
      "[": 43,
      "]": 44,
      "_": 45,
      "a": 46,
      "b": 47,
      "c": 48,
      "d": 49,
      "e": 50,
      "f": 51,
      "g": 52,
      "h": 53,
      "i": 54,
      "j": 55,
      "k": 56,
      "l": 57,
      "m": 58,
      "n": 59,
      "o": 60,
      "p": 61,
      "q": 62,
      "r": 63,
      "s": 64,
      "t": 65,
      "u": 66,
      "v": 67,
      "w": 68,
      "x": 69,
      "y": 70,
      "z": 71,
      "0x": 72,
      "mo": 73,
      "mov": 74,
      "rb": 75,
      "ax": 76,
      "rbp": 77,
      "TR": 78,
      "PTR": 79,
      "rax": 80,
      "OR": 81,
      "WOR": 82,
      "WORD": 83,
      "QWORD": 84,
      "0x1": 85,
      "ff": 86,
      "],": 87,
      "lc": 88,
      "di": 89,
      "al": 90,
      "eax": 91,
      "cal": 92,
      "call": 93,
      "rs": 94,
      "0x8": 95,
      "rsp": 96,
      "rdi": 97,
      "le": 98,
      "0x0": 99,
      "lea": 100,
      "ffff": 101,
      "dx": 102,
      "0x10": 103,
      "sh": 104,
      "pu": 105,
      "et": 106,
      "0x4": 107,
      "push": 108,
      "su": 109,
      "sub": 110,
      "DWORD": 111,
      "st": 112,
      "ret": 113,
      "lc2": 114,
      "mp": 115,
      "rdx": 116,
      "ve": 117,
      "0x2": 118,
      "leave": 119,
      "op": 120,
      "0x18": 121,
      "edi": 122,
      "BY": 123,
      "TE": 124,
      "BYTE": 125,
      "je": 126,
      "cmp": 127,
      "ra": 128,
      "nd": 129,
      "0x7": 130,
      ",[": 131,
      "cx": 132,
      "lc4": 133,
      "0x40": 134,
      "es": 135,
      "edx": 136,
      "rbx": 137,
      "rand": 138,
      "ad": 139,
      "0x3": 140,
      "0x6": 141,
      "add": 142,
      "ffffffff": 143,
      "rsi": 144,
      "rcx": 145,
      "13": 146,
      "0x20": 147,
      "nop": 148,
      "esi": 149,
      "te": 150,
      "0x14": 151,
      "lc3": 152,
      "or": 153,
      "test": 154,
      "se": 155,
      "jmp": 156,
      "0x78": 157,
      "0xffffffff": 158,
      "ne": 159,
      "lc24": 160,
      "in": 161,
      "cd": 162,
      "qe": 163,
      "0x30": 164,
      "cdqe": 165,
      "pr": 166,
      "tf": 167,
      "intf": 168,
      "printf": 169,
      "din": 170,
      "stdin": 171,
      "00": 172,
      "68": 173,
      "pop": 174,
      "xor": 175,
      "a0": 176,
      "lc0": 177,
      "shl": 178,
      "IO": 179,
      "_u": 180,
      "_stdin": 181,
      "_IO": 182,
      "0xc": 183,
      "sed": 184,
      "_used": 185,
      "_stdin_used": 186,
      "_IO_stdin_used": 187,
      "lc8": 188,
      "ope": 189,
      "re": 190,
      "ts": 191,
      "0x1f": 192,
      "lc13": 193,
      "puts": 194,
      "74": 195,
      "AL": 196,
      "at": 197,
      "0xd": 198,
      "0x80": 199,
      "0x401": 200,
      "em": 201,
      "lo": 202,
      "mem": 203,
      "sx": 204,
      "movsx": 205,
      "lc5": 206,
      "19": 207,
      "69": 208,
      ":[": 209,
      "ab": 210,
      "ic": 211,
      "0x5": 212,
      "movab": 213,
      "lc219": 214,
      "lc49": 215,
      "lc247": 216,
      "rep": 217,
      "atic": 218,
      "movabs": 219,
      "BAL": 220,
      "CO": 221,
      "GL": 222,
      "NS": 223,
      "OBAL": 224,
      "T_": 225,
      "_CO": 226,
      "0x400": 227,
      "GLOBAL": 228,
      "NST_": 229,
      "_CONST_": 230,
      "GLOBAL_CONST_": 231,
      "64": 232,
      "ns": 233,
      "os": 234,
      "lc9": 235,
      "ffffff": 236,
      "stos": 237,
      "lc268": 238,
      "71": 239,
      "[]": 240,
      "jne": 241,
      "tor": 242,
      "0xb": 243,
      "0xf": 244,
      "rator": 245,
      "lc240": 246,
      "operator": 247,
      "0x4014": 248,
      "[](": 249,
      "65": 250,
      "set": 251,
      "0x1a0": 252,
      "0x63": 253,
      "0x64": 254,
      "0xcb": 255,
      "lc131": 256,
      "16": 257,
      "St": 258,
      "UE": 259,
      "TRUE": 260,
      "str": 261,
      "GLOBAL_CONST_TRUE": 262,
      "Static": 263,
      "10": 264,
      "90": 265,
      "clo": 266,
      "ecx": 267,
      "lc27": 268,
      "lc213": 269,
      "lc471": 270,
      "0x4013": 271,
      "memset": 272,
      "close": 273,
      "32": 274,
      "54": 275,
      "go": 276,
      "od": 277,
      "0xa0": 278,
      "lc40": 279,
      "lc44": 280,
      "lc354": 281,
      "0000": 282,
      "lc032": 283,
      "0xd4": 284,
      "lc496": 285,
      "good": 286,
      "im": 287,
      "oi": 288,
      "ul": 289,
      "lc316": 290,
      "0x400f": 291,
      "imul": 292,
      "28": 293,
      "59": 294,
      "78": 295,
      "no": 296,
      "lc68": 297,
      "lc28": 298,
      "0x28": 299,
      "0xffffffffffffff": 300,
      "lc94": 301,
      "0x4013f": 302,
      "not": 303,
      "lc684": 304,
      "21": 305,
      "53": 306,
      "do": 307,
      "fprintf": 308,
      "jb": 309,
      "ut": 310,
      "0x190": 311,
      "lc64": 312,
      "len": 313,
      "stdo": 314,
      "lc253": 315,
      "0x2c": 316,
      "lc369": 317,
      "lc859": 318,
      "lc821": 319,
      "strlen": 320,
      "lc449": 321,
      "lc284": 322,
      "lc641": 323,
      "stdout": 324,
      "*)": 325,
      "04": 326,
      "27": 327,
      "2G": 328,
      "73": 329,
      "80": 330,
      "B2G": 331,
      "and": 332,
      "de": 333,
      "fope": 334,
      "fclose": 335,
      "gne": 336,
      "igne": 337,
      "ld": 338,
      "ng": 339,
      "uns": 340,
      "voi": 341,
      "0xe": 342,
      "move": 343,
      "0x81": 344,
      "lete": 345,
      "lc22": 346,
      "new": 347,
      "lc132": 348,
      "long": 349,
      "memmove": 350,
      "goodB2G": 351,
      "0xffffffffffffff80": 352,
      "delete": 353,
      "fopen": 354,
      "igned": 355,
      "unsigned": 356,
      "void": 357,
      "17": 358,
      "66": 359,
      "67": 360,
      "79": 361,
      "98": 362,
      "a4": 363,
      "co": 364,
      "zx": 365,
      "movzx": 366,
      "0x1a4": 367,
      "0x7ffffffff": 368,
      "lc417": 369,
      "0x61": 370,
      "lc379": 371,
      "lc495": 372,
      "fffffff": 373,
      "0xbf": 374,
      "lc275": 375,
      "lc948": 376,
      "lc223": 377,
      "0x7fffffffffffffff": 378,
      "70": 379,
      "82": 380,
      "95": 381,
      "0x1e": 382,
      "lc78": 383,
      "0x1028": 384,
      "0x43": 385,
      "0x2d": 386,
      "0x70": 387,
      "0x74": 388,
      "0x7b": 389,
      "0x32": 390,
      "0x3c": 391,
      "0x3d": 392,
      "lc010": 393,
      "0x4010": 394,
      "lc595": 395,
      "6966": 396,
      "lc982": 397,
      "lc272": 398,
      "lc405": 399,
      "lc786": 400,
      "Fi": 401,
      "fg": 402,
      "jns": 403,
      "ets": 404,
      "static": 405,
      "0x29": 406,
      "0x3a": 407,
      "lc327": 408,
      "0x5c": 409,
      "0x400d": 410,
      "0x401404": 411,
      "lc402": 412,
      "0x4013f4": 413,
      "0x4013f6": 414,
      "jbe": 415,
      "Five": 416,
      "fgets": 417,
      "staticFive": 418,
      "14": 419,
      "1Static": 420,
      "2B": 421,
      "2f": 422,
      "274": 423,
      "2Static": 424,
      "30": 425,
      "6e": 426,
      "75": 427,
      "94": 428,
      "FAL": 429,
      "G2B": 430,
      "SE": 431,
      "TBYTE": 432,
      "ck": 433,
      "cq": 434,
      "cv": 435,
      "fi": 436,
      "fu": 437,
      "fst": 438,
      "fld": 439,
      "ht": 440,
      "ip": 441,
      "mip": 442,
      "ons": 443,
      "ock": 444,
      "sock": 445,
      "0xa": 446,
      "lc65": 447,
      "0x1030": 448,
      "0x48": 449,
      "0x4a": 450,
      "0x24": 451,
      "0x77": 452,
      "0x7274": 453,
      "0x38": 454,
      "0x3e": 455,
      "0x65": 456,
      "0x66": 457,
      "0x698": 458,
      "lc875": 459,
      "recv": 460,
      "7467": 461,
      "lc513": 462,
      "0x50": 463,
      "GLOBAL_CONST_FAL": 464,
      "6465": 465,
      "0xfe": 466,
      "0x401413": 467,
      "0x401428": 468,
      "657467": 469,
      "00000000": 470,
      "goodG2B": 471,
      "0x400f70": 472,
      "786966": 473,
      "736465": 474,
      "73657467": 475,
      "goodB2G1Static": 476,
      "goodB2G2Static": 477,
      "comip": 478,
      "0x7473657467": 479,
      "0x401010": 480,
      "6e69": 481,
      "cqo": 482,
      "fild": 483,
      "fucomip": 484,
      "fstp": 485,
      "htons": 486,
      "socket": 487,
      "lc657": 488,
      "0x7274736465": 489,
      "0x6987": 490,
      "GLOBAL_CONST_FALSE": 491,
      "goodG2BStatic": 492,
      "0x74736574676e69": 493,
      "0x7274736465786966": 494,
      "35": 495,
      "37": 496,
      "50": 497,
      "60": 498,
      "_add": 499,
      "a8": 500,
      "bx": 501,
      "cp": 502,
      "ct": 503,
      "ebx": 504,
      "nne": 505,
      "ncp": 506,
      "0x98": 507,
      "0x94": 508,
      "0x1ff": 509,
      "lc16": 510,
      "lc10": 511,
      "lc14": 512,
      "div": 513,
      "0x1060": 514,
      "shr": 515,
      "et_add": 516,
      "0x41": 517,
      "0x2e": 518,
      "0x73": 519,
      "lc474": 520,
      "lc435": 521,
      "0x60": 522,
      "0x68": 523,
      "lc374": 524,
      "inet_add": 525,
      "lc071": 526,
      "lc050": 527,
      "atoi": 528,
      "lc527": 529,
      "lc537": 530,
      "0x401464": 531,
      "strncp": 532,
      "0x401304": 533,
      "lc444": 534,
      "0x400fa8": 535,
      "lc943": 536,
      "0xe4": 537,
      "conne": 538,
      "0xa6": 539,
      "lc167": 540,
      "lc101": 541,
      "lc142": 542,
      "inet_addr": 543,
      "strncpy": 544,
      "connect": 545,
      "2e": 546,
      "44": 547,
      "6d": 548,
      "7e": 549,
      "a3": 550,
      "as": 551,
      "b0": 552,
      "bad": 553,
      "c8": 554,
      "ch": 555,
      "c6966": 556,
      "cas": 557,
      "fe": 558,
      "jl": 559,
      "nz": 560,
      "scas": 561,
      "0x90": 562,
      "ff8": 563,
      "lc74": 564,
      "0x84": 565,
      "0x8d": 566,
      "0x46": 567,
      "0x4c": 568,
      "lc290": 569,
      "0x23": 570,
      "0x2a": 571,
      "lc400": 572,
      "0x34": 573,
      "0x6b": 574,
      "0x6d": 575,
      "0x6c6966": 576,
      "0x7874": 577,
      "0xffffffffffffffff": 578,
      "001": 579,
      "lc044": 580,
      "0xc00000000": 581,
      "742f": 582,
      "0xd6": 583,
      "lc567": 584,
      "0x5f": 585,
      "repnz": 586,
      "0x400ff8": 587,
      "0xf2": 588,
      "sete": 589,
      "strch": 590,
      "0000001": 591,
      "0x400fb0": 592,
      "0x400fc8": 593,
      "0xfffffffffffffffe": 594,
      "0xe0": 595,
      "0xe1": 596,
      "706d": 597,
      "0x401074": 598,
      "0x400d7e": 599,
      "0x400da3": 600,
      "2f706d": 601,
      "2e65": 602,
      "badStatic": 603,
      "lc745": 604,
      "0x6c69662f706d": 605,
      "0x78742e65": 606,
      "0xc000000000000001": 607,
      "strchr": 608,
      "0x6c69662f706d742f": 609,
      "11": 610,
      "34": 611,
      "52": 612,
      "58": 613,
      "62": 614,
      "614": 615,
      "ac": 616,
      "b4": 617,
      "bi": 618,
      "c4": 619,
      "ce": 620,
      "en": 621,
      "ist": 622,
      "list": 623,
      "pt": 624,
      "0xff": 625,
      "0x111": 626,
      "0x1b4": 627,
      "0x1c4": 628,
      "lc67": 629,
      "lc614": 630,
      "0x1058": 631,
      "lc234": 632,
      "0x181": 633,
      "lc466": 634,
      "0x204": 635,
      "lc064": 636,
      "0xc8": 637,
      "lc865": 638,
      "lc862": 639,
      "0xd1": 640,
      "movsxd": 641,
      "lc568": 642,
      "lc552": 643,
      "0x5b": 644,
      "0x5e": 645,
      "lc994": 646,
      "0xf0": 647,
      "lc401": 648,
      "lc280": 649,
      "0xef": 650,
      "lc220": 651,
      "0x400d59": 652,
      "acce": 653,
      "bind": 654,
      "listen": 655,
      "0xfff": 656,
      "lc675": 657,
      "accept": 658
    },
    "merges": [
      "0 x",
      "m o",
      "mo v",
      "r b",
      "a x",
      "rb p",
      "T R",
      "P TR",
      "r ax",
      "O R",
      "W OR",
      "WOR D",
      "Q WORD",
      "0x 1",
      "f f",
      "] ,",
      "l c",
      "d i",
      "a l",
      "e ax",
      "c al",
      "cal l",
      "r s",
      "0x 8",
      "rs p",
      "r di",
      "l e",
      "0x 0",
      "le a",
      "ff ff",
      "d x",
      "0x1 0",
      "s h",
      "p u",
      "e t",
      "0x 4",
      "pu sh",
      "s u",
      "su b",
      "D WORD",
      "s t",
      "r et",
      "lc 2",
      "m p",
      "r dx",
      "v e",
      "0x 2",
      "lea ve",
      "o p",
      "0x1 8",
      "e di",
      "B Y",
      "T E",
      "BY TE",
      "j e",
      "c mp",
      "r a",
      "n d",
      "0x 7",
      ", [",
      "c x",
      "lc 4",
      "0x4 0",
      "e s",
      "e dx",
      "rb x",
      "ra nd",
      "a d",
      "0x 3",
      "0x 6",
      "ad d",
      "ffff ffff",
      "rs i",
      "r cx",
      "1 3",
      "0x2 0",
      "n op",
      "es i",
      "t e",
      "0x1 4",
      "lc 3",
      "o r",
      "te st",
      "s e",
      "j mp",
      "0x7 8",
      "0x ffffffff",
      "n e",
      "lc2 4",
      "i n",
      "c d",
      "q e",
      "0x3 0",
      "cd qe",
      "p r",
      "t f",
      "in tf",
      "pr intf",
      "di n",
      "st din",
      "0 0",
      "6 8",
      "p op",
      "x or",
      "a 0",
      "lc 0",
      "sh l",
      "I O",
      "_ u",
      "_ stdin",
      "_ IO",
      "0x c",
      "se d",
      "_u sed",
      "_stdin _used",
      "_IO _stdin_used",
      "lc 8",
      "op e",
      "r e",
      "t s",
      "0x1 f",
      "lc 13",
      "pu ts",
      "7 4",
      "A L",
      "a t",
      "0x d",
      "0x8 0",
      "0x40 1",
      "e m",
      "l o",
      "m em",
      "s x",
      "mov sx",
      "lc 5",
      "1 9",
      "6 9",
      ": [",
      "a b",
      "i c",
      "0x 5",
      "mov ab",
      "lc2 19",
      "lc4 9",
      "lc24 7",
      "re p",
      "at ic",
      "movab s",
      "B AL",
      "C O",
      "G L",
      "N S",
      "O BAL",
      "T _",
      "_ CO",
      "0x40 0",
      "GL OBAL",
      "NS T_",
      "_CO NST_",
      "GLOBAL _CONST_",
      "6 4",
      "n s",
      "o s",
      "lc 9",
      "ffff ff",
      "st os",
      "lc2 68",
      "7 1",
      "[ ]",
      "j ne",
      "t or",
      "0x b",
      "0x f",
      "ra tor",
      "lc24 0",
      "ope rator",
      "0x401 4",
      "[] (",
      "6 5",
      "s et",
      "0x1 a0",
      "0x6 3",
      "0x6 4",
      "0xc b",
      "lc13 1",
      "1 6",
      "S t",
      "U E",
      "TR UE",
      "st r",
      "GLOBAL_CONST_ TRUE",
      "St atic",
      "1 0",
      "9 0",
      "c lo",
      "e cx",
      "lc2 7",
      "lc2 13",
      "lc4 71",
      "0x40 13",
      "mem set",
      "clo se",
      "3 2",
      "5 4",
      "g o",
      "o d",
      "0x a0",
      "lc4 0",
      "lc4 4",
      "lc3 54",
      "00 00",
      "lc0 32",
      "0xd 4",
      "lc49 6",
      "go od",
      "i m",
      "o i",
      "u l",
      "lc3 16",
      "0x400 f",
      "im ul",
      "2 8",
      "5 9",
      "7 8",
      "n o",
      "lc 68",
      "lc2 8",
      "0x2 8",
      "0xffffffff ffffff",
      "lc9 4",
      "0x4013 f",
      "no t",
      "lc68 4",
      "2 1",
      "5 3",
      "d o",
      "f printf",
      "j b",
      "u t",
      "0x1 90",
      "lc 64",
      "le n",
      "st do",
      "lc2 53",
      "0x2 c",
      "lc3 69",
      "lc8 59",
      "lc8 21",
      "str len",
      "lc44 9",
      "lc28 4",
      "lc64 1",
      "stdo ut",
      "* )",
      "0 4",
      "2 7",
      "2 G",
      "7 3",
      "8 0",
      "B 2G",
      "a nd",
      "d e",
      "f ope",
      "f close",
      "g ne",
      "i gne",
      "l d",
      "n g",
      "u ns",
      "v oi",
      "0x e",
      "mov e",
      "0x8 1",
      "le te",
      "lc2 2",
      "ne w",
      "lc13 2",
      "lo ng",
      "mem move",
      "good B2G",
      "0xffffffffffffff 80",
      "de lete",
      "fope n",
      "igne d",
      "uns igned",
      "voi d",
      "1 7",
      "6 6",
      "6 7",
      "7 9",
      "9 8",
      "a 4",
      "c o",
      "z x",
      "mov zx",
      "0x1 a4",
      "0x7 ffffffff",
      "lc4 17",
      "0x6 1",
      "lc3 79",
      "lc49 5",
      "ffffff f",
      "0xb f",
      "lc27 5",
      "lc94 8",
      "lc22 3",
      "0x7ffffffff fffffff",
      "7 0",
      "8 2",
      "9 5",
      "0x1 e",
      "lc 78",
      "0x10 28",
      "0x4 3",
      "0x2 d",
      "0x7 0",
      "0x7 4",
      "0x7 b",
      "0x3 2",
      "0x3 c",
      "0x3 d",
      "lc0 10",
      "0x401 0",
      "lc5 95",
      "69 66",
      "lc9 82",
      "lc27 2",
      "lc40 5",
      "lc78 6",
      "F i",
      "f g",
      "j ns",
      "et s",
      "st atic",
      "0x2 9",
      "0x3 a",
      "lc3 27",
      "0x5 c",
      "0x400 d",
      "0x4014 04",
      "lc40 2",
      "0x4013f 4",
      "0x4013f 6",
      "jb e",
      "Fi ve",
      "fg ets",
      "static Five",
      "1 4",
      "1 Static",
      "2 B",
      "2 f",
      "2 74",
      "2 Static",
      "3 0",
      "6 e",
      "7 5",
      "9 4",
      "F AL",
      "G 2B",
      "S E",
      "T BYTE",
      "c k",
      "c q",
      "c v",
      "f i",
      "f u",
      "f st",
      "f ld",
      "h t",
      "i p",
      "m ip",
      "o ns",
      "o ck",
      "s ock",
      "0x a",
      "lc 65",
      "0x10 30",
      "0x4 8",
      "0x4 a",
      "0x2 4",
      "0x7 7",
      "0x7 274",
      "0x3 8",
      "0x3 e",
      "0x6 5",
      "0x6 6",
      "0x6 98",
      "lc8 75",
      "re cv",
      "74 67",
      "lc5 13",
      "0x5 0",
      "GLOBAL_CONST_ FAL",
      "64 65",
      "0xf e",
      "0x4014 13",
      "0x4014 28",
      "65 7467",
      "0000 0000",
      "good G2B",
      "0x400f 70",
      "78 6966",
      "73 6465",
      "73 657467",
      "goodB2G 1Static",
      "goodB2G 2Static",
      "co mip",
      "0x74 73657467",
      "0x4010 10",
      "6e 69",
      "cq o",
      "fi ld",
      "fu comip",
      "fst p",
      "ht ons",
      "sock et",
      "lc65 7",
      "0x7274 736465",
      "0x698 7",
      "GLOBAL_CONST_FAL SE",
      "goodG2B Static",
      "0x7473657467 6e69",
      "0x7274736465 786966",
      "3 5",
      "3 7",
      "5 0",
      "6 0",
      "_ add",
      "a 8",
      "b x",
      "c p",
      "c t",
      "e bx",
      "n ne",
      "n cp",
      "0x 98",
      "0x 94",
      "0x1 ff",
      "lc 16",
      "lc 10",
      "lc 14",
      "di v",
      "0x10 60",
      "sh r",
      "et _add",
      "0x4 1",
      "0x2 e",
      "0x7 3",
      "lc4 74",
      "lc4 35",
      "0x6 0",
      "0x6 8",
      "lc3 74",
      "in et_add",
      "lc0 71",
      "lc0 50",
      "at oi",
      "lc5 27",
      "lc5 37",
      "0x4014 64",
      "str ncp",
      "0x4013 04",
      "lc44 4",
      "0x400f a8",
      "lc94 3",
      "0xe 4",
      "co nne",
      "0xa 6",
      "lc16 7",
      "lc10 1",
      "lc14 2",
      "inet_add r",
      "strncp y",
      "conne ct",
      "2 e",
      "4 4",
      "6 d",
      "7 e",
      "a 3",
      "a s",
      "b 0",
      "b ad",
      "c 8",
      "c h",
      "c 6966",
      "c as",
      "f e",
      "j l",
      "n z",
      "s cas",
      "0x 90",
      "ff 8",
      "lc 74",
      "0x8 4",
      "0x8 d",
      "0x4 6",
      "0x4 c",
      "lc2 90",
      "0x2 3",
      "0x2 a",
      "lc4 00",
      "0x3 4",
      "0x6 b",
      "0x6 d",
      "0x6 c6966",
      "0x78 74",
      "0xffffffff ffffffff",
      "00 1",
      "lc0 44",
      "0xc 00000000",
      "74 2f",
      "0xd 6",
      "lc5 67",
      "0x5 f",
      "rep nz",
      "0x400 ff8",
      "0xf 2",
      "set e",
      "str ch",
      "0000 001",
      "0x400f b0",
      "0x400f c8",
      "0xffffffffffffff fe",
      "0xe 0",
      "0xe 1",
      "70 6d",
      "0x4010 74",
      "0x400d 7e",
      "0x400d a3",
      "2f 706d",
      "2e 65",
      "bad Static",
      "lc74 5",
      "0x6c6966 2f706d",
      "0x7874 2e65",
      "0xc00000000 0000001",
      "strch r",
      "0x6c69662f706d 742f",
      "1 1",
      "3 4",
      "5 2",
      "5 8",
      "6 2",
      "6 14",
      "a c",
      "b 4",
      "b i",
      "c 4",
      "c e",
      "e n",
      "i st",
      "l ist",
      "p t",
      "0x ff",
      "0x1 11",
      "0x1 b4",
      "0x1 c4",
      "lc 67",
      "lc 614",
      "0x10 58",
      "lc2 34",
      "0x18 1",
      "lc4 66",
      "0x20 4",
      "lc0 64",
      "0xc 8",
      "lc8 65",
      "lc8 62",
      "0xd 1",
      "movsx d",
      "lc5 68",
      "lc5 52",
      "0x5 b",
      "0x5 e",
      "lc9 94",
      "0xf 0",
      "lc40 1",
      "lc28 0",
      "0xe f",
      "lc22 0",
      "0x400d 59",
      "ac ce",
      "bi nd",
      "list en",
      "0xff f",
      "lc67 5",
      "acce pt"
    ]
  }
}