{
  "version": "1.0",
  "truncation": {
    "direction": "Right",
    "max_length": 512,
    "strategy": "LongestFirst",
    "stride": 0
  },
  "padding": {
    "strategy": "BatchLongest",
    "direction": "Right",
    "pad_to_multiple_of": null,
    "pad_id": 0,
    "pad_type_id": 0,
    "pad_token": "<pad>"
  },
  "added_tokens": [
    {
      "id": 0,
      "content": "<unk>",
      "single_word": false,
      "lstrip": false,
      "rstrip": false,
      "normalized": false,
      "special": true
    },
    {
      "id": 1,
      "content": "<sep>",
      "single_word": false,
      "lstrip": false,
      "rstrip": false,
      "normalized": false,
      "special": true
    },
    {
      "id": 2,
      "content": "<mask>",
      "single_word": false,
      "lstrip": false,
      "rstrip": false,
      "normalized": false,
      "special": true
    },
    {
      "id": 3,
      "content": "<pad>",
      "single_word": false,
      "lstrip": false,
      "rstrip": false,
      "normalized": false,
      "special": true
    },
    {
      "id": 4,
      "content": "<s>",
      "single_word": false,
      "lstrip": false,
      "rstrip": false,
      "normalized": false,
      "special": true
    },
    {
      "id": 5,
      "content": "</s>",
      "single_word": false,
      "lstrip": false,
      "rstrip": false,
      "normalized": false,
      "special": true
    }
  ],
  "normalizer": null,
  "pre_tokenizer": {
    "type": "Whitespace"
  },
  "post_processor": {
    "type": "BertProcessing",
    "sep": [
      "</s>",
      5
    ],
    "cls": [
      "<s>",
      4
    ]
  },
  "decoder": null,
  "model": {
    "type": "BPE",
    "dropout": null,
    "unk_token": "<unk>",
    "continuing_subword_prefix": null,
    "end_of_word_suffix": null,
    "fuse_unk": false,
    "byte_fallback": false,
    "vocab": {
      "<unk>": 0,
      "<sep>": 1,
      "<mask>": 2,
      "<pad>": 3,
      "<s>": 4,
      "</s>": 5,
      "!": 6,
      "&": 7,
      "(": 8,
      ")": 9,
      "*": 10,
      "+": 11,
      ",": 12,
      "-": 13,
      ".": 14,
      "0": 15,
      "1": 16,
      "2": 17,
      "3": 18,
      "4": 19,
      "5": 20,
      "6": 21,
      "7": 22,
      "8": 23,
      "9": 24,
      ":": 25,
      "<": 26,
      ">": 27,
      "A": 28,
      "B": 29,
      "C": 30,
      "D": 31,
      "E": 32,
      "F": 33,
      "G": 34,
      "H": 35,
      "I": 36,
      "L": 37,
      "M": 38,
      "N": 39,
      "O": 40,
      "P": 41,
      "Q": 42,
      "R": 43,
      "S": 44,
      "T": 45,
      "U": 46,
      "V": 47,
      "W": 48,
      "X": 49,
      "Y": 50,
      "Z": 51,
      "[": 52,
      "]": 53,
      "_": 54,
      "a": 55,
      "b": 56,
      "c": 57,
      "d": 58,
      "e": 59,
      "f": 60,
      "g": 61,
      "h": 62,
      "i": 63,
      "j": 64,
      "k": 65,
      "l": 66,
      "m": 67,
      "n": 68,
      "o": 69,
      "p": 70,
      "q": 71,
      "r": 72,
      "s": 73,
      "t": 74,
      "u": 75,
      "v": 76,
      "w": 77,
      "x": 78,
      "y": 79,
      "z": 80,
      "~": 81,
      "0x": 82,
      "mo": 83,
      "mov": 84,
      "rb": 85,
      "rbp": 86,
      "ax": 87,
      "TR": 88,
      "PTR": 89,
      "rax": 90,
      "OR": 91,
      "WOR": 92,
      "WORD": 93,
      "QWORD": 94,
      "rd": 95,
      "lc": 96,
      "],": 97,
      "0x1": 98,
      "rs": 99,
      "al": 100,
      "rdi": 101,
      "all": 102,
      "0x8": 103,
      "call": 104,
      "rsp": 105,
      "le": 106,
      "rdx": 107,
      "ff": 108,
      "eax": 109,
      "lea": 110,
      "0x10": 111,
      "sh": 112,
      "pu": 113,
      "0x2": 114,
      "re": 115,
      "push": 116,
      "ret": 117,
      "DWORD": 118,
      "0x0": 119,
      "0x4": 120,
      "op": 121,
      "ed": 122,
      "ub": 123,
      "sub": 124,
      "0x18": 125,
      "rsi": 126,
      "mp": 127,
      ",[": 128,
      "ve": 129,
      "leave": 130,
      "ffff": 131,
      "cx": 132,
      "0x20": 133,
      "0x3": 134,
      "st": 135,
      "rcx": 136,
      "rbx": 137,
      "pop": 138,
      "edi": 139,
      "cmp": 140,
      "ad": 141,
      "add": 142,
      "je": 143,
      "lc1": 144,
      "lc5": 145,
      "lc4": 146,
      "lc9": 147,
      "lc2": 148,
      "lc3": 149,
      "lc7": 150,
      "lc8": 151,
      "lc6": 152,
      "lc0": 153,
      "0x28": 154,
      "nop": 155,
      "0x6": 156,
      "jmp": 157,
      "te": 158,
      "0x5": 159,
      "si": 160,
      "0x7": 161,
      "0x40": 162,
      "0x30": 163,
      "edx": 164,
      "ne": 165,
      "test": 166,
      "ffffffff": 167,
      "BY": 168,
      "TE": 169,
      "BYTE": 170,
      "in": 171,
      "esi": 172,
      "ra": 173,
      "std": 174,
      "0xffffffff": 175,
      "12": 176,
      "se": 177,
      "or": 178,
      "0x9": 179,
      "0xc": 180,
      "jne": 181,
      "0x78": 182,
      "::": 183,
      "lo": 184,
      "0x38": 185,
      "ts": 186,
      "r12": 187,
      "nd": 188,
      "ope": 189,
      "0x14": 190,
      "0x401": 191,
      "0x11": 192,
      "ar": 193,
      "ch": 194,
      "tor": 195,
      "0x50": 196,
      "00": 197,
      "rator": 198,
      "operator": 199,
      "0x1f": 200,
      "0xf": 201,
      "stdin": 202,
      "int": 203,
      "20": 204,
      "shl": 205,
      "de": 206,
      "_I": 207,
      "pr": 208,
      "intf": 209,
      "printf": 210,
      "puts": 211,
      "0xb": 212,
      "0xa": 213,
      "rand": 214,
      "sed": 215,
      "char": 216,
      "me": 217,
      "at": 218,
      "cd": 219,
      "_u": 220,
      "cdq": 221,
      "0x63": 222,
      "O_": 223,
      "_IO_": 224,
      "set": 225,
      "stdin_u": 226,
      "_IO_stdin_u": 227,
      "_IO_stdin_used": 228,
      "0x70": 229,
      "oc": 230,
      "cdqe": 231,
      "28": 232,
      "mem": 233,
      "movs": 234,
      "0x80": 235,
      "ecx": 236,
      "0x60": 237,
      "14": 238,
      "55": 239,
      "13": 240,
      "oi": 241,
      "__": 242,
      "*)": 243,
      "mm": 244,
      "xmm": 245,
      "mova": 246,
      "eb": 247,
      "74": 248,
      "0xe": 249,
      "98": 250,
      "ebx": 251,
      "movsx": 252,
      "0x48": 253,
      "66": 254,
      "0x90": 255,
      "0x88": 256,
      "ree": 257,
      "80": 258,
      "30": 259,
      "alloc": 260,
      "65": 261,
      "69": 262,
      "lete": 263,
      "delete": 264,
      "ng": 265,
      "ba": 266,
      "18": 267,
      "gn": 268,
      "90": 269,
      "new": 270,
      "73": 271,
      "str": 272,
      "memset": 273,
      "un": 274,
      "gned": 275,
      "0xd": 276,
      "signed": 277,
      "long": 278,
      "voi": 279,
      "void": 280,
      "68": 281,
      "unsigned": 282,
      "0x118": 283,
      "78": 284,
      "zx": 285,
      "movzx": 286,
      "es": 287,
      "64": 288,
      ":[": 289,
      "rep": 290,
      "22": 291,
      "_t": 292,
      "70": 293,
      "[]": 294,
      "[](": 295,
      "15": 296,
      "ex": 297,
      "40": 298,
      "76": 299,
      "10": 300,
      "0x400": 301,
      "0xf0": 302,
      "0x43": 303,
      "38": 304,
      "0x64": 305,
      "50": 306,
      "58": 307,
      "54": 308,
      "0x58": 309,
      "45": 310,
      "it": 311,
      "os": 312,
      "0x68": 313,
      "19": 314,
      "48": 315,
      "33": 316,
      "exit": 317,
      "on": 318,
      "60": 319,
      "21": 320,
      "31": 321,
      "08": 322,
      "72": 323,
      "xor": 324,
      "94": 325,
      "34": 326,
      "63": 327,
      "23": 328,
      "57": 329,
      "09": 330,
      "stos": 331,
      "95": 332,
      "71": 333,
      "36": 334,
      "96": 335,
      "44": 336,
      "24": 337,
      "93": 338,
      "aa": 339,
      "41": 340,
      "29": 341,
      "37": 342,
      "39": 343,
      "no": 344,
      "82": 345,
      "26": 346,
      "49": 347,
      "0x41": 348,
      "02": 349,
      "c_": 350,
      "99": 351,
      "25": 352,
      "51": 353,
      "59": 354,
      "42": 355,
      "07": 356,
      "92": 357,
      "53": 358,
      "35": 359,
      "04": 360,
      "81": 361,
      "75": 362,
      "87": 363,
      "89": 364,
      "46": 365,
      "88": 366,
      "27": 367,
      "86": 368,
      "52": 369,
      "62": 370,
      "bs": 371,
      "84": 372,
      "77": 373,
      "47": 374,
      "56": 375,
      "43": 376,
      "97": 377,
      "06": 378,
      "11": 379,
      "67": 380,
      "61": 381,
      "32": 382,
      "79": 383,
      "01": 384,
      "85": 385,
      "83": 386,
      "movabs": 387,
      "03": 388,
      "91": 389,
      "16": 390,
      "17": 391,
      "05": 392,
      "clo": 393,
      "close": 394,
      "jle": 395,
      "0x12": 396,
      "xmm0": 397,
      "sic_": 398,
      "basic_": 399,
      "ST": 400,
      "bal": 401,
      "ati": 402,
      "free": 403,
      "0x1c": 404,
      "malloc": 405,
      "0x98": 406,
      "oo": 407,
      "_C": 408,
      "atic": 409,
      "lobal": 410,
      "am": 411,
      "ream": 412,
      "stream": 413,
      "0x128": 414,
      "ffffff": 415,
      "0xa0": 416,
      "WE": 417,
      "be": 418,
      "0xe0": 419,
      "CWE": 420,
      "ps": 421,
      "AL": 422,
      "fstream": 423,
      "ON": 424,
      "ST_": 425,
      "_CON": 426,
      "_CONST_": 427,
      "0xb0": 428,
      "_R": 429,
      "0x43f": 430,
      "0x400f": 431,
      "()": 432,
      "0x4010": 433,
      "ood": 434,
      "good": 435,
      "0x19": 436,
      "ul": 437,
      "0000": 438,
      "r13": 439,
      "0x1e": 440,
      "MM": 441,
      "XMM": 442,
      "movaps": 443,
      "XMMWORD": 444,
      "mul": 445,
      "jg": 446,
      "sete": 447,
      "len": 448,
      "ree_": 449,
      "strlen": 450,
      "iv": 451,
      "sar": 452,
      "Fi": 453,
      "static": 454,
      "global": 455,
      "BAL": 456,
      "GL": 457,
      "OBAL": 458,
      "Five": 459,
      "GLOBAL": 460,
      "GLOBAL_CONST_": 461,
      "imul": 462,
      "jbe": 463,
      "ge": 464,
      "0x31": 465,
      "div": 466,
      ">::": 467,
      "bl": 468,
      "0x24": 469,
      "cp": 470,
      "b_t": 471,
      "_Rb_t": 472,
      "_Rb_tree_": 473,
      "t_": 474,
      "_tra": 475,
      "its": 476,
      "char_tra": 477,
      "char_traits": 478,
      "cv": 479,
      "de_": 480,
      "0x1a": 481,
      "cpy": 482,
      "shr": 483,
      "a_": 484,
      "0x320": 485,
      "ro": 486,
      "base": 487,
      "__cx": 488,
      "con": 489,
      "node_": 490,
      "node_base": 491,
      "and": 492,
      "__cxa_": 493,
      "not": 494,
      "0x110": 495,
      "ock": 496,
      "0x32": 497,
      "1414": 498,
      "ist": 499,
      "ocke": 500,
      "socke": 501,
      "cat": 502,
      "G2": 503,
      "aaaa": 504,
      "ru": 505,
      "hro": 506,
      "hrow": 507,
      "0xffffffffffffff": 508,
      "ja": 509,
      "Tru": 510,
      "True": 511,
      "0x34": 512,
      "setne": 513,
      "0x120": 514,
      "bad": 515,
      "0xffffffffffffff80": 516,
      "basic_o": 517,
      "0x1b": 518,
      "en": 519,
      "0x4c": 520,
      "ons": 521,
      "socket": 522,
      "GLOBAL_CONST_F": 523,
      "ht": 524,
      "htons": 525,
      "_M": 526,
      "goodG2": 527,
      "ifstream": 528,
      "0xc8": 529,
      "IV": 530,
      "IVE": 531,
      "987": 532,
      "0x6987": 533,
      "recv": 534,
      "open": 535,
      "er": 536,
      "0x54": 537,
      "ata": 538,
      "basic_ifstream": 539,
      "basic_ofstream": 540,
      "goodG2B": 541,
      "r12b": 542,
      "ce": 543,
      "0x100": 544,
      "_Rb_tree_node_base": 545,
      "0xc0": 546,
      "Data": 547,
      "0x21": 548,
      "ca": 549,
      "0x4014": 550,
      "sca": 551,
      "0x6c": 552,
      "0x16": 553,
      "atoi": 554,
      "0x102": 555,
      "0x1d": 556,
      "_cat": 557,
      "move": 558,
      "_catch": 559,
      "memmove": 560,
      "0x5c": 561,
      "0x25": 562,
      "St": 563,
      "_bad": 564,
      "0x74": 565,
      "_O": 566,
      "fffffff": 567,
      "5555": 568,
      "742": 569,
      "0x4012": 570,
      "movsxd": 571,
      "0x2c": 572,
      "__t": 573,
      "GLOBAL_CONST_FIVE": 574,
      "globalFive": 575,
      "staticFive": 576,
      "__throw": 577,
      "0x3d": 578,
      "neg": 579,
      "0x2d": 580,
      "setb": 581,
      "0x4013": 582,
      "0xd8": 583,
      "gets": 584,
      "fgets": 585,
      "0x2f": 586,
      "0x61": 587,
      "B2": 588,
      "goodB2": 589,
      "0x3f": 590,
      "0x3c": 591,
      "flo": 592,
      "0x4011": 593,
      "6c": 594,
      "movsd": 595,
      "memcpy": 596,
      "xmm1": 597,
      "0x1020": 598,
      ">::~": 599,
      "flow": 600,
      "ine": 601,
      "0x42": 602,
      "*,": 603,
      "_B": 604,
      "0x1018": 605,
      "men": 606,
      "list": 607,
      "ac": 608,
      "listen": 609,
      "0x7d": 610,
      "0xa8": 611,
      "_alloc": 612,
      "0xffffffffffffffff": 613,
      "const": 614,
      "0x81": 615,
      "strn": 616,
      "ct": 617,
      "chr": 618,
      "strchr": 619,
      "flow__": 620,
      "List": 621,
      "Global": 622,
      "Static": 623,
      "0x79": 624,
      "js": 625,
      "pt": 626,
      "cept": 627,
      "6966": 628,
      "0x4015": 629,
      "conne": 630,
      "ment": 631,
      "nz": 632,
      "repnz": 633,
      "scas": 634,
      "0x6f": 635,
      "0xb8": 636,
      "alloca": 637,
      "_bad_alloc": 638,
      "__throw_bad_alloc": 639,
      "0x29": 640,
      "0x52": 641,
      "char_": 642,
      "staticTrue": 643,
      "globalTrue": 644,
      "UE": 645,
      "TRUE": 646,
      "GLOBAL_CONST_TRUE": 647,
      "ou": 648,
      "ver": 649,
      "_Over": 650,
      "_goodG2B": 651,
      "allocator": 652,
      "000": 653,
      "il": 654,
      "0x7f": 655,
      "0x190": 656,
      "0x27": 657,
      "0x3e": 658,
      "0x36": 659,
      "0x45": 660,
      "0xcc": 661,
      "0x6d": 662,
      "bin": 663,
      "accept": 664,
      "bind": 665,
      "0x1ff": 666,
      "y_": 667,
      "0x2e": 668,
      "0x8c": 669,
      "ail": 670,
      "cvt": 671,
      "0x39": 672,
      "6d": 673,
      "goodB2G": 674,
      "0x2a": 675,
      "0x53": 676,
      "t_add": 677,
      "0x73": 678,
      "fopen": 679,
      "out": 680,
      "connect": 681,
      "inet_add": 682,
      "inet_addr": 683,
      "0x3a": 684,
      "fclose": 685,
      "_Overflow__": 686,
      "_U": 687,
      "706d": 688,
      "742f": 689,
      "706d742f": 690,
      "end": 691,
      "__cxa_end": 692,
      "__cxa_end_catch": 693,
      "_In": 694,
      "0x10f": 695,
      "0x400e": 696,
      "0x330": 697,
      "0x415": 698,
      "0x5d": 699,
      "uff": 700,
      "uffer": 701,
      "Fal": 702,
      "False": 703,
      "141": 704,
      "14141414": 705,
      "ing": 706,
      "e69": 707,
      "CWE12": 708,
      "_22": 709,
      "0x5e": 710,
      "0x56": 711,
      "_node_base": 712,
      "_List": 713,
      "tail": 714,
      "detail": 715,
      "__detail": 716,
      "_List_node_base": 717,
      "SE": 718,
      "ALSE": 719,
      "gin": 720,
      "begin": 721,
      "__cxa_begin": 722,
      "__cxa_begin_catch": 723,
      "0x5b": 724,
      "0xe8": 725,
      "tege": 726,
      "_Intege": 727,
      "_Integer": 728,
      "0x47": 729,
      "AT": 730,
      "C_CONST_": 731,
      "IC_CONST_": 732,
      "STAT": 733,
      "IC_CONST_F": 734,
      "STATIC_CONST_F": 735,
      "aaaaaaaa": 736,
      "_Buffer": 737,
      "0x22": 738,
      "an": 739,
      "0x2b": 740,
      "0x1b9": 741,
      "0x26": 742,
      "emo": 743,
      "emor": 744,
      "0x44": 745,
      "0x6a": 746,
      "0x9c": 747,
      "strncpy": 748,
      "0x72": 749,
      "pd": 750,
      "movss": 751,
      "0x7a": 752,
      "0x9e": 753,
      "rethrow": 754,
      "__cxa_rethrow": 755,
      "r12d": 756,
      "0x4c4": 757,
      "cre": 758,
      "_Rb_tree_in": 759,
      "jae": 760,
      "crement": 761,
      "realloc": 762,
      "e65": 763,
      "742e65": 764,
      "jl": 765,
      "6666": 766,
      "ea": 767,
      "fff": 768,
      "00000000": 769,
      "0x1230": 770,
      "0000000": 771,
      "e0": 772,
      "calloc": 773,
      "r8": 774,
      "76e69": 775,
      "0x57": 776,
      "string": 777,
      "0x46": 778,
      "_goodG2BData": 779,
      "0x4a": 780,
      "0xc2": 781,
      "ns": 782,
      "0x35": 783,
      "0x89": 784,
      "jns": 785,
      "0x5a": 786,
      "0x4d": 787,
      "int_": 788,
      "0x4e": 789,
      "sd": 790,
      "0xfffffff": 791,
      "_68": 792,
      "_45": 793,
      "0x1220": 794,
      "0x6b": 795,
      "lc058": 796,
      "_Memor": 797,
      "0x33": 798,
      "0xb5": 799,
      "lc925": 800,
      "fffffffffffffff": 801,
      "lc719": 802,
      "lc133": 803,
      "lc123": 804,
      "jb": 805,
      "0x8d": 806,
      "0x4b": 807,
      "lc638": 808,
      "lc409": 809,
      "basic_string": 810,
      "lc610": 811,
      "0x51": 812,
      "ror": 813,
      "lc698": 814,
      "0x85": 815,
      "lc999": 816,
      "lc433": 817,
      "nf": 818,
      "scanf": 819,
      "&)": 820,
      "lc164": 821,
      "lc466": 822,
      "lc538": 823,
      "lc863": 824,
      "lc778": 825,
      "lc741": 826,
      "_H": 827,
      "lc886": 828,
      "lc507": 829,
      "lc455": 830,
      "lc554": 831,
      "lc333": 832,
      "lc393": 833,
      "0x76": 834,
      "lc187": 835,
      "lc310": 836,
      "lc410": 837,
      "lc531": 838,
      "lc482": 839,
      "lc596": 840,
      "lc747": 841,
      "lc454": 842,
      "lc115": 843,
      "lc977": 844,
      "CWE19": 845,
      "lc265": 846,
      "lc708": 847,
      "lc063": 848,
      "lc740": 849,
      "lc573": 850,
      "lc234": 851,
      "0x67": 852,
      "0x37": 853,
      "lc858": 854,
      "lc208": 855,
      "lc109": 856,
      "lc244": 857,
      "lc071": 858,
      "h_": 859,
      "lc358": 860,
      "lc094": 861,
      "lc197": 862,
      "lc825": 863,
      "lc250": 864,
      "lc207": 865,
      "lc178": 866,
      "0x8e": 867,
      "lc172": 868,
      "lc756": 869,
      "fscanf": 870,
      "lc822": 871,
      "lc798": 872,
      "lc536": 873,
      "lc481": 874,
      "lc901": 875,
      "lc533": 876,
      "lc490": 877,
      "lc868": 878,
      "lc566": 879,
      "lc404": 880,
      "lc541": 881,
      "lc852": 882,
      "lc458": 883,
      "lc484": 884,
      "lc927": 885,
      "lc911": 886,
      "lc256": 887,
      "0xc4": 888,
      "lc847": 889,
      "lc949": 890,
      "lc578": 891,
      "lc837": 892,
      "lc263": 893,
      "lc986": 894,
      "lc189": 895,
      "lc577": 896,
      "lc185": 897,
      "lc839": 898,
      "lc742": 899,
      "0x402": 900,
      "lc504": 901,
      "lc704": 902,
      "lc369": 903,
      "lc451": 904,
      "lc553": 905,
      "lc046": 906,
      "lc401": 907,
      "lc479": 908,
      "lc633": 909,
      "lc399": 910,
      "lc696": 911,
      "lc126": 912,
      "lc802": 913,
      "lc643": 914,
      "lc785": 915,
      "lc429": 916,
      "lc935": 917,
      "lc364": 918,
      "lc849": 919,
      "lc786": 920,
      "lc527": 921,
      "lc675": 922,
      "lc501": 923,
      "lc735": 924,
      "lc614": 925,
      "lc050": 926,
      "lc102": 927,
      "lc314": 928,
      "lc222": 929,
      "lc284": 930,
      "lc028": 931,
      "lc355": 932,
      "lc383": 933,
      "0xbe": 934,
      "lc141": 935,
      "lc294": 936,
      "lc174": 937,
      "lc478": 938,
      "lc014": 939,
      "lc590": 940,
      "0x5f": 941,
      "lc461": 942,
      "lc734": 943,
      "lc905": 944,
      "lc300": 945,
      "lc831": 946,
      "lc008": 947,
      "lc011": 948,
      "lc893": 949,
      "lc157": 950,
      "lc680": 951,
      "lc681": 952,
      "lc155": 953,
      "lc606": 954,
      "lc276": 955,
      "lc936": 956,
      "lc775": 957,
      "lc607": 958,
      "lc523": 959,
      "_Buffer_Overflow__": 960,
      "lc009": 961,
      "lc290": 962,
      "lc926": 963,
      "lc272": 964,
      "lc336": 965,
      "lc214": 966,
      "lc243": 967,
      "lc398": 968,
      "lc331": 969,
      "0xa5": 970,
      "lc435": 971,
      "lc322": 972,
      "lc038": 973,
      "lc048": 974,
      "lc570": 975,
      "lc782": 976,
      "lc002": 977,
      "lc171": 978,
      "lc789": 979,
      "lc318": 980,
      "lc559": 981,
      "lc238": 982,
      "lc296": 983,
      "mat": 984,
      "lc857": 985,
      "lc441": 986,
      "lc426": 987,
      "lc765": 988,
      "lc151": 989,
      "lc530": 990,
      "lc921": 991,
      "lc137": 992,
      "lc106": 993,
      "lc599": 994,
      "lc652": 995,
      "lc428": 996,
      "lc697": 997,
      "lc772": 998,
      "lc237": 999,
      "lc862": 1000,
      "lc190": 1001,
      "lc597": 1002,
      "lc233": 1003,
      "lc483": 1004,
      "lc475": 1005,
      "lc844": 1006,
      "lc671": 1007,
      "lc226": 1008,
      "lc165": 1009,
      "lc089": 1010,
      "lc146": 1011,
      "lc543": 1012,
      "lc502": 1013,
      "lc726": 1014,
      "lc942": 1015,
      "lc168": 1016,
      "lc140": 1017,
      "lc020": 1018,
      "lc242": 1019,
      "lc737": 1020,
      "lc546": 1021,
      "lc896": 1022,
      "lc649": 1023,
      "lc200": 1024,
      "lc881": 1025,
      "lc159": 1026,
      "lc430": 1027,
      "lc231": 1028,
      "lc359": 1029,
      "delete_": 1030,
      "lc371": 1031,
      "lc723": 1032,
      "lc392": 1033,
      "lc070": 1034,
      "736c": 1035,
      "lc621": 1036,
      "lc160": 1037,
      "lc809": 1038,
      "lc047": 1039,
      "lc829": 1040,
      "lc098": 1041,
      "lc045": 1042,
      "lc758": 1043,
      "lc906": 1044,
      "lc823": 1045,
      "lc667": 1046,
      "lc124": 1047,
      "lc390": 1048,
      "lc833": 1049,
      "lc821": 1050,
      "lc139": 1051,
      "lc374": 1052,
      "lc377": 1053,
      "lc582": 1054,
      "lc498": 1055,
      "lc978": 1056,
      "lc065": 1057,
      "lc889": 1058,
      "lc175": 1059,
      "lc423": 1060,
      "lc969": 1061,
      "lc216": 1062,
      "lc321": 1063,
      "lc799": 1064,
      "lc316": 1065,
      "lc110": 1066,
      "lc563": 1067,
      "lc947": 1068,
      "lc087": 1069,
      "lc473": 1070,
      "lc352": 1071,
      "lc066": 1072,
      "lc163": 1073,
      "lc309": 1074,
      "lc327": 1075,
      "lc792": 1076,
      "lc783": 1077,
      "lc421": 1078,
      "lc810": 1079,
      "lc051": 1080,
      "lc587": 1081,
      "lc998": 1082,
      "lc595": 1083,
      "lc450": 1084,
      "lc569": 1085,
      "lc964": 1086,
      "lc269": 1087,
      "lc292": 1088,
      "lc937": 1089,
      "lc900": 1090,
      "lc319": 1091,
      "lc670": 1092,
      "lc695": 1093,
      "lc287": 1094,
      "0x220": 1095,
      "lc464": 1096,
      "lc431": 1097,
      "lc436": 1098,
      "lc892": 1099,
      "ser": 1100,
      "lc032": 1101,
      "lc645": 1102,
      "lc991": 1103,
      "lc815": 1104,
      "lc297": 1105,
      "lc776": 1106,
      "lc517": 1107,
      "lc542": 1108,
      "lc526": 1109,
      "lc285": 1110,
      "lc179": 1111,
      "lc348": 1112,
      "_goodB2G": 1113,
      "lc931": 1114,
      "lc989": 1115,
      "lc686": 1116,
      "lc632": 1117,
      "lc939": 1118,
      "lc113": 1119,
      "lc959": 1120,
      "lc524": 1121,
      "lc525": 1122,
      "lc916": 1123,
      "lc877": 1124,
      "lc418": 1125,
      "lc120": 1126,
      "lc593": 1127,
      "lc217": 1128,
      "lc339": 1129,
      "lc700": 1130,
      "lc068": 1131,
      "lc029": 1132,
      "lc549": 1133,
      "lc114": 1134,
      "lc176": 1135,
      "lc773": 1136,
      "lc116": 1137,
      "lc255": 1138,
      "lc230": 1139,
      "lc078": 1140,
      "lc022": 1141,
      "lc103": 1142,
      "lc902": 1143,
      "lc221": 1144,
      "lc764": 1145,
      "lc246": 1146,
      "lc618": 1147,
      "lc657": 1148,
      "lc626": 1149,
      "lc281": 1150,
      "lc205": 1151,
      "lc356": 1152,
      "lc958": 1153,
      "lc813": 1154,
      "lc125": 1155,
      "lc313": 1156,
      "lc806": 1157,
      "lc149": 1158,
      "lc933": 1159,
      "lc267": 1160,
      "lc302": 1161,
      "lc228": 1162,
      "lc260": 1163,
      "lc346": 1164,
      "lc136": 1165,
      "lc470": 1166,
      "lc940": 1167,
      "lc682": 1168,
      "lc081": 1169,
      "lc380": 1170,
      "lc035": 1171,
      "lc382": 1172,
      "lc153": 1173,
      "lc379": 1174,
      "lc694": 1175,
      "lc257": 1176,
      "0xaa": 1177,
      "lc093": 1178,
      "lc184": 1179,
      "lc443": 1180,
      "lc493": 1181,
      "lc920": 1182,
      "lc672": 1183,
      "lc812": 1184,
      "lc974": 1185,
      "lc129": 1186,
      "lc199": 1187,
      "lc539": 1188,
      "lc615": 1189,
      "lc955": 1190,
      "lc692": 1191,
      "lc586": 1192,
      "lc832": 1193,
      "lc635": 1194,
      "lc687": 1195,
      "lc840": 1196,
      "lc871": 1197,
      "lc625": 1198,
      "lc943": 1199,
      "lc795": 1200,
      "lc550": 1201,
      "lc273": 1202,
      "lc762": 1203,
      "lc508": 1204,
      "lc492": 1205,
      "lc485": 1206,
      "lc924": 1207,
      "lc254": 1208,
      "lc642": 1209,
      "lc077": 1210,
      "lc448": 1211,
      "lc439": 1212,
      "lc585": 1213,
      "lc666": 1214,
      "lc560": 1215,
      "lc794": 1216,
      "lc656": 1217,
      "lc315": 1218,
      "lc729": 1219,
      "lc101": 1220,
      "lc462": 1221,
      "lc994": 1222,
      "lc875": 1223,
      "lc180": 1224,
      "lc218": 1225,
      "lc664": 1226,
      "lc196": 1227,
      "lc985": 1228,
      "lc059": 1229,
      "lc509": 1230,
      "lc209": 1231,
      "lc169": 1232,
      "lc489": 1233,
      "lc895": 1234,
      "lc095": 1235,
      "lc062": 1236,
      "lc518": 1237,
      "lc919": 1238,
      "lc973": 1239,
      "lc744": 1240,
      "lc800": 1241,
      "lc609": 1242,
      "lc236": 1243,
      "lc797": 1244,
      "lc733": 1245,
      "lc721": 1246,
      "lc012": 1247,
      "lc132": 1248,
      "lc836": 1249,
      "lc329": 1250,
      "lc914": 1251,
      "lc907": 1252,
      "lc278": 1253,
      "lc790": 1254,
      "lc846": 1255,
      "lc039": 1256,
      "0xfffffffe": 1257,
      "lc232": 1258,
      "lc347": 1259,
      "lc096": 1260,
      "lc995": 1261,
      "lc381": 1262,
      "lc787": 1263,
      "lc067": 1264,
      "lc143": 1265,
      "0x3b": 1266,
      "lc170": 1267,
      "lc252": 1268,
      "lc728": 1269,
      "lc992": 1270,
      "lc258": 1271,
      "lc357": 1272,
      "lc968": 1273,
      "lc887": 1274,
      "lc608": 1275,
      "lc954": 1276,
      "lc384": 1277,
      "lc736": 1278,
      "lc676": 1279,
      "lc576": 1280,
      "lc938": 1281,
      "lc571": 1282,
      "lc971": 1283,
      "lc055": 1284,
      "0x62": 1285,
      "lc873": 1286,
      "lc854": 1287,
      "lc867": 1288,
      "lc082": 1289,
      "lc293": 1290,
      "lc866": 1291,
      "lc135": 1292,
      "0xef": 1293,
      "lc402": 1294,
      "lc909": 1295,
      "lc378": 1296,
      "lc705": 1297,
      "lc108": 1298,
      "lc557": 1299,
      "lc962": 1300,
      "lc511": 1301,
      "lc494": 1302,
      "lc963": 1303,
      "lc769": 1304,
      "lc928": 1305,
      "lc567": 1306,
      "lc725": 1307,
      "lc990": 1308,
      "lc932": 1309,
      "lc745": 1310,
      "lc760": 1311,
      "lc929": 1312,
      "lc349": 1313,
      "lc720": 1314,
      "lc182": 1315,
      "lc544": 1316,
      "lc915": 1317,
      "lc941": 1318,
      "lc663": 1319,
      "lc659": 1320,
      "lc088": 1321,
      "lc859": 1322,
      "lc603": 1323,
      "lc090": 1324,
      "lc162": 1325,
      "lc147": 1326,
      "lc445": 1327,
      "lc417": 1328,
      "lc796": 1329,
      "lc791": 1330,
      "lc031": 1331,
      "lc467": 1332,
      "lc091": 1333,
      "lc876": 1334,
      "lc669": 1335,
      "sert_": 1336,
      "lc768": 1337,
      "lc732": 1338,
      "lc500": 1339,
      "lc248": 1340,
      "lc897": 1341,
      "lc249": 1342,
      "lc679": 1343,
      "0x4016": 1344,
      "lc552": 1345,
      "0x12f": 1346,
      "lc100": 1347,
      "lc188": 1348,
      "lc400": 1349,
      "lc908": 1350,
      "lc388": 1351,
      "lc655": 1352,
      "lc010": 1353,
      "0x13": 1354,
      "lc360": 1355,
      "lc890": 1356,
      "lc193": 1357,
      "lc282": 1358,
      "lc342": 1359,
      "lc803": 1360,
      "lc064": 1361,
      "lc112": 1362,
      "lc589": 1363,
      "lc279": 1364,
      "lc054": 1365,
      "lc442": 1366,
      "lc711": 1367,
      "lc612": 1368,
      "lc142": 1369,
      "lc534": 1370,
      "lc414": 1371,
      "lc219": 1372,
      "lc894": 1373,
      "lc588": 1374,
      "lc280": 1375,
      "lc156": 1376,
      "lc334": 1377,
      "lc537": 1378,
      "lc953": 1379,
      "lc385": 1380,
      "lc591": 1381,
      "lc424": 1382,
      "lc922": 1383,
      "lc957": 1384,
      "lc099": 1385,
      "lc363": 1386,
      "lc372": 1387,
      "stdout": 1388,
      "lc755": 1389,
      "lc751": 1390,
      "lc468": 1391,
      "lc361": 1392,
      "lc562": 1393,
      "lc982": 1394,
      "lc634": 1395,
      "lc594": 1396,
      "lc119": 1397,
      "lc204": 1398,
      "lc739": 1399,
      "lc015": 1400,
      "lc375": 1401,
      "lc036": 1402,
      "lc528": 1403,
      "lc598": 1404,
      "lc930": 1405,
      "lc299": 1406,
      "lc674": 1407,
      "lc654": 1408,
      "lc023": 1409,
      "lc024": 1410,
      "0xb3": 1411,
      "lc128": 1412,
      "lc558": 1413,
      "lc456": 1414,
      "lc564": 1415,
      "lc950": 1416,
      "0x59": 1417,
      "lc425": 1418,
      "lc224": 1419,
      "lc882": 1420,
      "lc689": 1421,
      "lc173": 1422,
      "lc506": 1423,
      "lc913": 1424,
      "lc373": 1425,
      "lc337": 1426,
      "lc565": 1427,
      "lc259": 1428,
      "lc389": 1429,
      "lc432": 1430,
      "lc298": 1431,
      "lc702": 1432,
      "lc515": 1433,
      "lc683": 1434,
      "lc879": 1435,
      "lc121": 1436,
      "lc084": 1437,
      "lc535": 1438,
      "lc988": 1439,
      "lc983": 1440,
      "lc330": 1441,
      "lc701": 1442,
      "lc529": 1443,
      "lc422": 1444,
      "lc311": 1445,
      "lc604": 1446,
      "lc138": 1447,
      "lc407": 1448,
      "lc303": 1449,
      "cl": 1450,
      "lc211": 1451,
      "lc127": 1452,
      "lc394": 1453,
      "lc118": 1454,
      "lc572": 1455,
      "lc856": 1456,
      "lc308": 1457,
      "lc966": 1458,
      "lc960": 1459,
      "lc264": 1460,
      "lc203": 1461,
      "lc512": 1462,
      "lc253": 1463,
      "lc851": 1464,
      "lc411": 1465,
      "lc391": 1466,
      "lc972": 1467,
      "lc848": 1468,
      "lc811": 1469,
      "nder": 1470,
      "_Under": 1471,
      "lc548": 1472,
      "lc648": 1473,
      "lc718": 1474,
      "lc952": 1475,
      "lc835": 1476,
      "lc092": 1477,
      "lc395": 1478,
      "lc362": 1479,
      "lc757": 1480,
      "lc888": 1481,
      "0x1af": 1482,
      "lc420": 1483,
      "lc365": 1484,
      "lc804": 1485,
      "lc181": 1486,
      "lc561": 1487,
      "lc060": 1488,
      "lc403": 1489,
      "lc951": 1490,
      "lc152": 1491,
      "lc201": 1492,
      "lc019": 1493,
      "ased": 1494,
      "lc653": 1495,
      "_Based": 1496,
      "_Based_Buffer_Overflow__": 1497,
      "lc007": 1498,
      "lc107": 1499,
      "lc018": 1500,
      "lc328": 1501,
      "lc834": 1502,
      "lc639": 1503,
      "lc192": 1504,
      "lc251": 1505,
      "lc717": 1506,
      "lc239": 1507,
      "lc828": 1508,
      "lc004": 1509,
      "lc516": 1510,
      "lc499": 1511,
      "lc842": 1512,
      "lc843": 1513,
      "lc413": 1514,
      "lc323": 1515,
      "lc271": 1516,
      "lc495": 1517,
      "lc709": 1518,
      "lc693": 1519,
      "lc130": 1520,
      "lc446": 1521,
      "lc240": 1522,
      "lc415": 1523,
      "lc291": 1524,
      "lc761": 1525,
      "lc817": 1526,
      "lc706": 1527,
      "lc864": 1528,
      "lc646": 1529,
      "lc820": 1530,
      "lc419": 1531,
      "0xe4": 1532,
      "lc628": 1533,
      "lc183": 1534,
      "lc965": 1535,
      "lc312": 1536,
      "lc661": 1537,
      "lc145": 1538,
      "2f": 1539,
      "lc134": 1540,
      "lc850": 1541,
      "lc368": 1542,
      "lc752": 1543,
      "lc406": 1544,
      "lc444": 1545,
      "lc910": 1546,
      "lc880": 1547,
      "lc605": 1548,
      "lc177": 1549,
      "lc397": 1550,
      "lc235": 1551,
      "lc613": 1552,
      "lc748": 1553,
      "lc513": 1554,
      "lc317": 1555,
      "lc637": 1556,
      "lc040": 1557,
      "lc547": 1558,
      "lc344": 1559,
      "lc861": 1560,
      "lc750": 1561,
      "lc158": 1562,
      "lc245": 1563,
      "lc630": 1564,
      "lc771": 1565,
      "lc472": 1566,
      "lc488": 1567,
      "lc923": 1568,
      "lc629": 1569,
      "0x2f706d742f": 1570,
      "lc967": 1571,
      "lc912": 1572,
      "lc860": 1573,
      "lc202": 1574,
      "lc780": 1575,
      "lc076": 1576,
      "lc353": 1577,
      "lc438": 1578,
      "lc759": 1579,
      "lc650": 1580,
      "lc662": 1581,
      "lc079": 1582,
      "lc150": 1583,
      "lc486": 1584,
      "lc027": 1585,
      "55555555": 1586,
      "lc326": 1587,
      "lc042": 1588,
      "lc540": 1589,
      "lc477": 1590,
      "lc351": 1591,
      "lc144": 1592,
      "lc827": 1593,
      "lc884": 1594,
      "lc086": 1595,
      "lc194": 1596,
      "lc503": 1597,
      "lc044": 1598,
      "lc017": 1599,
      "lc487": 1600,
      "lc987": 1601,
      "lc883": 1602,
      "lc688": 1603,
      "lc684": 1604,
      "lc286": 1605,
      "lc343": 1606,
      "lc749": 1607,
      "lc961": 1608,
      "lc727": 1609,
      "lc640": 1610,
      "lc074": 1611,
      "lc191": 1612,
      "lc993": 1613,
      "lc367": 1614,
      "lc841": 1615,
      "lc001": 1616,
      "lc855": 1617,
      "0x1a0": 1618,
      "lc083": 1619,
      "lc496": 1620,
      "lc714": 1621,
      "lc826": 1622,
      "lc305": 1623,
      "lc738": 1624,
      "_Op": 1625,
      "lc678": 1626,
      "lc944": 1627,
      "lc340": 1628,
      "lc699": 1629,
      "lc195": 1630,
      "lc870": 1631,
      "lc781": 1632,
      "lc283": 1633,
      "lc818": 1634,
      "a0": 1635,
      "0x20736c": 1636,
      "lc037": 1637,
      "lc668": 1638,
      "lc581": 1639,
      "lc268": 1640,
      "lc341": 1641,
      "lc703": 1642,
      "lc405": 1643,
      "lc416": 1644,
      "lc520": 1645,
      "lc449": 1646,
      "lc627": 1647,
      "lc412": 1648,
      "lc215": 1649,
      "lc724": 1650,
      "lc427": 1651,
      "lc956": 1652,
      "lc754": 1653,
      "lc623": 1654,
      "lc295": 1655,
      "lc229": 1656,
      "lc715": 1657,
      "lc731": 1658,
      "lc457": 1659,
      "idiv": 1660,
      "lc510": 1661,
      "__char_": 1662,
      "ct_": 1663,
      "lc624": 1664,
      "lc579": 1665,
      "lc072": 1666,
      "lc600": 1667,
      "lc805": 1668,
      "lc025": 1669,
      "lc980": 1670,
      "lc690": 1671,
      "lc788": 1672,
      "lc345": 1673,
      "lc619": 1674,
      "lc131": 1675,
      "lc551": 1676,
      "lc148": 1677,
      "lc212": 1678,
      "lc460": 1679,
      "lc519": 1680,
      "lc003": 1681,
      "lc122": 1682,
      "lc463": 1683,
      "lc354": 1684,
      "lc033": 1685,
      "lc075": 1686,
      "lc198": 1687,
      "lc167": 1688,
      "lc274": 1689,
      "lc387": 1690,
      "lc206": 1691,
      "lc505": 1692,
      "lc651": 1693,
      "lc453": 1694,
      "lc981": 1695,
      "eap": 1696,
      "_Heap": 1697,
      "lc437": 1698,
      "lc154": 1699,
      "lc056": 1700,
      "0x80000000": 1701,
      "lc476": 1702,
      "lc997": 1703,
      "lc830": 1704,
      "lc041": 1705,
      "lc396": 1706,
      "lc306": 1707,
      "lc469": 1708,
      "lc440": 1709,
      "lc568": 1710,
      "lc979": 1711,
      "lc707": 1712,
      "lc611": 1713,
      "lc874": 1714,
      "lc691": 1715,
      "lc262": 1716,
      "lc712": 1717,
      "xmm2": 1718,
      "lc713": 1719,
      "goodB2G2": 1720,
      "lc743": 1721,
      "lc865": 1722,
      "lc872": 1723,
      "lc030": 1724,
      "lc918": 1725,
      "lc996": 1726,
      "lc575": 1727,
      "lc459": 1728,
      "lc574": 1729,
      "lc521": 1730,
      "lc784": 1731,
      "lc685": 1732,
      "lc097": 1733,
      "lc636": 1734,
      "lc049": 1735,
      "lc583": 1736,
      "socket_": 1737,
      "lc903": 1738,
      "lc763": 1739,
      "lc061": 1740,
      "lc016": 1741,
      "lc660": 1742,
      "lc053": 1743,
      "lc532": 1744,
      "lc824": 1745,
      "lc946": 1746,
      "lc335": 1747,
      "lc104": 1748,
      "lc338": 1749,
      "lc617": 1750,
      "lc480": 1751,
      "lc241": 1752,
      "lc186": 1753,
      "lc161": 1754,
      "lc766": 1755,
      "lc471": 1756,
      "mode": 1757,
      "_Ios": 1758,
      "enmode": 1759,
      "_Openmode": 1760,
      "_Ios_Openmode": 1761,
      "lc320": 1762,
      "lc465": 1763,
      "lc899": 1764,
      "lc658": 1765,
      "0x66": 1766,
      "lc013": 1767,
      "lc801": 1768,
      "lc665": 1769,
      "lc616": 1770,
      "lc227": 1771,
      "lc370": 1772,
      "lc166": 1773,
      "lc673": 1774,
      "0x7b": 1775,
      "lc545": 1776,
      "lc631": 1777,
      "lc491": 1778,
      "lc677": 1779,
      "lc970": 1780,
      "lc948": 1781,
      "lc904": 1782,
      "lc225": 1783,
      "lc304": 1784,
      "7473": 1785,
      "lc408": 1786,
      "lc878": 1787,
      "strcpy": 1788,
      "lc073": 1789,
      "lc984": 1790,
      "lc325": 1791,
      "lc891": 1792,
      "lc555": 1793,
      "lc307": 1794,
      "lc853": 1795,
      "lc210": 1796,
      "error": 1797,
      "lc366": 1798,
      "lc434": 1799,
      "lc580": 1800,
      "fprintf": 1801,
      "lc514": 1802,
      "lc261": 1803,
      "lc838": 1804,
      "0xf5": 1805,
      "lc556": 1806,
      "lc819": 1807,
      "lc976": 1808,
      "lc223": 1809,
      "lc386": 1810,
      "lc770": 1811,
      "strncat": 1812,
      "lc753": 1813,
      "lc746": 1814,
      "lc777": 1815,
      "lc807": 1816,
      "0x17": 1817,
      "lc730": 1818,
      "lc266": 1819,
      "lc052": 1820,
      "lc213": 1821,
      "lc647": 1822,
      "0x49": 1823,
      "lc601": 1824,
      "ion": 1825,
      "lc069": 1826,
      "lc447": 1827,
      "lc111": 1828,
      "lc975": 1829,
      "lc767": 1830,
      "lc043": 1831,
      "lc644": 1832,
      "lc602": 1833,
      "lc474": 1834,
      "lc869": 1835,
      "lc288": 1836,
      "lc350": 1837,
      "lc898": 1838,
      "c0": 1839,
      "lc220": 1840,
      "lc006": 1841,
      "lc275": 1842,
      "lc034": 1843,
      "lc816": 1844,
      "lc845": 1845,
      "lc376": 1846,
      "ri": 1847,
      "lc452": 1848,
      "lc270": 1849,
      "lc885": 1850,
      "lc774": 1851,
      "lc584": 1852,
      "lc247": 1853,
      "new_": 1854,
      "lc105": 1855,
      "lc592": 1856,
      "lc793": 1857,
      "0x7c": 1858,
      "nprintf": 1859,
      "snprintf": 1860,
      "lc117": 1861,
      "lc917": 1862,
      "6578": 1863,
      "646578": 1864,
      "1Global": 1865,
      "ten": 1866,
      "lc710": 1867,
      "lc085": 1868,
      "lc522": 1869,
      "lc080": 1870,
      "lc021": 1871,
      "lc277": 1872,
      "lc779": 1873,
      "0x71": 1874,
      "lc641": 1875,
      "0xffff": 1876,
      "lc934": 1877,
      "0x4f": 1878,
      "lc057": 1879,
      "CWE76": 1880,
      "lc722": 1881,
      "lc620": 1882,
      "lc289": 1883,
      "0x111": 1884,
      "lc814": 1885,
      "lc301": 1886,
      "lc324": 1887,
      "lc497": 1888,
      "_F": 1889,
      "lc716": 1890,
      "is": 1891,
      "_Mis": 1892,
      "190": 1893,
      "CWE190": 1894,
      "CWE190_Integer": 1895,
      "0xed": 1896,
      "lc332": 1897,
      "746": 1898,
      "lc945": 1899,
      "0x180": 1900,
      "0x84": 1901,
      "staticFalse": 1902,
      "globalFalse": 1903,
      "GLOBAL_CONST_FALSE": 1904,
      "65746": 1905,
      "7365746": 1906,
      "0x747365746": 1907,
      "0x727473": 1908,
      "6465786966": 1909,
      "0x74736574676e69": 1910,
      "0x7274736465786966": 1911,
      "2_Mis": 1912,
      "age": 1913,
      "s__": 1914,
      "y_M": 1915,
      "ed_Memor": 1916,
      "ched_Memor": 1917,
      "_Rout": 1918,
      "ines__": 1919,
      "ment_Rout": 1920,
      "anage": 1921,
      "matched_Memor": 1922,
      "CWE762_Mis": 1923,
      "y_Manage": 1924,
      "ment_Routines__": 1925,
      "matched_Memory_Manage": 1926,
      "CWE762_Mismatched_Memory_Manage": 1927,
      "CWE762_Mismatched_Memory_Management_Routines__": 1928,
      "0x4141": 1929,
      "0x414141414": 1930,
      "1414141": 1931,
      "0x4141414141414141": 1932,
      "0x7e": 1933,
      "0xd0": 1934,
      "lc808": 1935,
      "lc622": 1936,
      "0x94": 1937,
      "0x75": 1938,
      "lc005": 1939,
      "0x107": 1940,
      "lc026": 1941,
      "0x18f": 1942,
      "0x83": 1943,
      "0xfff": 1944,
      "6568": 1945,
      "6c6568": 1946,
      "0x6c6c6568": 1947,
      "0x69": 1948,
      "ink": 1949,
      "hoo": 1950,
      "hook": 1951,
      "0x23": 1952,
      "a8": 1953,
      "r9": 1954,
      "xmm3": 1955,
      "0x14b": 1956,
      "xmm4": 1957,
      "xmm5": 1958,
      "xmm6": 1959,
      "xmm7": 1960,
      "_hook": 1961,
      "_M_hook": 1962,
      "STATIC_CONST_FIVE": 1963,
      "STATIC_CONST_FALSE": 1964,
      "0x6e": 1965,
      "0x7fffffff": 1966,
      "0xaaaaaaaaa": 1967,
      "aaaaaa": 1968,
      "0xaaaaaaaaaaaaaaa": 1969,
      "a4": 1970,
      "1Static": 1971,
      "0x6c6966": 1972,
      "2f706d742f": 1973,
      "0x6c69662f706d742f": 1974,
      "0xfe": 1975,
      "c4": 1976,
      "0x1d0": 1977,
      "0x173": 1978,
      "b0": 1979,
      "e8": 1980,
      "rite": 1981,
      "_badData": 1982,
      "0x130": 1983,
      "e2": 1984,
      "link": 1985,
      "b4": 1986,
      "om": 1987,
      "0x4018": 1988,
      "b8": 1989,
      "__throw_": 1990,
      "0x181": 1991,
      "e4": 1992,
      "arra": 1993,
      "tenv": 1994,
      "write": 1995,
      "0x92": 1996,
      "0x354": 1997,
      "0x65": 1998,
      "_re": 1999,
      "boo": 2000,
      "th_": 2001,
      "leng": 2002,
      "0x298": 2003,
      "0x265": 2004,
      "decrement": 2005,
      "setl": 2006,
      "balan": 2007,
      "_Rb_tree_decrement": 2008,
      "and_re": 2009,
      "0x3d3": 2010,
      "0x3fa": 2011,
      "0x2b6": 2012,
      "_Rb_tree_increment": 2013,
      "_Rb_tree_insert_": 2014,
      "__throw_leng": 2015,
      "bool": 2016,
      "th_error": 2017,
      "balance": 2018,
      "and_rebalance": 2019,
      "_Rb_tree_insert_and_rebalance": 2020,
      "__throw_length_error": 2021,
      "0xa3": 2022,
      "0xbd": 2023,
      "edList": 2024,
      "0x78742e65": 2025,
      "linkedList": 2026,
      "78742e65": 2027,
      "0x7478742e65": 2028,
      "6c6966": 2029,
      "0x7478742e656c6966": 2030,
      "array_": 2031,
      "c8": 2032,
      "CWE190_Integer_Overflow__": 2033,
      "0x2a2": 2034,
      "e2a": 2035,
      "0x2a2e2a": 2036,
      "0x55": 2037,
      "0x86": 2038,
      "0x82": 2039,
      "0x340": 2040,
      "2pd": 2041,
      "ps2pd": 2042,
      "cvtps2pd": 2043,
      "_goodB2GData": 2044,
      "Si": 2045,
      "1_Integer": 2046,
      "CWE191_Integer": 2047,
      "CWE191_Integer_Under": 2048,
      "0xda": 2049,
      "0x4017": 2050,
      "int64": 2051,
      "int64_t": 2052,
      "0x228": 2053,
      "2_Heap": 2054,
      "CWE122_Heap": 2055,
      "CWE122_Heap_Based_Buffer_Overflow__": 2056,
      "_Un": 2057,
      "_D": 2058,
      "d8": 2059,
      "555555": 2060,
      "0xdc": 2061,
      "0x8a": 2062,
      "0xdf": 2063,
      "_p": 2064,
      "0x87": 2065,
      "0xe1": 2066,
      "0x91": 2067,
      "_St": 2068,
      "0x7fff": 2069,
      "0x1010": 2070,
      "0x77": 2071,
      ">,": 2072,
      "omi": 2073,
      "f4": 2074,
      "_char_": 2075,
      "0x40112": 2076,
      "d4": 2077,
      "0x96": 2078,
      "0x10d": 2079,
      "0x95": 2080,
      "CWE191_Integer_Underflow__": 2081,
      "0x9a": 2082,
      "0x676e69": 2083,
      "0x676e6972": 2084,
      "0x99": 2085,
      "0x1228": 2086,
      "f8": 2087,
      "d2": 2088,
      "0xb1": 2089,
      "as": 2090,
      "0x8f": 2091,
      "_E": 2092,
      "0x9b": 2093,
      "0xac": 2094,
      "0x7fffffffffffffff": 2095,
      "_68_goodG2BData": 2096,
      "0x40108": 2097,
      "cs": 2098,
      "d0": 2099,
      "0x122": 2100,
      "si2": 2101,
      "cvtsi2": 2102,
      "0x338": 2103,
      "0x4c2": 2104,
      "0x400ff": 2105,
      "0x114": 2106,
      "0x15": 2107,
      "getenv": 2108,
      "tsd2": 2109,
      "0xae": 2110,
      "cvttsd2": 2111,
      "cvttsd2si": 2112,
      "int64_t_": 2113,
      "fwrite": 2114,
      "fe": 2115,
      "0x11f": 2116,
      "ecl": 2117,
      "execl": 2118,
      "0xde": 2119,
      "0xdb": 2120,
      "0x93": 2121,
      "0xc7": 2122,
      "_22_goodG2B": 2123,
      "__new_": 2124,
      "0x112": 2125,
      "0xad": 2126,
      "connect_": 2127,
      "0x32f": 2128,
      "0x257": 2129,
      "0x8b": 2130,
      "0x9f": 2131,
      "0xd5": 2132,
      "dx": 2133,
      "0x1218": 2134,
      "0x1fffffffffffffff": 2135,
      "0x473": 2136,
      "0x495": 2137,
      "0x555555555": 2138,
      "0x555555555555555": 2139,
      "0x676e697274": 2140,
      "CWE762_Mismatched_Memory_Management_Routines__delete_": 2141,
      "0xfffe": 2142,
      "_Si": 2143,
      "goodB2G1Static": 2144,
      "listen_": 2145,
      "0x40110": 2146,
      "0xa6": 2147,
      "movapd": 2148,
      "divsd": 2149,
      "66666666": 2150,
      "connect_socket_": 2151,
      "0x800000000": 2152,
      "0x8000000000000000": 2153,
      "0xb4": 2154,
      "goodB2G2Global": 2155,
      "goodB2G2Static": 2156,
      "_P": 2157,
      "ck": 2158,
      "0xeb": 2159,
      "_21": 2160,
      "0xea": 2161,
      "0x400a": 2162,
      "listen_socket_": 2163,
      "0x8000": 2164,
      "r8d": 2165,
      "0x4019": 2166,
      "ep": 2167,
      "sle": 2168,
      "sleep": 2169,
      "vfprintf": 2170,
      "vprintf": 2171,
      "0xec": 2172,
      "0x19f": 2173,
      "0x10a": 2174,
      "0x9d": 2175,
      "of": 2176,
      "0xcd": 2177,
      "cvtsi2sd": 2178,
      "0xa1": 2179,
      "0x40113": 2180,
      "em": 2181,
      "0x1000": 2182,
      "_45_goodG2BData": 2183,
      "0x6020": 2184,
      "0xee": 2185,
      "0xe2": 2186,
      "pck": 2187,
      "unpck": 2188,
      "unpckl": 2189,
      "415": 2190,
      "0x40100": 2191,
      "0x40115": 2192,
      "0xa2": 2193,
      "0xd4": 2194,
      "ffffffe": 2195,
      "0x40114": 2196,
      "001": 2197,
      "0x97": 2198,
      "0xfa": 2199,
      "CWE3": 2200,
      "f0": 2201,
      "le_": 2202,
      "_Pat": 2203,
      "are": 2204,
      "comi": 2205,
      "ucomi": 2206,
      "ti": 2207,
      "usleep": 2208,
      "strcat": 2209,
      "goodG2B2": 2210,
      "0x350": 2211,
      "ion__": 2212,
      "0xa9": 2213,
      "0xa4": 2214,
      "CWE40": 2215,
      "_Path_": 2216,
      "0x4009": 2217,
      "lle": 2218,
      "tro": 2219,
      "_Co": 2220,
      "contro": 2221,
      "_Uncontro": 2222,
      "lled": 2223,
      "_Uncontrolled": 2224,
      "stru": 2225,
      "1_Memor": 2226,
      "Lea": 2227,
      "y_Lea": 2228,
      "CWE401_Memor": 2229,
      "y_Leak": 2230,
      "CWE401_Memory_Leak": 2231,
      "badStatic": 2232,
      "0xfffffffffffffffe": 2233,
      "0x11d": 2234,
      "pl": 2235,
      "goodG2BData": 2236,
      "0x108": 2237,
      "free_": 2238,
      "5320": 2239,
      "0x210": 2240,
      "_goodB2G1Global": 2241,
      "_goodB2G2Global": 2242,
      ">&": 2243,
      "0x1030": 2244,
      "Nex": 2245,
      "Pre": 2246,
      "linkedListNex": 2247,
      "linkedListPre": 2248,
      "linkedListNext": 2249,
      "linkedListPrev": 2250,
      "0xe5": 2251,
      "0x10c": 2252,
      "0x10e": 2253,
      "Tra": 2254,
      "rsal": 2255,
      "versal": 2256,
      "_Path_Tra": 2257,
      "versal__char_": 2258,
      "_Path_Traversal__char_": 2259,
      "0x218": 2260,
      "0xb2": 2261,
      "0x413": 2262,
      "CWE5": 2263,
      "6e0": 2264,
      "0x4006e0": 2265,
      "0x1040": 2266,
      "cpp": 2267,
      "CWE122_Heap_Based_Buffer_Overflow__cpp": 2268,
      "0x676e6972745320": 2269,
      "0x676e697274532041": 2270,
      "0xa7": 2271,
      "0x401a": 2272,
      "0xb6": 2273,
      "0xfc": 2274,
      "inc_": 2275,
      "Stru": 2276,
      "0x140": 2277,
      "read": 2278,
      "1_St": 2279,
      "k_Based_Buffer_Overflow__": 2280,
      "shor": 2281,
      "ack_Based_Buffer_Overflow__": 2282,
      "CWE121_St": 2283,
      "short_": 2284,
      "CWE121_Stack_Based_Buffer_Overflow__": 2285,
      "_A": 2286,
      "_Sign": 2287,
      "rand_": 2288,
      "fscanf_": 2289,
      "_Buffer_Under": 2290,
      "805": 2291,
      "_to": 2292,
      "No": 2293,
      "Not_": 2294,
      "_Free_": 2295,
      "0x1028": 2296,
      "0xc1": 2297,
      "0xd6": 2298,
      "0xf1": 2299,
      "to": 2300,
      "except": 2301,
      "exception": 2302,
      "0x7e0": 2303,
      "CWE762_Mismatched_Memory_Management_Routines__new_": 2304,
      "basic_ostream": 2305,
      "<<": 2306,
      "goodG2BStatic": 2307,
      "strto": 2308,
      "ostream": 2309,
      "0xaf": 2310,
      "0x113": 2311,
      "sy": 2312,
      "stem": 2313,
      "popen": 2314,
      "system": 2315,
      "multi": 2316,
      "_68_badData": 2317,
      "ply_": 2318,
      "multiply_": 2319,
      "_CWE": 2320,
      "CWE122_Heap_Based_Buffer_Overflow__cpp_CWE": 2321,
      "struct_": 2322,
      "_un": 2323,
      "0000001": 2324,
      "_Re": 2325,
      "0x1bd": 2326,
      "0x1aa": 2327,
      "_po": 2328,
      "_pre": 2329,
      "0xbf": 2330,
      "0xd7": 2331,
      "0xd1": 2332,
      "0x19b": 2333,
      "0x402a": 2334,
      "dl": 2335,
      "_Ex": 2336,
      "ucomisd": 2337,
      "goodG2B1Static": 2338,
      "strtoul": 2339,
      "goodG2B2Static": 2340,
      "Memor": 2341,
      "90_Free_": 2342,
      "on_Heap": 2343,
      "y_Not_": 2344,
      "CWE590_Free_": 2345,
      "Memory_Not_": 2346,
      "on_Heap__": 2347,
      "CWE590_Free_Memory_Not_": 2348,
      "CWE590_Free_Memory_Not_on_Heap__": 2349,
      "0xf8": 2350,
      "0x123": 2351,
      "0xb9": 2352,
      "0xcf": 2353,
      "0x40118": 2354,
      "_int_": 2355,
      "0x1050": 2356,
      "0xdd": 2357,
      "0x11e": 2358,
      "5858": 2359,
      "0xd9": 2360,
      "CWE13": 2361,
      "CWE190_Integer_Overflow__int_": 2362,
      "0xca": 2363,
      "0xce": 2364,
      "fail": 2365,
      "__as": 2366,
      "sert_fail": 2367,
      "__assert_fail": 2368,
      "0x131": 2369,
      "ass": 2370,
      "0x401068": 2371,
      "0xba": 2372,
      "ide_": 2373,
      "pclose": 2374,
      "ation": 2375,
      "0xf6": 2376,
      "0x11c": 2377,
      "_N": 2378,
      "0xab": 2379,
      "_badGlobal": 2380,
      "0x1b0": 2381,
      "cw": 2382,
      "cwde": 2383,
      "unpcklps": 2384,
      "0x400f78": 2385,
      "0x401114": 2386,
      "0x104": 2387,
      "loc": 2388,
      "0x18d": 2389,
      "0x1a8": 2390,
      "0x400d": 2391,
      "ero": 2392,
      "ndit": 2393,
      "_Condit": 2394,
      "loop": 2395,
      "rror": 2396,
      "_Error": 2397,
      "_Error__": 2398,
      "0xc3": 2399,
      "0x401124": 2400,
      "0x121": 2401,
      "execlp": 2402,
      "0xfd": 2403,
      "0xd2": 2404,
      "0x6031": 2405,
      "9_": 2406,
      "ring": 2407,
      "0xe6": 2408,
      "0x4029": 2409,
      "fd": 2410,
      "ab": 2411,
      "class": 2412,
      "0x32c": 2413,
      "ative": 2414,
      "0x401034": 2415,
      "Good": 2416,
      "0xcb": 2417,
      "0x103": 2418,
      "0x1240": 2419,
      "0x400f88": 2420,
      "0x400fd8": 2421,
      "0xc9": 2422,
      "0xbc": 2423,
      "CWE122_Heap_Based_Buffer_Overflow__c_": 2424,
      "CWE762_Mismatched_Memory_Management_Routines__delete_array_": 2425,
      "CWE590_Free_Memory_Not_on_Heap__delete_": 2426,
      "sq": 2427,
      "0x401104": 2428,
      "0x1b7": 2429,
      "0x666666666": 2430,
      "666666": 2431,
      "0x666666666666666": 2432,
      "4_Uncontrolled": 2433,
      "max": 2434,
      "ormat": 2435,
      "22f": 2436,
      "CWE78": 2437,
      "_Format": 2438,
      "_String": 2439,
      "CWE134_Uncontrolled": 2440,
      "_Format_String": 2441,
      "CWE134_Uncontrolled_Format_String": 2442,
      "CWE134_Uncontrolled_Format_String__char_": 2443,
      "622f": 2444,
      "0x6e69": 2445,
      "0x6e69622f": 2446,
      "0x198": 2447,
      "0xc6": 2448,
      "0x401058": 2449,
      "0xe3": 2450,
      "_Overflow": 2451,
      "0x11b": 2452,
      "0x151": 2453,
      "0x150": 2454,
      "0x401078": 2455,
      "0x401088": 2456,
      "0xb7": 2457,
      "ace": 2458,
      "0x1be": 2459,
      "0x401098": 2460,
      "decl": 2461,
      "declare": 2462,
      "__un": 2463,
      "signed_int_": 2464,
      "CWE191_Integer_Underflow__int_": 2465,
      "__unsigned_int_": 2466,
      "_45_badData": 2467,
      "54415": 2468,
      "4854415": 2469,
      "0x3d4854415": 2470,
      "0x3d48544150": 2471,
      "0x1048": 2472,
      "0xf2": 2473,
      "goodB2GData": 2474,
      "in_": 2475,
      "68_goodG2BData": 2476,
      "0x183": 2477,
      "0xe9": 2478,
      "0x400fe8": 2479,
      "CWE4": 2480,
      "Zero": 2481,
      "by_": 2482,
      "69_D": 2483,
      "ivide_": 2484,
      "CWE369_D": 2485,
      "Zero__": 2486,
      "by_Zero__": 2487,
      "ivide_by_Zero__": 2488,
      "CWE369_Divide_by_Zero__": 2489,
      "0x17f": 2490,
      "atof": 2491,
      "0x40107": 2492,
      "0x4010b4": 2493,
      "4a": 2494,
      "0x40148": 2495,
      "503": 2496,
      "0x400ed": 2497,
      "0x124": 2498,
      "0x18c": 2499,
      "0xbb": 2500,
      "0x400f68": 2501,
      "_Condition__": 2502,
      "putenv": 2503,
      "ment_": 2504,
      "_22_goodB2G1Global": 2505,
      "andle": 2506,
      "_Handle": 2507,
      "0x182": 2508,
      "_alloca_": 2509,
      "0x134": 2510,
      "0x3ffffffe": 2511,
      "_22_goodB2G2Global": 2512,
      "0xc0000001": 2513,
      "0xb503": 2514,
      "andps": 2515,
      "0xffff4a": 2516,
      "0xffff4afd": 2517,
      "0x400fc8": 2518,
      "22_goodG2B": 2519,
      "0x270": 2520,
      "goodG2B1Global": 2521,
      "0xe7": 2522,
      "0x6020c0": 2523,
      "0x400f98": 2524,
      "0x402d": 2525,
      "0x4010a4": 2526,
      "__new_char_": 2527,
      "oub": 2528,
      "ouble": 2529,
      "_45_goodB2GData": 2530,
      "0x400fc4": 2531,
      "45_goodG2BData": 2532,
      "0x400ff8": 2533,
      "2Global": 2534,
      "0xf4": 2535,
      "0x4010b8": 2536,
      "6e": 2537,
      "0x105": 2538,
      "fi": 2539,
      "0x106": 2540,
      "CWE805": 2541,
      "0x348": 2542,
      "0x1038": 2543,
      "0x40140": 2544,
      "CWE415": 2545,
      "_Free": 2546,
      "_Double": 2547,
      "CWE415_Double": 2548,
      "CWE415_Double_Free": 2549,
      "r_R": 2550,
      "0x184": 2551,
      "0x401b": 2552,
      "Struct": 2553,
      "0x400fb8": 2554,
      "0x603100": 2555,
      "read__": 2556,
      "0x4010a8": 2557,
      "0x1a9": 2558,
      "0x12e": 2559,
      "In": 2560,
      "0x401134": 2561,
      "0x1c1": 2562,
      "badData": 2563,
      "0x4c0": 2564,
      "ere": 2565,
      "0x16b": 2566,
      "0x400fb4": 2567,
      "At": 2568,
      "gAt": 2569,
      "al_Handle": 2570,
      "64_Sign": 2571,
      "SigAt": 2572,
      "omic": 2573,
      "CWE364_Sign": 2574,
      "ace_Condition__": 2575,
      "r_Race_Condition__": 2576,
      "StructSigAt": 2577,
      "al_Handler_Race_Condition__": 2578,
      "CWE364_Signal_Handler_Race_Condition__": 2579,
      "StructSigAtomic": 2580,
      "CWE364_Signal_Handler_Race_Condition__basic_": 2581,
      "0x1c0": 2582,
      "0xf9": 2583,
      "0x4010e4": 2584,
      "rce": 2585,
      "esou": 2586,
      "esource": 2587,
      "_22_badGlobal": 2588,
      ">(": 2589,
      "0x13f": 2590,
      ">&,": 2591,
      "0x1b8": 2592,
      "0x1090": 2593,
      "0x401048": 2594,
      "0x401074": 2595,
      "0x1a4": 2596,
      "0x401038": 2597,
      "lu": 2598,
      "lative": 2599,
      "olu": 2600,
      "0x1008": 2601,
      "te_Path_Traversal__char_": 2602,
      "rang": 2603,
      "23_Re": 2604,
      "36_A": 2605,
      "bsolu": 2606,
      "CWE23_Re": 2607,
      "CWE36_A": 2608,
      "lative_Path_Traversal__char_": 2609,
      "range": 2610,
      "bsolute_Path_Traversal__char_": 2611,
      "CWE23_Relative_Path_Traversal__char_": 2612,
      "CWE36_Absolute_Path_Traversal__char_": 2613,
      "0x400eb": 2614,
      "0x169": 2615,
      "_Resource": 2616,
      "0x255": 2617,
      "wo": 2618,
      "t_of": 2619,
      "0x471": 2620,
      "0x493": 2621,
      "0x3fffffffffffffff": 2622,
      "0x40119": 2623,
      "0x117": 2624,
      "0x3531": 2625,
      "up": 2626,
      "rdup": 2627,
      "strdup": 2628,
      "0x1bf": 2629,
      "0x401004": 2630,
      "0x401008": 2631,
      "0x12d": 2632,
      "0x7d0": 2633,
      "0x270f": 2634,
      "0x193": 2635,
      "0x328": 2636,
      "ec_": 2637,
      "uare": 2638,
      "stinc_": 2639,
      "stdec_": 2640,
      "dec_": 2641,
      "CWE129_": 2642,
      "_68_goodB2GData": 2643,
      "square": 2644,
      "2ps": 2645,
      "cvtpd": 2646,
      "cvtpd2ps": 2647,
      "718": 2648,
      "0x400718": 2649,
      "ion__char_": 2650,
      "0x401c": 2651,
      "0xd3": 2652,
      "0x401064": 2653,
      "_22_goodG2B1Global": 2654,
      "_22_goodG2BGlobal": 2655,
      "_22_goodG2B2Global": 2656,
      "0x4010c4": 2657,
      "pe": 2658,
      "delete_array_": 2659,
      "0x401080": 2660,
      "no_": 2661,
      "0x400f90": 2662,
      "4_Buffer_Under": 2663,
      "7_Buffer_Under": 2664,
      "CWE124_Buffer_Under": 2665,
      "CWE127_Buffer_Under": 2666,
      "CWE124_Buffer_Underwrite": 2667,
      "ir": 2668,
      "so": 2669,
      "vir": 2670,
      "0x163": 2671,
      "onment_": 2672,
      "0x4010f4": 2673,
      "conso": 2674,
      "envir": 2675,
      "environment_": 2676,
      "0x4010d4": 2677,
      "806": 2678,
      "_exception": 2679,
      "a_t": 2680,
      "te_exception": 2681,
      "0x12b": 2682,
      "__cxa_t": 2683,
      "__cxa_alloca": 2684,
      "__cxa_throw": 2685,
      "__cxa_allocate_exception": 2686,
      "0x400fa4": 2687,
      "0xf3": 2688,
      "0x400b": 2689,
      "0x401090": 2690,
      "0x143": 2691,
      "CWE762_Mismatched_Memory_Management_Routines__new_array_": 2692,
      "0x401070": 2693,
      "Lock": 2694,
      "0x1ad": 2695,
      "0x152": 2696,
      "Ints": 2697,
      "woInts": 2698,
      "0xc5": 2699,
      "atic_": 2700,
      "LL": 2701,
      "ULL": 2702,
      "static_": 2703,
      "_Dere": 2704,
      "_NULL": 2705,
      "__cxa_free_": 2706,
      "__cxa_free_exception": 2707,
      "690": 2708,
      "22_goodB2G1Global": 2709,
      "<<(": 2710,
      "wcs": 2711,
      "0x400fd4": 2712,
      "22_goodB2G2Global": 2713,
      "0x1ab": 2714,
      "CWE401_Memory_Leak__new_": 2715,
      "0x1b4": 2716,
      "declare_": 2717,
      "r8b": 2718,
      "rno_": 2719,
      "__er": 2720,
      "0x401154": 2721,
      "location": 2722,
      "rno_location": 2723,
      "__errno_location": 2724,
      "0x400ff4": 2725,
      "0xf7": 2726,
      "0x400fe4": 2727,
      "0xff": 2728,
      "sion": 2729,
      "45_goodB2GData": 2730,
      "_Con": 2731,
      "0x1250": 2732,
      "0x40109": 2733,
      "0x401084": 2734,
      "fgets_": 2735,
      "_postinc_": 2736,
      "_postdec_": 2737,
      "_preinc_": 2738,
      "_predec_": 2739,
      "0x4008": 2740,
      "0x400f58": 2741,
      "0x400fa8": 2742,
      "68_goodB2GData": 2743,
      "sion__": 2744,
      "22_goodG2BGlobal": 2745,
      "xpe": 2746,
      "nexpe": 2747,
      "cted": 2748,
      "0x401128": 2749,
      "nexpected": 2750,
      "0x175": 2751,
      "0x138": 2752,
      "0x11a": 2753,
      "0x401044": 2754,
      "0x10b": 2755,
      "4_U": 2756,
      "5_Si": 2757,
      "rsion": 2758,
      "version": 2759,
      "gned_to": 2760,
      "signed_Con": 2761,
      "CWE194_U": 2762,
      "CWE195_Si": 2763,
      "tension__": 2764,
      "_Unsigned_Con": 2765,
      "unpcklpd": 2766,
      "_Sign_Ex": 2767,
      "CWE415_Double_Free__new_": 2768,
      "nexpected_Sign_Ex": 2769,
      "version_Error__": 2770,
      "gned_to_Unsigned_Con": 2771,
      "CWE194_Unexpected_Sign_Ex": 2772,
      "CWE195_Signed_to_Unsigned_Con": 2773,
      "CWE194_Unexpected_Sign_Extension__": 2774,
      "CWE195_Signed_to_Unsigned_Conversion_Error__": 2775,
      "0x40158": 2776,
      "char_alloca_": 2777,
      "StructSigAtomicGood": 2778,
      "0x401060": 2779,
      "96c": 2780,
      "Struct_": 2781,
      "file_": 2782,
      "console_": 2783,
      "0x185": 2784,
      "0x1cf": 2785,
      "CWE401_Memory_Leak__": 2786,
      "class_": 2787,
      "au": 2788,
      "hau": 2789,
      "0x127": 2790,
      "stion__": 2791,
      "00_Resource": 2792,
      "CWE190_Integer_Overflow": 2793,
      "CWE190_Integer_Overflow__char_": 2794,
      "CWE190_Integer_Overflow__int64_t_": 2795,
      "CWE190_Integer_Overflow__short_": 2796,
      "_Exhau": 2797,
      "max_": 2798,
      "CWE400_Resource": 2799,
      "CWE190_Integer_Overflow__unsigned_int_": 2800,
      "_Exhaustion__": 2801,
      "CWE400_Resource_Exhaustion__": 2802,
      "0x657": 2803,
      "0x16a": 2804,
      "0x696c": 2805,
      "0x146": 2806,
      "7469": 2807,
      "697469": 2808,
      "61697469": 2809,
      "6e49": 2810,
      "0x657a": 2811,
      "0x696c61697469": 2812,
      "0x696c616974696e49": 2813,
      "0x401164": 2814,
      "0x109": 2815,
      "0x5555555": 2816,
      "0x119": 2817,
      "96d": 2818,
      "0x55555556": 2819,
      "0x401144": 2820,
      "0x12a": 2821,
      "0x400f94": 2822,
      "0x400ef8": 2823,
      "_range": 2824,
      "ain_": 2825,
      "dom": 2826,
      "out_of": 2827,
      "ain_error": 2828,
      "domain_error": 2829,
      "out_of_range": 2830,
      "0x4015a0": 2831,
      "0x40150": 2832,
      "0x40155": 2833,
      "0x401138": 2834,
      "537": 2835,
      "0x676e697274537": 2836,
      "0x676e69727453796d": 2837,
      "put": 2838,
      "0x401094": 2839,
      "0x40130": 2840,
      "0x401014": 2841,
      "0x4010c8": 2842,
      "at_": 2843,
      "CWE122_Heap_Based_Buffer_Overflow__cpp_CWE805": 2844,
      "0x401054": 2845,
      "0x13d": 2846,
      "0x401018": 2847,
      "0x401184": 2848,
      "long_": 2849,
      "0x401400000000": 2850,
      "0x4014000000000000": 2851,
      "0x4010a0": 2852,
      "0x17b": 2853,
      "0x4014e0": 2854,
      "for": 2855,
      "0x401108": 2856,
      "0x400c": 2857,
      "0x101": 2858,
      "malloc_char_": 2859,
      "806_char_": 2860,
      "woIntsStruct_": 2861,
      "0x401118": 2862,
      "0x1b5": 2863,
      "0x40106": 2864,
      "0x4ab": 2865,
      "0x4014c0": 2866,
      "CWE6": 2867,
      "636": 2868,
      "0x401024": 2869,
      "0x400f48": 2870,
      "0x400f44": 2871,
      "0x13e": 2872,
      "0x3f0": 2873,
      "0x400f80": 2874,
      "63626": 2875,
      "0x176": 2876,
      "0x33c": 2877,
      "S_Co": 2878,
      "run": 2879,
      "ject": 2880,
      "mmand": 2881,
      "0x1260": 2882,
      "_OS_Co": 2883,
      "_Inject": 2884,
      "CWE78_OS_Co": 2885,
      "mmand_Inject": 2886,
      "CWE78_OS_Command_Inject": 2887,
      "CWE78_OS_Command_Injection__char_": 2888,
      "6_Buffer": 2889,
      "CWE126_Buffer": 2890,
      "CWE126_Buffer_Over": 2891,
      "4b": 2892,
      "0x178": 2893,
      "b7": 2894,
      "0x400f84": 2895,
      "0x230": 2896,
      "0xfb": 2897,
      "0x400f08": 2898,
      "0x133": 2899,
      "ren": 2900,
      "0x1bb": 2901,
      "0x4010d": 2902,
      "0x4010c": 2903,
      "0x4010e8": 2904,
      "0x400f14": 2905,
      "68_badData": 2906,
      "0x401194": 2907,
      "0x4011a": 2908,
      "0x401174": 2909,
      "c2": 2910,
      "used": 2911,
      "able_": 2912,
      "0x148": 2913,
      "0x4016c": 2914,
      "9_Uncontrolled": 2915,
      "lloc": 2916,
      "ncpy": 2917,
      "_Mem": 2918,
      "_Alloc": 2919,
      "CWE789_Uncontrolled": 2920,
      "_Mem_Alloc": 2921,
      "CWE789_Uncontrolled_Mem_Alloc": 2922,
      "839": 2923,
      "CWE839": 2924,
      "CWE191_Integer_Underflow__char_": 2925,
      "CWE191_Integer_Underflow__int64_t_": 2926,
      "CWE191_Integer_Underflow__short_": 2927,
      "CWE369_Divide_by_Zero__int_": 2928,
      "CWE839_": 2929,
      "0x40138": 2930,
      "0x12c": 2931,
      "ter": 2932,
      "Buffer": 2933,
      "data": 2934,
      "goodB2G1Global": 2935,
      "dataBuffer": 2936,
      "0x153": 2937,
      "0x40134": 2938,
      "7_N": 2939,
      "Trun": 2940,
      "cation": 2941,
      "ume": 2942,
      "c_Trun": 2943,
      "0x400f34": 2944,
      "CWE197_N": 2945,
      "ric_Trun": 2946,
      "cation_Error__": 2947,
      "umeric_Trun": 2948,
      "CWE197_Numeric_Trun": 2949,
      "CWE197_Numeric_Truncation_Error__": 2950,
      "0x401010": 2951,
      "0x1bc": 2952,
      "0x401480": 2953,
      "330": 2954,
      "ild": 2955,
      "0x15e": 2956,
      "0x400fb0": 2957,
      "0x401148": 2958,
      "goodLock": 2959,
      "0xffffff": 2960,
      "8000": 2961,
      "jge": 2962,
      "0x401470": 2963,
      "float_": 2964,
      "0x401580": 2965,
      "0xffff8000": 2966,
      "CWE369_Divide_by_Zero__float_": 2967,
      "CWE805_": 2968,
      "0x401460": 2969,
      "0x4011a4": 2970,
      "0x125": 2971,
      "0x40166": 2972,
      "0x401540": 2973,
      "0x401000": 2974,
      "0x400f24": 2975,
      "bStatic": 2976,
      "0x164": 2977,
      "goodG2bStatic": 2978,
      "0x4012e0": 2979,
      "0x400fa0": 2980,
      "oin": 2981,
      "0x40165": 2982,
      "CWE127_Buffer_Underread__": 2983,
      "CWE124_Buffer_Underwrite__": 2984,
      "ointer": 2985,
      "0x4010f8": 2986,
      "0x4010f": 2987,
      "ld": 2988,
      "sign": 2989,
      "signal": 2990,
      "TBYTE": 2991,
      "cq": 2992,
      "fst": 2993,
      "fucomi": 2994,
      "fild": 2995,
      "fld": 2996,
      "ffe": 2997,
      "0x3ffffffff": 2998,
      "0x3ffe": 2999,
      "0x7ffffffe": 3000,
      "0xc00000000": 3001,
      "0xc001": 3002,
      "0002": 3003,
      "0xfffffff5": 3004,
      "0xffff0002": 3005,
      "0xffffff4b": 3006,
      "cqo": 3007,
      "fstp": 3008,
      "fucomip": 3009,
      "0x3ffffffffffffffe": 3010,
      "0xc000000000000001": 3011,
      "0x4010b0": 3012,
      "used_": 3013,
      "0x171": 3014,
      "()::": 3015,
      "badGlobal": 3016,
      "0x402c": 3017,
      "0x4010b": 3018,
      "0x400ff0": 3019,
      "0x4010d8": 3020,
      "0x401320": 3021,
      "0x401178": 3022,
      "0x192": 3023,
      "0x401468": 3024,
      "0x401140": 3025,
      "0x1b3": 3026,
      "0x400ee8": 3027,
      "0x401400": 3028,
      "0x7f0": 3029,
      "0x191": 3030,
      "45_badData": 3031,
      "malloc_": 3032,
      "goodG2B2Global": 3033,
      "0x40154": 3034,
      "0x179": 3035,
      "0x400f70": 3036,
      "6f": 3037,
      "f_F": 3038,
      "m_Re": 3039,
      "rn": 3040,
      "ss": 3041,
      "tu": 3042,
      "0x616": 3043,
      "20736c": 3044,
      "444": 3045,
      "CWE690": 3046,
      "rom_Re": 3047,
      "cvtsi2ss": 3048,
      "_Deref_F": 3049,
      "_NULL_Deref_F": 3050,
      "turn": 3051,
      "CWE690_NULL_Deref_F": 3052,
      "rom_Return": 3053,
      "CWE690_NULL_Deref_From_Return": 3054,
      "0x188": 3055,
      "0x1ca": 3056,
      "0x4013a0": 3057,
      "0x400fe0": 3058,
      "0x4014a0": 3059,
      "0xfffffffb": 3060,
      "0x1238": 3061,
      "0x401420": 3062,
      "0x4013e0": 3063,
      "0x1060": 3064,
      "0x401028": 3065,
      "0x13a": 3066,
      "0x40107b": 3067,
      "xch": 3068,
      "xchg": 3069,
      "0x18e": 3070,
      "0x4013e8": 3071,
      "6463626": 3072,
      "min": 3073,
      "0x126": 3074,
      "0x400fd0": 3075,
      "0x40149": 3076,
      "b6": 3077,
      "0x401488": 3078,
      "0x161": 3079,
      "0x139": 3080,
      "0x4020": 3081,
      "0x1b2": 3082,
      "0x129": 3083,
      "0x400f74": 3084,
      "0x4e20": 3085,
      "0x400f64": 3086,
      "0x4014f0": 3087,
      "3_char_": 3088,
      "22_badGlobal": 3089,
      "0x13c": 3090,
      "0x400f54": 3091,
      "0x159": 3092,
      "0x1c9": 3093,
      "0x401490": 3094,
      "putc": 3095,
      "0x194": 3096,
      "f3": 3097,
      "80_Integer": 3098,
      "0x401440": 3099,
      "0x402e": 3100,
      "_to_Buffer_Overflow__": 3101,
      "_Overflow_to_Buffer_Overflow__": 3102,
      "CWE680_Integer": 3103,
      "CWE680_Integer_Overflow_to_Buffer_Overflow__": 3104,
      "0x400fc0": 3105,
      "0x4015b0": 3106,
      "0x401158": 3107,
      "wcscpy": 3108,
      "0x4016d": 3109,
      "ofstream": 3110,
      "e3": 3111,
      "0x401340": 3112,
      "_twoIntsStruct_": 3113,
      "0x4015c0": 3114,
      "0x401590": 3115,
      "0x40160": 3116,
      "0x401478": 3117,
      "0x401560": 3118,
      "0x401588": 3119,
      "0x195": 3120,
      "0x136": 3121,
      "0x116": 3122,
      "0x400f38": 3123,
      "min_": 3124,
      "flow__unsigned_int_": 3125,
      "0x401510": 3126,
      "CWE191_Integer_Underflow__unsigned_int_": 3127,
      "rand_multiply_": 3128,
      "fscanf_multiply_": 3129,
      "CWE126_Buffer_Overread__": 3130,
      "0x162": 3131,
      "0x401050": 3132,
      "0x401498": 3133,
      "0x401430": 3134,
      "0x4013d0": 3135,
      "0x401500": 3136,
      "0x4030": 3137,
      "0x149": 3138,
      "0x19a": 3139,
      "0x401188": 3140,
      "0x404": 3141,
      "0x40111": 3142,
      "0x401300": 3143,
      "b3": 3144,
      "0x142": 3145,
      "0x4015e0": 3146,
      "ari": 3147,
      "0x165": 3148,
      "0x400f8": 3149,
      "333": 3150,
      "0x1a7": 3151,
      "ee": 3152,
      "0x40173": 3153,
      "mk": 3154,
      "0x585858": 3155,
      "0x401360": 3156,
      "0x4011b4": 3157,
      "0x40164": 3158,
      "0x400f28": 3159,
      "0x14e": 3160,
      "0x13b": 3161,
      "0x1ac": 3162,
      "129_": 3163,
      "0x4011a8": 3164,
      "CWE762_Mismatched_Memory_Management_Routines__new_delete_array_": 3165,
      "CWE122_Heap_Based_Buffer_Overflow__cpp_CWE129_": 3166,
      "CWE762_Mismatched_Memory_Management_Routines__new_array_delete_": 3167,
      "0x1dd": 3168,
      "0x401040": 3169,
      "0x1b6": 3170,
      "0x4014b0": 3171,
      "0x4013c0": 3172,
      "0x401578": 3173,
      "CWE690_NULL_Deref_From_Return__": 3174,
      "(*)": 3175,
      "0x401f": 3176,
      "0x400f18": 3177,
      "&))": 3178,
      "(*)(": 3179,
      "0x172": 3180,
      "0x401520": 3181,
      "120": 3182,
      "0x115": 3183,
      "0x1c5": 3184,
      "0x401530": 3185,
      "0x141": 3186,
      "0x4028": 3187,
      "0x401168": 3188,
      "0x402b": 3189,
      "ariable_": 3190,
      "0x401d": 3191,
      "0x160": 3192,
      "emp": 3193,
      "stemp": 3194,
      "0x16d": 3195,
      "0x4015d0": 3196,
      "mkstemp": 3197,
      "CWE401_Memory_Leak__new_array_": 3198,
      "0x373": 3199,
      "0x34c": 3200,
      "0x4012c0": 3201,
      "0x132": 3202,
      "0x401020": 3203,
      "0x1a5": 3204,
      "0x4014a": 3205,
      "0x4011a0": 3206,
      "able": 3207,
      "0x15f": 3208,
      "0x14c": 3209,
      "130": 3210,
      "665": 3211,
      "0x1ba": 3212,
      "0x4011c4": 3213,
      "635": 3214,
      "CWE806_char_": 3215,
      "0x19e": 3216,
      "CWE415_Double_Free__new_delete_": 3217,
      "CWE415_Double_Free__new_delete_array_": 3218,
      "CWE197_Numeric_Truncation_Error__int_": 3219,
      "0x40168": 3220,
      "feren": 3221,
      "ference": 3222,
      "938": 3223,
      "ame": 3224,
      "13938": 3225,
      "34333": 3226,
      "23130": 3227,
      "0x401214": 3228,
      "0x4013b0": 3229,
      "646362613938": 3230,
      "0x373635": 3231,
      "3433323130": 3232,
      "0x3736353433323130": 3233,
      "0x238": 3234,
      "0x4008c": 3235,
      "d20736c": 3236,
      "7375": 3237,
      "727375": 3238,
      "0x400fd": 3239,
      "0x401264": 3240,
      "0x6e69622f727375": 3241,
      "c2d20736c": 3242,
      "0x616c2d20736c": 3243,
      "0x6e69622f7273752f": 3244,
      "0x616c2d20736c2f": 3245,
      "0x40145": 3246,
      "ct_twoIntsStruct_": 3247,
      "0x15a": 3248,
      "struct_twoIntsStruct_": 3249,
      "0x260": 3250,
      "0x401610": 3251,
      "read__new_char_": 3252,
      "CWE590_Free_Memory_Not_on_Heap__delete_array_": 3253,
      "c3": 3254,
      "0x401224": 3255,
      "0x157": 3256,
      "0x4012f8": 3257,
      "0x400ed8": 3258,
      "0x400f0": 3259,
      "_base": 3260,
      "table": 3261,
      "vtable": 3262,
      "0x137": 3263,
      "0x401208": 3264,
      "0x401198": 3265,
      "CWE121_Stack_Based_Buffer_Overflow__CWE805_": 3266,
      "0x401380": 3267,
      "0x400d60": 3268,
      "0x40141": 3269,
      "0x40105": 3270,
      "c7": 3271,
      "rt": 3272,
      "0x186": 3273,
      "0xfde": 3274,
      "sqrt": 3275,
      "0xfde80": 3276,
      "0x158": 3277,
      "0x17c": 3278,
      "0x400e34": 3279,
      "0x1cd": 3280,
      "0x401280": 3281,
      "0x40169": 3282,
      "0x402f": 3283,
      "0x15b": 3284,
      "negative": 3285,
      "0x14d": 3286,
      "0x40133": 3287,
      "wcslen": 3288,
      "0x1b1": 3289,
      "0x4012a0": 3290,
      "_Pointer": 3291,
      "9c": 3292,
      "0x1de": 3293,
      "0x174": 3294,
      "0x401030": 3295,
      "CWE762_Mismatched_Memory_Management_Routines__new_free_": 3296,
      "CWE762_Mismatched_Memory_Management_Routines__new_array_free_": 3297,
      "CWE789_Uncontrolled_Mem_Alloc__new_char_": 3298,
      "0x401324": 3299,
      "0x40109c": 3300,
      "Bad": 3301,
      "0x187": 3302,
      "0x16c": 3303,
      "0x400ef": 3304,
      "ed_": 3305,
      "send": 3306,
      "0x19d": 3307,
      "0x400ec4": 3308,
      "0x401218": 3309,
      "0x40104": 3310,
      "0x16e": 3311,
      "0x401220": 3312,
      "0x401120": 3313,
      "0x400fa": 3314,
      "0x401650": 3315,
      "0x40146": 3316,
      "0x400f04": 3317,
      "0x3b0": 3318,
      "0x17a": 3319,
      "d3": 3320,
      "sscanf": 3321,
      "0x5858585858": 3322,
      "0x4013f": 3323,
      "0x1c8": 3324,
      "0x401234": 3325,
      "0x170": 3326,
      "0x401160": 3327,
      "0x401670": 3328,
      "di": 3329,
      "0x6665": 3330,
      "0x1e1": 3331,
      "0x401228": 3332,
      "0x6665646362613938": 3333,
      "0x400f3": 3334,
      "0x15d": 3335,
      "0x4011d4": 3336,
      "0x4015f0": 3337,
      "0x4012b8": 3338,
      "0x401274": 3339,
      "0x401390": 3340,
      "0x401190": 3341,
      "0x400ec8": 3342,
      "0x1248": 3343,
      "0x4013f8": 3344,
      "a3": 3345,
      "0x401260": 3346,
      "0x4013d8": 3347,
      "0x47f": 3348,
      "0x401600": 3349,
      "0x603118": 3350,
      "0x147": 3351,
      "76_NULL": 3352,
      "CWE476_NULL": 3353,
      "0x401404": 3354,
      "_Dereference": 3355,
      "_Pointer_Dereference": 3356,
      "CWE476_NULL_Pointer_Dereference": 3357,
      "0x400ef4": 3358,
      "0x400eb8": 3359,
      "_char_alloca_": 3360,
      "lar": 3361,
      "0x401690": 3362,
      "0x1c4": 3363,
      "0x4012a8": 3364,
      "large": 3365,
      "0x400fb": 3366,
      "0x4014a8": 3367,
      "0x401330": 3368,
      "0x1058": 3369,
      "0x401410": 3370,
      "0x15c": 3371,
      "0x400ed4": 3372,
      "0x4011b8": 3373,
      "0x401550": 3374,
      "0x585858585858": 3375,
      "ec": 3376,
      "time": 3377,
      "wprintf": 3378,
      "0x400f5": 3379,
      "0x401660": 3380,
      "0x40101": 3381,
      "0x400c70": 3382,
      "Variable_": 3383,
      "63_Un": 3384,
      "0x400f2": 3385,
      "CWE563_Un": 3386,
      "used_Variable_": 3387,
      "CWE563_Unused_Variable_": 3388,
      "CWE563_Unused_Variable__un": 3389,
      "0x4011b0": 3390,
      "0x401568": 3391,
      "_loop": 3392,
      "du": 3393,
      "modu": 3394,
      "0x360": 3395,
      "0x400f60": 3396,
      "divide_": 3397,
      "CWE121_Stack_Based_Buffer_Overflow__CWE129_": 3398,
      "CWE122_Heap_Based_Buffer_Overflow__c_CWE129_": 3399,
      "CWE805_char_": 3400,
      "CWE127_Buffer_Underread__CWE839_": 3401,
      "CWE124_Buffer_Underwrite__CWE839_": 3402,
      "CWE126_Buffer_Overread__CWE129_": 3403,
      "modulo": 3404,
      "fre": 3405,
      "cd0": 3406,
      "0x400e84": 3407,
      "freopen": 3408,
      "e6": 3409,
      "0x401354": 3410,
      "0x4015a8": 3411,
      "0x401454": 3412,
      "0x40108b": 3413,
      "0x401640": 3414,
      "0x167": 3415,
      "memmove_68_goodG2BData": 3416,
      "0x4012c8": 3417,
      "0x401374": 3418,
      "0x4011d8": 3419,
      "memcpy_68_goodG2BData": 3420,
      "0x19c": 3421,
      "0x401200": 3422,
      "0x166": 3423,
      "0x4010c0": 3424,
      "0x401238": 3425,
      "0x401204": 3426,
      "0x4013c4": 3427,
      "0x4011e4": 3428,
      "0x400ee4": 3429,
      "ncat": 3430,
      "rc_": 3431,
      "src_": 3432,
      "0x4010a": 3433,
      "gGood": 3434,
      "0x168": 3435,
      "0x4011e8": 3436,
      "0x4011f8": 3437,
      "0x1c3": 3438,
      "0x401244": 3439,
      "0x4013c8": 3440,
      "e7": 3441,
      "0x401598": 3442,
      "Wh": 3443,
      "0x1088": 3444,
      "0x40102": 3445,
      "CWE122_Heap_Based_Buffer_Overflow__cpp_CWE806_char_": 3446,
      "0x401504": 3447,
      "CWE122_Heap_Based_Buffer_Overflow__cpp_CWE805_": 3448,
      "CWE122_Heap_Based_Buffer_Overflow__cpp_CWE805_char_": 3449,
      "CWE680_Integer_Overflow_to_Buffer_Overflow__new_": 3450,
      "0x58585858585865": 3451,
      "ef": 3452,
      "0x401450": 3453,
      "0x4014e4": 3454,
      "0x401350": 3455,
      "0x4016b0": 3456,
      "0x401494": 3457,
      "0x4013b4": 3458,
      "0x231": 3459,
      "0x4016c0": 3460,
      "0x40174": 3461,
      "0x1d8": 3462,
      "_error": 3463,
      "0x401570": 3464,
      "0x189": 3465,
      "427": 3466,
      "72b": 3467,
      "0x401304": 3468,
      "CWE476_NULL_Pointer_Dereference__": 3469,
      "0x4011c0": 3470,
      "0x401344": 3471,
      "320": 3472,
      "0x1cb": 3473,
      "0x400f7": 3474,
      "0x14a": 3475,
      "0x4012d8": 3476,
      "0x145": 3477,
      "339": 3478,
      "0x1a6": 3479,
      "0x4014d0": 3480,
      "0x4014f8": 3481,
      "0x4011c8": 3482,
      "d339": 3483,
      "ecd0": 3484,
      "0x18a": 3485,
      "0x7ffffff": 3486,
      "0x6041": 3487,
      "0x7e444": 3488,
      "d33972b": 3489,
      "ecd0d33972b": 3490,
      "0x7ffffffb": 3491,
      "0x604100": 3492,
      "0x7e444ecd0d33972b": 3493,
      "wmemset": 3494,
      "0x1258": 3495,
      "0x4012f4": 3496,
      "0x4013f0": 3497,
      "negative_": 3498,
      "0x135": 3499,
      "0x401444": 3500,
      "0x1c7": 3501,
      "0x4014e8": 3502,
      "0x401240": 3503,
      "0x401248": 3504,
      "0x745": 3505,
      "6946": 3506,
      "6465786946": 3507,
      "3206465786946": 3508,
      "0x7453206465786946": 3509,
      "0x156": 3510,
      "0x4014c4": 3511,
      "0x4012e8": 3512,
      "0x144": 3513,
      "0x40144": 3514,
      "0x16f": 3515,
      "0x401318": 3516,
      "0x400e94": 3517,
      "0x18b": 3518,
      "0x1a3": 3519,
      "0x401424": 3520,
      "0x4011f4": 3521,
      "6_Un": 3522,
      "Lo": 3523,
      "eck": 3524,
      "op_Condit": 3525,
      "check": 3526,
      "0x1f0": 3527,
      "rand_postinc_": 3528,
      "rand_postdec_": 3529,
      "rand_preinc_": 3530,
      "rand_predec_": 3531,
      "__malloc_char_": 3532,
      "606_Un": 3533,
      "CWE606_Un": 3534,
      "0x1d9": 3535,
      "0x401314": 3536,
      "0x401358": 3537,
      "CWE193_char_": 3538,
      "fscanf_postinc_": 3539,
      "fscanf_postdec_": 3540,
      "fscanf_preinc_": 3541,
      "fscanf_predec_": 3542,
      "rand_sub": 3543,
      "rand_add": 3544,
      "rand_square": 3545,
      "fscanf_sub": 3546,
      "fscanf_add": 3547,
      "fscanf_square": 3548,
      "max_postinc_": 3549,
      "max_preinc_": 3550,
      "CWE134_Uncontrolled_Format_String__char_connect_socket_": 3551,
      "CWE134_Uncontrolled_Format_String__char_listen_socket_": 3552,
      "CWE134_Uncontrolled_Format_String__char_environment_": 3553,
      "CWE134_Uncontrolled_Format_String__char_file_": 3554,
      "CWE134_Uncontrolled_Format_String__char_console_": 3555,
      "0x400eb4": 3556,
      "max_add": 3557,
      "max_multiply_": 3558,
      "max_square": 3559,
      "for_loop": 3560,
      "CWE789_Uncontrolled_Mem_Alloc__malloc_char_": 3561,
      "min_postdec_": 3562,
      "min_predec_": 3563,
      "min_sub": 3564,
      "ed_Lo": 3565,
      "op_Condition__char_": 3566,
      "checked_Lo": 3567,
      "CWE606_Unchecked_Lo": 3568,
      "CWE606_Unchecked_Loop_Condition__char_": 3569,
      "0x400db0": 3570,
      "0x40157": 3571,
      "malloc_22": 3572,
      "malloc_21": 3573,
      "realloc_22": 3574,
      "realloc_21": 3575,
      "calloc_22": 3576,
      "calloc_21": 3577,
      "ae": 3578,
      "0x250": 3579,
      "0x401398": 3580,
      "0x40106b": 3581,
      "d6": 3582,
      "0x4014b4": 3583,
      "remove": 3584,
      "0x10030": 3585,
      "0x4012a4": 3586,
      "rename": 3587,
      "0x40139": 3588,
      "memmove_45_goodG2BData": 3589,
      "memcpy_45_goodG2BData": 3590,
      "0x401408": 3591,
      "fread": 3592,
      "fputc": 3593,
      "_IO_putc": 3594,
      "putchar": 3595,
      "For": 3596,
      "Sink": 3597,
      "0x400fc": 3598,
      "0x1da": 3599,
      "0x401370": 3600,
      "0x401310": 3601,
      "0x400ea4": 3602,
      "0x401156": 3603,
      "CWE563_Unused_Variable__unused_": 3604,
      "sprintf": 3605,
      "__malloc_": 3606,
      "193_char_": 3607,
      "0x401394": 3608,
      "CWE122_Heap_Based_Buffer_Overflow__cpp_CWE193_char_": 3609,
      "acement_": 3610,
      "CWE415_Double_Free__malloc_": 3611,
      "CWE127_Buffer_Underread__new_char_": 3612,
      "CWE124_Buffer_Underwrite__new_char_": 3613,
      "0x40172": 3614,
      "0x1d7": 3615,
      "0x155": 3616,
      "free_char_": 3617,
      "0x800": 3618,
      "0x1ae": 3619,
      "0x4011e0": 3620,
      "0x401750": 3621,
      "0x401308": 3622,
      "istream": 3623,
      "dest": 3624,
      "basic_istream": 3625,
      "__char_declare_": 3626,
      "CWE590_Free_Memory_Not_on_Heap__free_": 3627,
      "0x401484": 3628,
      "0x4010d0": 3629,
      "0x4014a4": 3630,
      "0x4014d4": 3631,
      "0x401630": 3632,
      "Se": 3633,
      "arch": 3634,
      "0x4014b8": 3635,
      "0x4012f0": 3636,
      "0x7dc": 3637,
      "0x400892": 3638,
      "Search": 3639,
      "d7": 3640,
      "0x1f1": 3641,
      "0x401414": 3642,
      "0x401250": 3643,
      "0x401338": 3644,
      "0x401388": 3645,
      "0x40103": 3646,
      "0x401474": 3647,
      "0x1dc": 3648,
      "0x4016f0": 3649,
      "0x4009f": 3650,
      "0x401464": 3651,
      "0x401284": 3652,
      "0x4013f4": 3653,
      "0x401680": 3654,
      "0x4014c8": 3655,
      "0x45a": 3656,
      "0x47c": 3657,
      "0x401508": 3658,
      "0x199": 3659,
      "0x400fb7": 3660,
      "0x401180": 3661,
      "fputs": 3662,
      "0x403": 3663,
      "0x401170": 3664,
      "0x400e44": 3665,
      "0x4011a6": 3666,
      "c6": 3667,
      "0x1d4": 3668,
      "0x401364": 3669,
      "0x3e0": 3670,
      "6a": 3671,
      "0x14f": 3672,
      "0x4010ac": 3673,
      "0x401458": 3674,
      "0x40107c": 3675,
      "0x177": 3676,
      "0x401434": 3677,
      "0x401254": 3678,
      "0x401534": 3679,
      "CWE762_Mismatched_Memory_Management_Routines__delete_char_": 3680,
      "CWE762_Mismatched_Memory_Management_Routines__delete_int_": 3681,
      "CWE762_Mismatched_Memory_Management_Routines__delete_int64_t_": 3682,
      "CWE762_Mismatched_Memory_Management_Routines__delete_struct_": 3683,
      "CWE762_Mismatched_Memory_Management_Routines__delete_class_": 3684,
      "CWE762_Mismatched_Memory_Management_Routines__delete_long_": 3685,
      "_68_badDataFor": 3686,
      "loop_68_goodG2BData": 3687,
      "CWE762_Mismatched_Memory_Management_Routines__delete_array_char_": 3688,
      "CWE762_Mismatched_Memory_Management_Routines__delete_array_int_": 3689,
      "CWE762_Mismatched_Memory_Management_Routines__delete_array_int64_t_": 3690,
      "CWE762_Mismatched_Memory_Management_Routines__delete_array_struct_": 3691,
      "CWE762_Mismatched_Memory_Management_Routines__delete_array_class_": 3692,
      "CWE762_Mismatched_Memory_Management_Routines__delete_array_long_": 3693,
      "StructSigAtomicBad": 3694,
      "0x401378": 3695,
      "0x400e3": 3696,
      "0x401334": 3697,
      "zero": 3698,
      "0x4012b0": 3699,
      "0x4015b8": 3700,
      "range_error": 3701,
      "0x40147": 3702,
      "__twoIntsStruct_": 3703,
      "CWE401_Memory_Leak__twoIntsStruct_": 3704,
      "CWE401_Memory_Leak__int_": 3705,
      "CWE401_Memory_Leak__int64_t_": 3706,
      "CWE401_Memory_Leak__struct_twoIntsStruct_": 3707,
      "0x196": 3708,
      "0x1d1": 3709,
      "0x6020a0": 3710,
      "0x4012b4": 3711,
      "dil": 3712,
      "0x40198": 3713,
      "0x4014f4": 3714,
      "0x4010bc": 3715,
      "0x40170": 3716,
      "0x4014d8": 3717,
      "0x401268": 3718,
      "0x401348": 3719,
      "po": 3720,
      "pre": 3721,
      "0x1ce": 3722,
      "0x400f9": 3723,
      "0x401258": 3724,
      "CWE190_Integer_Overflow__int_connect_socket_": 3725,
      "CWE190_Integer_Overflow__int_listen_socket_": 3726,
      "CWE191_Integer_Underflow__int_connect_socket_": 3727,
      "CWE191_Integer_Underflow__int_listen_socket_": 3728,
      "min_multiply_": 3729,
      "0x401ac": 3730,
      "0x4013a8": 3731,
      "0x401482": 3732,
      "0x1d2": 3733,
      "0x40109b": 3734,
      "0x401608": 3735,
      "_Not_": 3736,
      "bd": 3737,
      "0x401e": 3738,
      "0x1e4": 3739,
      "0x4012e4": 3740,
      "0x4017a0": 3741,
      "0x4009e4": 3742,
      "1_Free_": 3743,
      "7_R": 3744,
      "As": 3745,
      "Pointer": 3746,
      "_short_": 3747,
      "tion__": 3748,
      "art_of": 3749,
      "chable_": 3750,
      "at_St": 3751,
      "617_R": 3752,
      "CWE806": 3753,
      "CWE617_R": 3754,
      "0x400e78": 3755,
      "_Buffer__char_": 3756,
      "eachable_": 3757,
      "sertion__": 3758,
      "0x401620": 3759,
      "CWE761_Free_": 3760,
      "CWE121_Stack_Based_Buffer_Overflow__CWE806_char_": 3761,
      "CWE121_Stack_Based_Buffer_Overflow__CWE806": 3762,
      "_to_char_": 3763,
      "_to_short_": 3764,
      "CWE122_Heap_Based_Buffer_Overflow__c_CWE805_": 3765,
      "CWE122_Heap_Based_Buffer_Overflow__c_CWE806_char_": 3766,
      "CWE122_Heap_Based_Buffer_Overflow__c_CWE805_char_": 3767,
      "CWE197_Numeric_Truncation_Error__short_": 3768,
      "CWE680_Integer_Overflow_to_Buffer_Overflow__malloc_": 3769,
      "_Not_at_St": 3770,
      "Assertion__": 3771,
      "Pointer_Not_at_St": 3772,
      "art_of_Buffer__char_": 3773,
      "CWE617_Reachable_": 3774,
      "CWE761_Free_Pointer_Not_at_St": 3775,
      "CWE121_Stack_Based_Buffer_Overflow__CWE806_char_declare_": 3776,
      "CWE121_Stack_Based_Buffer_Overflow__CWE806_char_alloca_": 3777,
      "CWE617_Reachable_Assertion__": 3778,
      "CWE761_Free_Pointer_Not_at_Start_of_Buffer__char_": 3779,
      "0x40136": 3780,
      "0x40137": 3781,
      "0x1c2": 3782,
      "0x401328": 3783,
      "0x1fb": 3784,
      "0x604": 3785,
      "0x400f47": 3786,
      "0x4018c0": 3787,
      "0x4008c1": 3788,
      "0x4008c9": 3789,
      "gGoodLock": 3790,
      "char_cat": 3791,
      "0x154": 3792,
      "CWE122_Heap_Based_Buffer_Overflow__cpp_": 3793,
      "CWE590_Free_Memory_Not_on_Heap__delete_struct_": 3794,
      "CWE23_Relative_Path_Traversal__char_connect_socket_": 3795,
      "CWE23_Relative_Path_Traversal__char_listen_socket_": 3796,
      "CWE23_Relative_Path_Traversal__char_environment_": 3797,
      "CWE23_Relative_Path_Traversal__char_file_": 3798,
      "CWE23_Relative_Path_Traversal__char_console_": 3799,
      "CWE36_Absolute_Path_Traversal__char_connect_socket_": 3800,
      "CWE36_Absolute_Path_Traversal__char_listen_socket_": 3801,
      "CWE36_Absolute_Path_Traversal__char_environment_": 3802,
      "CWE36_Absolute_Path_Traversal__char_file_": 3803,
      "CWE36_Absolute_Path_Traversal__char_console_": 3804,
      "CWE415_Double_Free__malloc_free_": 3805,
      "0x40094": 3806,
      "0x400f4": 3807,
      "0x401288": 3808,
      "0x4015e4": 3809,
      "0x400e64": 3810,
      "0x604120": 3811,
      "82_base": 3812,
      "81_base": 3813,
      "0x400f40": 3814,
      "0x400e98": 3815,
      "acement_new": 3816,
      "0x40096": 3817,
      "0x4013a4": 3818,
      "0x4011a3": 3819,
      "_on": 3820,
      "era": 3821,
      "0x1070": 3822,
      "0x1c6": 3823,
      "0x401230": 3824,
      "0x401110": 3825,
      "0x400ea8": 3826,
      "0x4016a8": 3827,
      "_Opera": 3828,
      "747320": 3829,
      "0x676e6972747320": 3830,
      "_on_Resource": 3831,
      "dd": 3832,
      "0x401448": 3833,
      "0x17e": 3834,
      "6b": 3835,
      "0x401418": 3836,
      "0x4013b8": 3837,
      "0x4016a4": 3838,
      "0x676e697274732061": 3839,
      "a6": 3840,
      "0x371": 3841,
      "0x40178": 3842,
      "0x400f6c": 3843,
      "0x1d3": 3844,
      "0x400e54": 3845,
      "0x401116": 3846,
      "3_": 3847,
      "bb": 3848,
      "malloc_68": 3849,
      "malloc_45": 3850,
      "0x401270": 3851,
      "0x4013e4": 3852,
      "realloc_68": 3853,
      "realloc_45": 3854,
      "calloc_68": 3855,
      "calloc_45": 3856,
      "0x401618": 3857,
      "0x401497": 3858,
      "0x400f2b": 3859,
      "unlink": 3860,
      "0x400e74": 3861,
      "0x401558": 3862,
      "0x40108c": 3863,
      "0x6020e0": 3864,
      "Cl": 3865,
      "b2": 3866,
      "0x401294": 3867,
      "Class": 3868,
      "TwoInts": 3869,
      "f6": 3870,
      "0x251": 3871,
      "int_22": 3872,
      "0x40105b": 3873,
      "TwoIntsClass": 3874,
      "0x197": 3875,
      "0x1fc": 3876,
      "0x400aa": 3877,
      "0x4013d4": 3878,
      "_or": 3879,
      "ue": 3880,
      "val": 3881,
      "0x400000": 3882,
      "0x401123": 3883,
      "0x401738": 3884,
      "value": 3885,
      "0x4018a0": 3886,
      "0x10a0": 3887,
      "0x10c0": 3888,
      "0x401130": 3889,
      "0x401384": 3890,
      "Ele": 3891,
      "_Search": 3892,
      "CWE427": 3893,
      "ment__char_": 3894,
      "0x401150": 3895,
      "0x401153": 3896,
      "_Path_Ele": 3897,
      "_Uncontrolled_Search": 3898,
      "CWE122_Heap_Based_Buffer_Overflow__c_CWE193_char_": 3899,
      "CWE127_Buffer_Underread__malloc_char_": 3900,
      "CWE124_Buffer_Underwrite__malloc_char_": 3901,
      "0x4010a9": 3902,
      "CWE563_Unused_Variable__unused_value": 3903,
      "CWE427_Uncontrolled_Search": 3904,
      "_Path_Element__char_": 3905,
      "CWE427_Uncontrolled_Search_Path_Element__char_": 3906,
      "0x401428": 3907,
      "0x401210": 3908,
      "0x40145e": 3909,
      "0x40104c": 3910,
      "0x400f17": 3911,
      "0x4011b3": 3912,
      "0x4015d4": 3913,
      "0x401678": 3914,
      "0x4016e0": 3915,
      "0x4016a0": 3916,
      "of_": 3917,
      "loop_45_goodG2BData": 3918,
      "GoodSink": 3919,
      "0x401079": 3920,
      "zero_": 3921,
      "0x370": 3922,
      "0x401638": 3923,
      "0x358": 3924,
      "944": 3925,
      "0x401518": 3926,
      "cc": 3927,
      "0x400f1": 3928,
      "0x401368": 3929,
      "char_static_": 3930,
      "0x400e5": 3931,
      "CWE590_Free_Memory_Not_on_Heap__delete_class_": 3932,
      "4e": 3933,
      "0x40159": 3934,
      "0x40188": 3935,
      "0x40117": 3936,
      "0x1cc": 3937,
      "0x4015c8": 3938,
      "0x4029e4": 3939,
      "0x401734": 3940,
      "int_21": 3941,
      "int64_t_22": 3942,
      "int64_t_21": 3943,
      "CWE131": 3944,
      "CWE190_Integer_Overflow__int_fgets_": 3945,
      "CWE805_int_": 3946,
      "CWE400_Resource_Exhaustion__connect_socket_": 3947,
      "CWE400_Resource_Exhaustion__listen_socket_": 3948,
      "CWE400_Resource_Exhaustion__rand_": 3949,
      "CWE400_Resource_Exhaustion__fscanf_": 3950,
      "CWE400_Resource_Exhaustion__fgets_": 3951,
      "706f": 3952,
      "0x400ac": 3953,
      "71706f": 3954,
      "0x4015e8": 3955,
      "0x400e88": 3956,
      "0x7271706f": 3957,
      "0x4d0": 3958,
      "2f63626": 3959,
      "0x757473": 3960,
      "Int": 3961,
      "0x401694": 3962,
      "0x7271706f2f63626": 3963,
      "0x7271706f2f636261": 3964,
      "e1": 3965,
      "e9": 3966,
      "0x40131": 3967,
      "ifstream_22": 3968,
      "ifstream_21": 3969,
      "open_22": 3970,
      "open_21": 3971,
      "0x401421": 3972,
      "memmove_68_badData": 3973,
      "0x401278": 3974,
      "memcpy_68_badData": 3975,
      "fopen_22": 3976,
      "fopen_21": 3977,
      "0x401970": 3978,
      "22_goodG2B1Global": 3979,
      "ofstream_22": 3980,
      "ofstream_21": 3981,
      "0x401069": 3982,
      "0x1e0": 3983,
      "0x401538": 3984,
      "0x40106c": 3985,
      "0x4016d0": 3986,
      "0x401688": 3987,
      "0x401980": 3988,
      "0x602": 3989,
      "0x401213": 3990,
      "0x401176": 3991,
      "0x401528": 3992,
      "0x7ec": 3993,
      "fix": 3994,
      "src_char_": 3995,
      "0x368": 3996,
      "ad4": 3997,
      "0x1f9": 3998,
      "__open": 3999,
      "0x400f50": 4000,
      "0x401698": 4001,
      "0x401858": 4002,
      "0x602098": 4003,
      "Write": 4004,
      "_Wh": 4005,
      "ica": 4006,
      "name": 4007,
      "upl": 4008,
      "te_Opera": 4009,
      "75_D": 4010,
      "0x1e2": 4011,
      "ons_on_Resource": 4012,
      "memmove_22_goodG2B1Global": 4013,
      "memmove_22_goodG2B2Global": 4014,
      "0x401290": 4015,
      "memcpy_22_goodG2B1Global": 4016,
      "memcpy_22_goodG2B2Global": 4017,
      "CWE123_": 4018,
      "CWE762_Mismatched_Memory_Management_Routines__strdup": 4019,
      "0x6020c4": 4020,
      "tions_on_Resource": 4021,
      "read__char_declare_": 4022,
      "22_goodG2B2Global": 4023,
      "ere_Condition__": 4024,
      "at_Wh": 4025,
      "CWE122_Heap_Based_Buffer_Overflow__cpp_CWE805_int_": 4026,
      "CWE675_D": 4027,
      "CWE126_Buffer_Overread__new_char_": 4028,
      "0x4016c4": 4029,
      "3303": 4030,
      "CWE122_Heap_Based_Buffer_Overflow__cpp_CWE805_int64_t_": 4031,
      "CWE122_Heap_Based_Buffer_Overflow__cpp_CWE805_class_": 4032,
      "_68_badDataForGoodSink": 4033,
      "0x40000001": 4034,
      "Write_Wh": 4035,
      "icate_Opera": 4036,
      "uplicate_Opera": 4037,
      "CWE123_Write_Wh": 4038,
      "CWE762_Mismatched_Memory_Management_Routines__strdup_": 4039,
      "at_Where_Condition__": 4040,
      "CWE675_Duplicate_Opera": 4041,
      "CWE123_Write_What_Where_Condition__": 4042,
      "CWE675_Duplicate_Operations_on_Resource": 4043,
      "0x4012c4": 4044,
      "0x23a": 4045,
      "0x401be": 4046,
      "0x400f37": 4047,
      "0x400f27": 4048,
      "0x1e3": 4049,
      "0x2d20736c": 4050,
      "class_22": 4051,
      "class_21": 4052,
      "0x616c": 4053,
      "0x8004": 4054,
      "0x603": 4055,
      "0x400f9c": 4056,
      "0x4017e0": 4057,
      "0x40112c": 4058,
      "0x60209c": 4059,
      "CWE401_Memory_Leak__char_": 4060,
      "_v": 4061,
      "0x477": 4062,
      "0x1df": 4063,
      "0x401564": 4064,
      "0x4014a2": 4065,
      "CWE590_Free_Memory_Not_on_Heap__delete_struct_static_": 4066,
      "CWE590_Free_Memory_Not_on_Heap__delete_class_static_": 4067,
      "cb": 4068,
      "fb": 4069,
      "0x4012d0": 4070,
      "0x4011b6": 4071,
      "char_22": 4072,
      "char_21": 4073,
      "0x4016b8": 4074,
      "0x400a5": 4075,
      "init": 4076,
      "0x4010e6": 4077,
      "0x1a2": 4078,
      "memmove_22": 4079,
      "memmove_21": 4080,
      "0x401223": 4081,
      "0x4013ee": 4082,
      "0x4011d0": 4083,
      "memcpy_22": 4084,
      "memcpy_21": 4085,
      "placement_new": 4086,
      "0x402af4": 4087,
      "loop_22": 4088,
      "loop_21": 4089,
      "init_v": 4090,
      "0x400e8": 4091,
      "0x4010d7": 4092,
      "0x400962": 4093,
      "f7": 4094,
      "0x605": 4095,
      "0x1e5": 4096,
      "0x4011c3": 4097,
      "0x400ea": 4098,
      "0x4017d0": 4099,
      "0x4029f4": 4100,
      "CWE194_Unexpected_Sign_Extension__connect_socket_": 4101,
      "CWE194_Unexpected_Sign_Extension__listen_socket_": 4102,
      "CWE194_Unexpected_Sign_Extension__rand_": 4103,
      "CWE194_Unexpected_Sign_Extension__fscanf_": 4104,
      "CWE194_Unexpected_Sign_Extension__fgets_": 4105,
      "CWE194_Unexpected_Sign_Extension__negative_": 4106,
      "CWE195_Signed_to_Unsigned_Conversion_Error__connect_socket_": 4107,
      "CWE195_Signed_to_Unsigned_Conversion_Error__listen_socket_": 4108,
      "CWE195_Signed_to_Unsigned_Conversion_Error__rand_": 4109,
      "CWE195_Signed_to_Unsigned_Conversion_Error__fscanf_": 4110,
      "CWE195_Signed_to_Unsigned_Conversion_Error__fgets_": 4111,
      "CWE195_Signed_to_Unsigned_Conversion_Error__negative_": 4112,
      "CWE78_OS_Command_Injection__char_connect_socket_": 4113,
      "CWE78_OS_Command_Injection__char_listen_socket_": 4114,
      "CWE78_OS_Command_Injection__char_environment_": 4115,
      "CWE78_OS_Command_Injection__char_file_": 4116,
      "CWE78_OS_Command_Injection__char_console_": 4117,
      "0x400f69": 4118,
      "0x400f97": 4119,
      "0x1ec": 4120,
      "0x1d5": 4121,
      "0x402944": 4122,
      "0x401880": 4123,
      "0x4009c2": 4124,
      "0x40111c": 4125,
      "0x400f0b": 4126,
      "0x40141e": 4127,
      "cri": 4128,
      "db": 4129,
      "ptor": 4130,
      "le_D": 4131,
      "sing": 4132,
      "0x6021": 4133,
      "escri": 4134,
      "CWE7": 4135,
      "0x400f87": 4136,
      "File_D": 4137,
      "_Missing": 4138,
      "_or_Handle": 4139,
      "ptor_or_Handle": 4140,
      "escriptor_or_Handle": 4141,
      "File_Descriptor_or_Handle": 4142,
      "_Missing_Re": 4143,
      "9f": 4144,
      "0x401aa": 4145,
      "76e": 4146,
      "0x4015a4": 4147,
      "0x4015d8": 4148,
      "0x401624": 4149,
      "0x4017f0": 4150,
      "0x401960": 4151,
      "0x402a34": 4152,
      "0x401407": 4153,
      "0x605120": 4154,
      "b1": 4155,
      "0x359": 4156,
      "0x40190": 4157,
      "7274": 4158,
      "0x1d6": 4159,
      "0x401173": 4160,
      "0x400e7": 4161,
      "0x401718": 4162,
      "0x401193": 4163,
      "0x4010cc": 4164,
      "3306": 4165,
      "0x401668": 4166,
      "0x4010bb": 4167,
      "0x401724": 4168,
      "9e": 4169,
      "9c8": 4170,
      "cst": 4171,
      "f40": 4172,
      "srand": 4173,
      "wcst": 4174,
      "substr": 4175,
      "0x202": 4176,
      "0x209": 4177,
      "0x676e": 4178,
      "654e": 4179,
      "c_str": 4180,
      "77654e": 4181,
      "0x4010f0": 4182,
      "0x401283": 4183,
      "0x7ef40": 4184,
      "0x697274": 4185,
      "ombs": 4186,
      "0x401840": 4187,
      "532077654e": 4188,
      "0x400d10": 4189,
      "fdopen": 4190,
      "0x40107f": 4191,
      "0x1fbd0": 4192,
      "0x4779c8": 4193,
      "wcstombs": 4194,
      "0x697274532077654e": 4195,
      "0x4779c8d0": 4196,
      "bc": 4197,
      "0x400ad": 4198,
      "memmove_45_badData": 4199,
      "0x4013be": 4200,
      "memcpy_45_badData": 4201,
      "0x40110b": 4202,
      "0x400972": 4203,
      "strtol": 4204,
      "declare_45": 4205,
      "a7": 4206,
      "0x4010ab": 4207,
      "0x401472": 4208,
      "0x401233": 4209,
      "0x401113": 4210,
      "0x401554": 4211,
      "6b6": 4212,
      "a69": 4213,
      "0x20a": 4214,
      "0x4027": 4215,
      "0x7877": 4216,
      "0x1f3": 4217,
      "0x1f5": 4218,
      "0x706f": 4219,
      "6665": 4220,
      "3040": 4221,
      "long_22": 4222,
      "long_21": 4223,
      "7675": 4224,
      "0x6867": 4225,
      "7271": 4226,
      "0x1270": 4227,
      "cpy_68_goodG2BData": 4228,
      "6c6b6": 4229,
      "0x10203040": 4230,
      "6d6c6b6": 4231,
      "0x7a79": 4232,
      "int_68": 4233,
      "int_45": 4234,
      "74737271": 4235,
      "0x401870": 4236,
      "0x401850": 4237,
      "0x4018b0": 4238,
      "int64_t_68": 4239,
      "int64_t_45": 4240,
      "struct_22": 4241,
      "struct_21": 4242,
      "0x400d40": 4243,
      "6e6d6c6b6": 4244,
      "0x40140e": 4245,
      "ncpy_68_goodG2BData": 4246,
      "64636261": 4247,
      "0x401740": 4248,
      "CWE563_Unused_Variable__unused_value_": 4249,
      "0x78777675": 4250,
      "0x706f6e6d6c6b6": 4251,
      "666564636261": 4252,
      "0x6867666564636261": 4253,
      "0x7877767574737271": 4254,
      "0x706f6e6d6c6b6a69": 4255,
      "c9": 4256,
      "fc": 4257,
      "0x1a1": 4258,
      "0x401594": 4259,
      "0x402a64": 4260,
      "0x401544": 4261,
      "0x4016d8": 4262,
      "><": 4263,
      ">><": 4264,
      "c1": 4265,
      "0x400f59": 4266,
      "0x401363": 4267,
      "0x401166": 4268,
      "file": 4269,
      "console": 4270,
      "0x400f3f": 4271,
      "dest_char_": 4272,
      "0x1fe": 4273,
      "0x401089": 4274,
      "0x401950": 4275,
      "0x4029a4": 4276,
      "0x4010c7": 4277,
      "0x1068": 4278,
      "0x4031": 4279,
      "0x1e6": 4280,
      "0x1ea": 4281,
      "int_static_": 4282,
      "0x401126": 4283,
      "int64_t_static_": 4284,
      "class_45": 4285,
      "long_static_": 4286,
      "0x401061": 4287,
      "fixed": 4288,
      "0x401427": 4289,
      "__fopen": 4290,
      "0x401073": 4291,
      "0x42e": 4292,
      "0x401700": 4293,
      "0x401780": 4294,
      "0x4010dc": 4295,
      "0x401548": 4296,
      "0x400f3b": 4297,
      "0x400f6a": 4298,
      "0x4018d0": 4299,
      "0x40146e": 4300,
      "9b": 4301,
      "0x450": 4302,
      "0x40176": 4303,
      "0x401100": 4304,
      "0x4015b4": 4305,
      "0x400e24": 4306,
      "0x402ad4": 4307,
      "0x401614": 4308,
      "0x40110c": 4309,
      "0x400eba": 4310,
      "0x4010d6": 4311,
      "0x400f8a": 4312,
      "lease": 4313,
      "0x216": 4314,
      "0x40151": 4315,
      "0x40135": 4316,
      "int_alloca_": 4317,
      "alloca_": 4318,
      "0x400f20": 4319,
      "0x400f66": 4320,
      "0x4013d3": 4321,
      "a8d": 4322,
      "int64_t_alloca_": 4323,
      "CWE121_Stack_Based_Buffer_Overflow__CWE805_char_": 4324,
      "loop_68_badData": 4325,
      "CWE121_Stack_Based_Buffer_Overflow__CWE805_struct_": 4326,
      "CWE121_Stack_Based_Buffer_Overflow__CWE805_char_alloca_": 4327,
      "init_variable_": 4328,
      "CWE121_Stack_Based_Buffer_Overflow__CWE805_char_declare_": 4329,
      "0x400f00": 4330,
      "0x401720": 4331,
      "0x401411": 4332,
      "0x203": 4333,
      "0x4011e3": 4334,
      "char_68": 4335,
      "char_45": 4336,
      "0x17d": 4337,
      "0x401007": 4338,
      "class_68": 4339,
      "0x4010c6": 4340,
      "0x400f8f": 4341,
      "0x4013f7": 4342,
      "0x401017": 4343,
      "0x4009fa": 4344,
      "0x400e3a": 4345,
      "0x401298": 4346,
      "0x4012d4": 4347,
      "0x4015f4": 4348,
      "0x401860": 4349,
      "0x4017c0": 4350,
      "0x401077": 4351,
      "0x401658": 4352,
      "0x40149e": 4353,
      "0x400f4c": 4354,
      "0x401ad": 4355,
      "malloc_68_goodG2BData": 4356,
      "malloc_45_goodG2BData": 4357,
      "socket_add": 4358,
      "0x401514": 4359,
      "_to_A": 4360,
      "CWE135": 4361,
      "CWE190_Integer_Overflow__int_fgets": 4362,
      "declare_68_goodG2BData": 4363,
      "CWE191_Integer_Underflow__int_fgets": 4364,
      "CWE191_Integer_Underflow__int_fgets_": 4365,
      "CWE369_Divide_by_Zero__int_connect_socket_": 4366,
      "CWE369_Divide_by_Zero__int_listen_socket_": 4367,
      "CWE369_Divide_by_Zero__int_rand_": 4368,
      "CWE369_Divide_by_Zero__int_fscanf_": 4369,
      "CWE369_Divide_by_Zero__int_fgets_": 4370,
      "CWE369_Divide_by_Zero__int_zero_": 4371,
      "0x4014a7": 4372,
      "0x40103c": 4373,
      "postinc_": 4374,
      "postdec_": 4375,
      "preinc_": 4376,
      "predec_": 4377,
      "CWE131_": 4378,
      "2sd": 4379,
      "c5": 4380,
      "s2sd": 4381,
      "tss2sd": 4382,
      "cvtss2sd": 4383,
      "0x4013fe": 4384,
      "0x4011c7": 4385,
      "0x401890": 4386,
      "0x401604": 4387,
      "0x400f8c": 4388,
      "0x401697": 4389,
      "0x400f7c": 4390,
      "0x400942": 4391,
      "a1": 4392,
      "eof_": 4393,
      "ype": 4394,
      "zeof_": 4395,
      "sizeof_": 4396,
      "0x400f19": 4397,
      "get": 4398,
      "0x10028": 4399,
      "0x4014d6": 4400,
      "0x401273": 4401,
      "0x2d1": 4402,
      "0x3a8": 4403,
      "CWE122_Heap_Based_Buffer_Overflow__sizeof_": 4404,
      "CWE122_Heap_Based_Buffer_Overflow__c_CWE805_int_": 4405,
      "0x4010fc": 4406,
      "CWE690_NULL_Deref_From_Return__char_": 4407,
      "CWE126_Buffer_Overread__malloc_char_": 4408,
      "CWE690_NULL_Deref_From_Return__int_": 4409,
      "CWE690_NULL_Deref_From_Return__int64_t_": 4410,
      "CWE690_NULL_Deref_From_Return__struct_": 4411,
      "CWE690_NULL_Deref_From_Return__long_": 4412,
      "0x40105c": 4413,
      "CWE122_Heap_Based_Buffer_Overflow__c_CWE805_int64_t_": 4414,
      "CWE122_Heap_Based_Buffer_Overflow__c_CWE805_struct_": 4415,
      "0x401760": 4416,
      "0x4022": 4417,
      "xorpd": 4418,
      "0x401293": 4419,
      "0x4018b8": 4420,
      "0x400ffc": 4421,
      "0x401a30": 4422,
      "0x4029b4": 4423,
      "0x401648": 4424,
      "gGoodInt": 4425,
      "0x401397": 4426,
      "rope": 4427,
      "0x234": 4428,
      "mprope": 4429,
      "0x40153": 4430,
      "0x40161": 4431,
      "0x1f2": 4432,
      "_Imprope": 4433,
      "984": 4434,
      "646f": 4435,
      "58646f": 4436,
      "0x5858": 4437,
      "0x400f67": 4438,
      "0x400f2f": 4439,
      "0x1ef": 4440,
      "0x401438": 4441,
      "0x4013ce": 4442,
      "0x401524": 4443,
      "realloc_": 4444,
      "calloc_": 4445,
      "0x401710": 4446,
      "0x4017b0": 4447,
      "0x6020a8": 4448,
      "6f67": 4449,
      "0x58585858646f": 4450,
      "0x58585858646f6f67": 4451,
      "0x1f7": 4452,
      "0x400a0": 4453,
      "0x401237": 4454,
      "0x4016f4": 4455,
      "0x401106": 4456,
      "0x402a04": 4457,
      "0x401381": 4458,
      "Socke": 4459,
      "temp": 4460,
      "0x40180": 4461,
      "listenSocke": 4462,
      "0x401900": 4463,
      "0x401940": 4464,
      "0x4019a0": 4465,
      "CWE369_Divide_by_Zero__float_connect_socket_": 4466,
      "CWE369_Divide_by_Zero__float_listenSocke": 4467,
      "0x400f0c": 4468,
      "CWE369_Divide_by_Zero__float_listenSocket_": 4469,
      "0x40181": 4470,
      "0x400b0": 4471,
      "0x4010e0": 4472,
      "0x401163": 4473,
      "0x401770": 4474,
      "0x4017b8": 4475,
      "0x4017f8": 4476,
      "0x401930": 4477,
      "0x401a70": 4478,
      "0x4013f1": 4479,
      "0x4010a7": 4480,
      "3_char_alloca_": 4481,
      "fo": 4482,
      "info": 4483,
      "long_68": 4484,
      "long_45": 4485,
      "cpy_45_goodG2BData": 4486,
      "ifstream_45": 4487,
      "open_45": 4488,
      "0x401203": 4489,
      "fopen_45": 4490,
      "0x400e14": 4491,
      "CWE193_char_alloca_": 4492,
      "0x401820": 4493,
      "0x401087": 4494,
      "0x6020d0": 4495,
      "CWE121_Stack_Based_Buffer_Overflow__CWE193_char_": 4496,
      "CWE121_Stack_Based_Buffer_Overflow__CWE193_char_alloca_": 4497,
      "struct_68": 4498,
      "struct_45": 4499,
      "CWE127_Buffer_Underread__char_declare_": 4500,
      "CWE124_Buffer_Underwrite__char_declare_": 4501,
      "ncpy_45_goodG2BData": 4502,
      "3305": 4503,
      "CWE127_Buffer_Underread__char_alloca_": 4504,
      "CWE124_Buffer_Underwrite__char_alloca_": 4505,
      "0x4010fb": 4506,
      "ofstream_45": 4507,
      "0x401684": 4508,
      "0x400e5a": 4509,
      "0x603120": 4510,
      "CWE121_Stack_Based_Buffer_Overflow__CWE193_char_declare_": 4511,
      "0x205": 4512,
      "0x401057": 4513,
      "0x401423": 4514,
      "0x40123": 4515,
      "0x400e04": 4516,
      "0x4019c4": 4517,
      "0x401133": 4518,
      "0x401183": 4519,
      "0x400f5f": 4520,
      "y_t": 4521,
      "ints": 4522,
      "0x40189": 4523,
      "0x40143": 4524,
      "new_twoIntsStruct_": 4525,
      "0x400eef": 4526,
      "0x4018d8": 4527,
      "array_t": 4528,
      "0x400a2": 4529,
      "0x400a3": 4530,
      "CWE401_Memory_Leak__new_char_": 4531,
      "woints": 4532,
      "CWE401_Memory_Leak__new_struct_twoIntsStruct_": 4533,
      "CWE401_Memory_Leak__new_TwoIntsClass": 4534,
      "CWE401_Memory_Leak__new_array_t": 4535,
      "CWE401_Memory_Leak__new_twoIntsStruct_": 4536,
      "0x40150e": 4537,
      "CWE401_Memory_Leak__new_array_struct_twoIntsStruct_": 4538,
      "CWE401_Memory_Leak__new_array_TwoIntsClass": 4539,
      "wointsStruct_": 4540,
      "CWE401_Memory_Leak__new_array_twointsStruct_": 4541,
      "bf": 4542,
      "0x201": 4543,
      "128": 4544,
      "0x4014d3": 4545,
      "0x401266": 4546,
      "0x401574": 4547,
      "0x401730": 4548,
      "0x602090": 4549,
      "0x402974": 4550,
      "0x4029d4": 4551,
      "0x602128": 4552,
      "tion": 4553,
      "0x20d": 4554,
      "0x4033": 4555,
      "0x1e9": 4556,
      "0x401814": 4557,
      "0x401878": 4558,
      "connect_socket_68_goodG2BData": 4559,
      "listen_socket_68_goodG2BData": 4560,
      "0x401136": 4561,
      "0x401143": 4562,
      "0x401186": 4563,
      "0x401303": 4564,
      "0x4010c9": 4565,
      "0x4010f6": 4566,
      "0x401597": 4567,
      "0x40142": 4568,
      "0x401a8d": 4569,
      "0x40093": 4570,
      "0x4010ec": 4571,
      "0x1db": 4572,
      "0x402aa": 4573,
      "0x402984": 4574,
      "0x401800": 4575,
      "0x401851": 4576,
      "0x4018e0": 4577,
      "0x401107": 4578,
      "0x401147": 4579,
      "0x401a92": 4580,
      "0x401a88": 4581,
      "0x401584": 4582,
      "0x400efb": 4583,
      "_char_cat": 4584,
      "cf": 4585,
      "0x410": 4586,
      "0x400f57": 4587,
      "0x400f4b": 4588,
      "0x4010d2": 4589,
      "badLock": 4590,
      "memmove_45": 4591,
      "memcpy_45": 4592,
      "0x4015c4": 4593,
      "0x400eea": 4594,
      "0x401157": 4595,
      "loop_45": 4596,
      "loop_45_badData": 4597,
      "BadSink": 4598,
      "0x400fa7": 4599,
      "src_char_cat": 4600,
      "dest_char_cat": 4601,
      "0x20e": 4602,
      "0x400a4": 4603,
      "0x4014c3": 4604,
      "0x4017f4": 4605,
      "0x402934": 4606,
      "0x400ed3": 4607,
      "0x4016d4": 4608,
      "b5": 4609,
      "f2": 4610,
      "0x400fea": 4611,
      "0x1e7": 4612,
      "0x4014e3": 4613,
      "0x4013b6": 4614,
      "0x4013ae": 4615,
      "fgets_68_goodG2BData": 4616,
      "0x402ce": 4617,
      "snprintf_68_goodG2BData": 4618,
      "0x401103": 4619,
      "connect_socket_45_goodG2BData": 4620,
      "listen_socket_45_goodG2BData": 4621,
      "0x402994": 4622,
      "CWE590_Free_Memory_Not_on_Heap__delete_char_static_": 4623,
      "CWE590_Free_Memory_Not_on_Heap__delete_int_static_": 4624,
      "CWE590_Free_Memory_Not_on_Heap__delete_int64_t_static_": 4625,
      "CWE590_Free_Memory_Not_on_Heap__delete_long_static_": 4626,
      "0x4010b9": 4627,
      "0x400f8b": 4628,
      "CWE590_Free_Memory_Not_on_Heap__delete_array_char_static_": 4629,
      "0x400f5b": 4630,
      "0x400f5d": 4631,
      "0x40147a": 4632,
      "dc": 4633,
      "0x40171": 4634,
      "0x400a8": 4635,
      "0x401037": 4636,
      "0x4010e3": 4637,
      "0x40125": 4638,
      "0x401243": 4639,
      "0x4012a3": 4640,
      "0x401351": 4641,
      "0x401830": 4642,
      "0x401798": 4643,
      "0x40115c": 4644,
      "0x400d80": 4645,
      "0x402964": 4646,
      "0x4029c4": 4647,
      "0x400eda": 4648,
      "0x4010f7": 4649,
      "0x401453": 4650,
      "0x400fbc": 4651,
      "b9": 4652,
      "f1": 4653,
      "0x1ed": 4654,
      "140": 4655,
      "staticSt": 4656,
      "0x24f": 4657,
      "cpy_22": 4658,
      "cpy_21": 4659,
      "0x401477": 4660,
      "0x4014f3": 4661,
      "0x4012c3": 4662,
      "0x401810": 4663,
      "ringGood": 4664,
      "ncpy_22": 4665,
      "ncpy_21": 4666,
      "0x400f0f": 4667,
      "staticStringGood": 4668,
      "0x402de": 4669,
      "0x401838": 4670,
      "0x401854": 4671,
      "0x4017c8": 4672,
      "0x401406": 4673,
      "0x4016c8": 4674,
      "0x40173e": 4675,
      "0x400fd5": 4676,
      "d1": 4677,
      "0x1078": 4678,
      "0x40163": 4679,
      "_IO_get": 4680,
      "0x40095": 4681,
      "malloc_22_goodG2B1Global": 4682,
      "malloc_22_goodG2B2Global": 4683,
      "0x401437": 4684,
      "memmove_22_badGlobal": 4685,
      "0x401247": 4686,
      "0x4012f3": 4687,
      "0x4012e3": 4688,
      "fgets_45_goodG2BData": 4689,
      "memcpy_22_badGlobal": 4690,
      "strncpy_68_goodG2BData": 4691,
      "strncpy_45_goodG2BData": 4692,
      "strncpy_22_goodG2B1Global": 4693,
      "strncpy_22_goodG2B2Global": 4694,
      "0x402ac": 4695,
      "0x4016e8": 4696,
      "0x4016e4": 4697,
      "0x4016f8": 4698,
      "0x401990": 4699,
      "CWE762_Mismatched_Memory_Management_Routines__new_free_char_": 4700,
      "0x402a54": 4701,
      "CWE364_Signal_Handler_Race_Condition__basic_12": 4702,
      "CWE762_Mismatched_Memory_Management_Routines__new_array_free_char_": 4703,
      "CWE122_Heap_Based_Buffer_Overflow__cpp_CWE129_rand": 4704,
      "CWE122_Heap_Based_Buffer_Overflow__cpp_CWE129_fgets": 4705,
      "CWE122_Heap_Based_Buffer_Overflow__cpp_CWE129_fscanf": 4706,
      "CWE122_Heap_Based_Buffer_Overflow__cpp_CWE129_connect_socket_": 4707,
      "CWE122_Heap_Based_Buffer_Overflow__cpp_CWE129_listen_socket_": 4708,
      "CWE122_Heap_Based_Buffer_Overflow__cpp_CWE129_large": 4709,
      "CWE789_Uncontrolled_Mem_Alloc__new_char_rand": 4710,
      "CWE789_Uncontrolled_Mem_Alloc__new_char_fgets": 4711,
      "CWE789_Uncontrolled_Mem_Alloc__new_char_fscanf": 4712,
      "CWE789_Uncontrolled_Mem_Alloc__new_char_connect_socket_": 4713,
      "CWE789_Uncontrolled_Mem_Alloc__new_char_listen_socket_": 4714,
      "0x401047": 4715,
      "_68_badDataForBadSink": 4716,
      "CWE762_Mismatched_Memory_Management_Routines__strdup_delete_": 4717,
      "CWE762_Mismatched_Memory_Management_Routines__strdup_delete_array_": 4718,
      "_IO_getc": 4719,
      "0x4032": 4720,
      "138": 4721,
      "0x4014b3": 4722,
      "0x401898": 4723,
      "0x401910": 4724,
      "0x4019b0": 4725,
      "0x402a24": 4726,
      "0x401664": 4727,
      "0x40102d": 4728,
      "0x400f4f": 4729,
      "2e": 4730,
      "_of": 4731,
      "ure": 4732,
      "0x248": 4733,
      "0x4e0": 4734,
      "0x40132": 4735,
      "0x400fab": 4736,
      "0x401413": 4737,
      "0x401207": 4738,
      "0x4013d7": 4739,
      "0x400e6a": 4740,
      "0x4016a6": 4741,
      "0x4017c4": 4742,
      "0x401146": 4743,
      "0x400ed7": 4744,
      "0x4010f9": 4745,
      "0x4014a6": 4746,
      "0x400efc": 4747,
      "0x40144e": 4748,
      "0x401367": 4749,
      "0x40136e": 4750,
      "a2": 4751,
      "0x1eb": 4752,
      "0x401a0": 4753,
      "0x401894": 4754,
      "0x4010db": 4755,
      "used_un": 4756,
      "0x400ef9": 4757,
      "0x400f2c": 4758,
      "CWE563_Unused_Variable__unused_un": 4759,
      "0x40137e": 4760,
      "7e": 4761,
      "_S": 4762,
      "_File_Descriptor_or_Handle": 4763,
      "d5": 4764,
      "fer": 4765,
      "h__char_": 4766,
      "ive": 4767,
      "tru": 4768,
      "0x206": 4769,
      "0x20c": 4770,
      "sted_": 4771,
      "0x1fa": 4772,
      "rand_68_goodG2BData": 4773,
      "73_Missing_Re": 4774,
      "26_Un": 4775,
      "malloc_45_badData": 4776,
      "0x400fde": 4777,
      "_trans": 4778,
      "socket_to_char_": 4779,
      "socket_to_short_": 4780,
      "_M_un": 4781,
      "_M_trans": 4782,
      "0x401433": 4783,
      "0x4014b6": 4784,
      "0x4012b3": 4785,
      "ctive": 4786,
      "0x401573": 4787,
      "0x400e68": 4788,
      "0x400ec9": 4789,
      "fscanf_68_goodG2BData": 4790,
      "snprintf_45_goodG2BData": 4791,
      "__throw_run": 4792,
      "CWE122_Heap_Based_Buffer_Overflow__CWE131_": 4793,
      "_Path__char_": 4794,
      "CWE121_Stack_Based_Buffer_Overflow__src_": 4795,
      "CWE121_Stack_Based_Buffer_Overflow__src_char_": 4796,
      "loop_22_goodG2B1Global": 4797,
      "loop_22_goodG2B2Global": 4798,
      "CWE426_Un": 4799,
      "0x40134e": 4800,
      "CWE197_Numeric_Truncation_Error__int_rand": 4801,
      "CWE197_Numeric_Truncation_Error__int_fgets": 4802,
      "CWE197_Numeric_Truncation_Error__int_fscanf": 4803,
      "CWE197_Numeric_Truncation_Error__int_connect_": 4804,
      "CWE197_Numeric_Truncation_Error__int_listen_": 4805,
      "CWE197_Numeric_Truncation_Error__int_large": 4806,
      "ference_to_A": 4807,
      "0x400fbb": 4808,
      "time_error": 4809,
      "0x40101c": 4810,
      "0x400f7b": 4811,
      "Search_Path__char_": 4812,
      "0x401788": 4813,
      "0x40117c": 4814,
      "CWE773_Missing_Re": 4815,
      "trusted_": 4816,
      "_M_unhook": 4817,
      "_M_transfer": 4818,
      "ctive_File_Descriptor_or_Handle": 4819,
      "__throw_runtime_error": 4820,
      "CWE121_Stack_Based_Buffer_Overflow__src_char_alloca_": 4821,
      "CWE426_Untrusted_": 4822,
      "ference_to_Active_File_Descriptor_or_Handle": 4823,
      "CWE773_Missing_Reference_to_Active_File_Descriptor_or_Handle": 4824,
      "CWE426_Untrusted_Search_Path__char_": 4825,
      "0x400f07": 4826,
      "0x4014ce": 4827,
      "0x4013bb": 4828,
      "0x401167": 4829,
      "0x4018d4": 4830,
      "0x40100d": 4831,
      "0x400df4": 4832,
      "0x402954": 4833,
      "0x402d18": 4834,
      "0x400fdb": 4835,
      "0x40102c": 4836,
      "0x400f9b": 4837,
      "0x401888": 4838,
      "__open_": 4839,
      "0x40181e": 4840,
      "0x400932": 4841,
      "_of_": 4842,
      "fa": 4843,
      "iz": 4844,
      "ial": 4845,
      "r_In": 4846,
      "type": 4847,
      "0x207": 4848,
      "strcmp": 4849,
      "ess": 4850,
      "itial": 4851,
      "75_Missing_Re": 4852,
      "CWE665": 4853,
      "0x400f22": 4854,
      "0x400f86": 4855,
      "0x401041": 4856,
      "0x4014de": 4857,
      "0x4014b7": 4858,
      "0x401263": 4859,
      "0x401227": 4860,
      "0x4013c1": 4861,
      "0x4015a3": 4862,
      "0x400ff7": 4863,
      "0x401a00": 4864,
      "0x402a14": 4865,
      "0x402a44": 4866,
      "0x401b90": 4867,
      "no_close": 4868,
      "0x400fcb": 4869,
      "0x400f9a": 4870,
      "CWE775_Missing_Re": 4871,
      "lease_of_": 4872,
      "_Improper_In": 4873,
      "ization": 4874,
      "typeinfo": 4875,
      "itialization": 4876,
      "CWE665_Improper_In": 4877,
      "CWE775_Missing_Release_of_": 4878,
      "CWE665_Improper_Initialization": 4879,
      "CWE775_Missing_Release_of_File_Descriptor_or_Handle": 4880,
      "1e": 4881,
      "0x40116": 4882,
      "0x1f4": 4883,
      "0x400f49": 4884,
      "0x1e8": 4885,
      "0x401217": 4886,
      "0x4013de": 4887,
      "0x4015f3": 4888,
      "0x400ee0": 4889,
      "0x401790": 4890,
      "0x401099": 4891,
      "0x401507": 4892,
      "0x4010cb": 4893,
      "0x4011a7": 4894,
      "0x4010f3": 4895,
      "0x40101b": 4896,
      "0x400ea5": 4897,
      "0x271": 4898,
      "0x200": 4899,
      "0x20b": 4900,
      "0x380": 4901,
      "0x401ce": 4902,
      "0x1f6": 4903,
      "rand_45_goodG2BData": 4904,
      "malloc_22_goodB2G1Global": 4905,
      "malloc_22_goodB2G2Global": 4906,
      "malloc_45_goodB2GData": 4907,
      "0x400f77": 4908,
      "cpy_68_badData": 4909,
      "ifstream_68_goodG2BData": 4910,
      "open_68_goodG2BData": 4911,
      "0x2e1": 4912,
      "fopen_68_goodG2BData": 4913,
      "0x400e6b": 4914,
      "realloc_22_goodB2G1Global": 4915,
      "realloc_22_goodB2G2Global": 4916,
      "realloc_45_goodB2GData": 4917,
      "ea4": 4918,
      "calloc_22_goodB2G1Global": 4919,
      "calloc_22_goodB2G2Global": 4920,
      "calloc_45_goodB2GData": 4921,
      "0x35c": 4922,
      "fscanf_45_goodG2BData": 4923,
      "0x402cd": 4924,
      "0x401628": 4925,
      "0x4016b4": 4926,
      "0x401127": 4927,
      "0x400ff2": 4928,
      "0x401a9f": 4929,
      "CWE364_Signal_Handler_Race_Condition__basic_14": 4930,
      "CWE364_Signal_Handler_Race_Condition__basic_13": 4931,
      "CWE364_Signal_Handler_Race_Condition__basic_15": 4932,
      "CWE364_Signal_Handler_Race_Condition__basic_10": 4933,
      "CWE364_Signal_Handler_Race_Condition__basic_08": 4934,
      "CWE364_Signal_Handler_Race_Condition__basic_09": 4935,
      "CWE364_Signal_Handler_Race_Condition__basic_02": 4936,
      "CWE364_Signal_Handler_Race_Condition__basic_07": 4937,
      "CWE364_Signal_Handler_Race_Condition__basic_04": 4938,
      "CWE364_Signal_Handler_Race_Condition__basic_06": 4939,
      "CWE364_Signal_Handler_Race_Condition__basic_11": 4940,
      "CWE364_Signal_Handler_Race_Condition__basic_03": 4941,
      "CWE364_Signal_Handler_Race_Condition__basic_05": 4942,
      "0x401c14": 4943,
      "0x4011ae": 4944,
      "ncpy_68_badData": 4945,
      "CWE369_Divide_by_Zero__float_zero_": 4946,
      "0x401547": 4947,
      "ofstream_68_goodG2BData": 4948,
      "0x400ef7": 4949,
      "0x401027": 4950,
      "CWE364_Signal_Handler_Race_Condition__basic_12StructSigAtomicGood": 4951,
      "924": 4952,
      "e5": 4953,
      "0x241": 4954,
      "0x40182": 4955,
      "0x40186": 4956,
      "0x40156": 4957,
      "0x40099": 4958,
      "malloc_22_badGlobal": 4959,
      "0x400fef": 4960,
      "0x4014b2": 4961,
      "0x40120": 4962,
      "0x401313": 4963,
      "0x4015f8": 4964,
      "0x401674": 4965,
      "0x401828": 4966,
      "0x4017d8": 4967,
      "0x401958": 4968,
      "0x402d34": 4969,
      "0x401067": 4970,
      "3304": 4971,
      "3308": 4972,
      "0x40149b": 4973,
      "0x401f74": 4974,
      "0x400e3c": 4975,
      "0x400f1a": 4976,
      "0x401be0": 4977,
      "0x402aa4": 4978,
      "1f": 4979,
      "nam": 4980,
      "0x40097": 4981,
      "0x400fee": 4982,
      "0x1ee": 4983,
      "0x401463": 4984,
      "0x4014ee": 4985,
      "0x4014c6": 4986,
      "0x4011c6": 4987,
      "0x400ee9": 4988,
      "0x4016fe": 4989,
      "0x4019e0": 4990,
      "0x4019b8": 4991,
      "0x401a08": 4992,
      "0x40118c": 4993,
      "0x400ed5": 4994,
      "0x402d04": 4995,
      "0x40154e": 4996,
      "0x402028": 4997,
      "0x401117": 4998,
      "0x400fa1": 4999,
      "0x400fa6": 5000,
      "0x401575": 5001,
      "0x40139e": 5002,
      "0x40103d": 5003,
      "0x401377": 5004,
      "1c": 5005,
      "0x225": 5006,
      "004": 5007,
      "0x1f8": 5008,
      "0x400fac": 5009,
      "0x400fe2": 5010,
      "0x25f": 5011,
      "0x400ee7": 5012,
      "0x22b": 5013,
      "0x4016b7": 5014,
      "0x4019d8": 5015,
      "0x4019d0": 5016,
      "0x40105f": 5017,
      "0x4013fa": 5018,
      "af": 5019,
      "gBad": 5020,
      "lacement_new": 5021,
      "0x379": 5022,
      "long_alloca_": 5023,
      "0x400fcd": 5024,
      "0x401071": 5025,
      "ockname": 5026,
      "0x401296": 5027,
      "0x401226": 5028,
      "0x4013a1": 5029,
      "getsockname": 5030,
      "0x4011f0": 5031,
      "0x4011d6": 5032,
      "0x400e89": 5033,
      "0x400ec0": 5034,
      "0x4016a3": 5035,
      "0x65646362613938": 5036,
      "0x4017ce": 5037,
      "_placement_new": 5038,
      "int64_t_declare_": 5039,
      "0x400a32": 5040,
      "0x401920": 5041,
      "0x401934": 5042,
      "0x401139": 5043,
      "CWE121_Stack_Based_Buffer_Overflow__CWE805_int_": 5044,
      "0x401096": 5045,
      "CWE126_Buffer_Overread__char_declare_": 5046,
      "0x401383": 5047,
      "3307": 5048,
      "rand_multiply_68_goodG2BData": 5049,
      "rand_multiply_45_goodG2BData": 5050,
      "rand_multiply_22_goodB2G1Global": 5051,
      "rand_multiply_22_goodB2G2Global": 5052,
      "rand_multiply_45_goodB2GData": 5053,
      "rand_multiply_68_goodB2GData": 5054,
      "rand_multiply_22_goodG2BGlobal": 5055,
      "fscanf_multiply_68_goodG2BData": 5056,
      "fscanf_multiply_45_goodG2BData": 5057,
      "fscanf_multiply_22_goodB2G1Global": 5058,
      "fscanf_multiply_22_goodB2G2Global": 5059,
      "fscanf_multiply_45_goodB2GData": 5060,
      "fscanf_multiply_68_goodB2GData": 5061,
      "fscanf_multiply_22_goodG2BGlobal": 5062,
      "CWE126_Buffer_Overread__char_alloca_": 5063,
      "0x401f88": 5064,
      "CWE590_Free_Memory_Not_on_Heap__delete_array_struct_": 5065,
      "CWE121_Stack_Based_Buffer_Overflow__CWE805_int_alloca_": 5066,
      "CWE121_Stack_Based_Buffer_Overflow__CWE805_int64_t_alloca_": 5067,
      "CWE121_Stack_Based_Buffer_Overflow__CWE805_int64_t_declare_": 5068,
      "0x401417": 5069,
      "0x401467": 5070,
      "ncat_68_goodG2BData": 5071,
      "CWE563_Unused_Variable__unused_init_variable_": 5072,
      "CWE590_Free_Memory_Not_on_Heap__free_struct_": 5073,
      "0x40117f": 5074,
      "CWE121_Stack_Based_Buffer_Overflow__CWE805_struct_declare_": 5075,
      "CWE121_Stack_Based_Buffer_Overflow__CWE805_struct_alloca_": 5076,
      "CWE563_Unused_Variable__unused_uninit_variable_": 5077,
      "gBadInt": 5078,
      "CWE121_Stack_Based_Buffer_Overflow__CWE805_int_declare_": 5079,
      "2b": 5080,
      "a9": 5081,
      "0x401503": 5082,
      "0x40092": 5083,
      "0x400e45": 5084,
      "0x4018f0": 5085,
      "0x401714": 5086,
      "0x400ae4": 5087,
      "0x401009": 5088,
      "0x4009bd": 5089,
      "0x40148a": 5090,
      "0x401c00": 5091,
      "0x4010d3": 5092,
      "0x401343": 5093,
      "0x40134f": 5094,
      "0x401492": 5095,
      "0x402014": 5096,
      "0x400fdc": 5097,
      "0x400fc5": 5098,
      "0x440": 5099,
      "0x401ca": 5100,
      "0x400b4": 5101,
      "malloc_68_badData": 5102,
      "0x400fed": 5103,
      "0x400fba": 5104,
      "0x400fe7": 5105,
      "0x4015b3": 5106,
      "0x400ea0": 5107,
      "0x4016ce": 5108,
      "CWE122_Heap_Based_Buffer_Overflow__placement_new": 5109,
      "CWE122_Heap_Based_Buffer_Overflow__CWE135": 5110,
      "connect_socket_add": 5111,
      "listen_socket_add": 5112,
      "connect_socket_68_badData": 5113,
      "0x400a12": 5114,
      "listen_socket_68_badData": 5115,
      "0x4019a8": 5116,
      "0x4019f4": 5117,
      "0x40115a": 5118,
      "0x40115e": 5119,
      "placement_": 5120,
      "CWE121_Stack_Based_Buffer_Overflow__CWE135": 5121,
      "0x402a74": 5122,
      "CWE190_Integer_Overflow__int_rand_postinc_": 5123,
      "CWE190_Integer_Overflow__int_rand_preinc_": 5124,
      "CWE190_Integer_Overflow__int_fscanf_postinc_": 5125,
      "CWE190_Integer_Overflow__int_fscanf_preinc_": 5126,
      "CWE190_Integer_Overflow__int_rand_add": 5127,
      "CWE190_Integer_Overflow__int_rand_square": 5128,
      "CWE190_Integer_Overflow__int_fscanf_add": 5129,
      "CWE190_Integer_Overflow__int_fscanf_square": 5130,
      "CWE190_Integer_Overflow__int_max_postinc_": 5131,
      "CWE190_Integer_Overflow__int_max_preinc_": 5132,
      "CWE190_Integer_Overflow__int_max_add": 5133,
      "CWE190_Integer_Overflow__int_max_multiply_": 5134,
      "CWE190_Integer_Overflow__int_max_square": 5135,
      "CWE190_Integer_Overflow__int_connect_socket_add": 5136,
      "CWE190_Integer_Overflow__int_listen_socket_add": 5137,
      "declare_cat": 5138,
      "declare_68_badData": 5139,
      "CWE191_Integer_Underflow__int_rand_postdec_": 5140,
      "CWE191_Integer_Underflow__int_rand_predec_": 5141,
      "CWE191_Integer_Underflow__int_fscanf_postdec_": 5142,
      "CWE191_Integer_Underflow__int_fscanf_predec_": 5143,
      "CWE191_Integer_Underflow__int_rand_sub": 5144,
      "CWE191_Integer_Underflow__int_fscanf_sub": 5145,
      "CWE191_Integer_Underflow__int_min_postdec_": 5146,
      "CWE191_Integer_Underflow__int_min_predec_": 5147,
      "CWE191_Integer_Underflow__int_min_sub": 5148,
      "CWE191_Integer_Underflow__int_min_multiply_": 5149,
      "0x401bc8": 5150,
      "CWE190_Integer_Overflow__char_rand_postinc_": 5151,
      "CWE190_Integer_Overflow__char_rand_preinc_": 5152,
      "CWE190_Integer_Overflow__char_fscanf_postinc_": 5153,
      "CWE190_Integer_Overflow__char_fscanf_preinc_": 5154,
      "CWE190_Integer_Overflow__char_rand_add": 5155,
      "CWE190_Integer_Overflow__char_rand_square": 5156,
      "CWE190_Integer_Overflow__char_fscanf_add": 5157,
      "CWE190_Integer_Overflow__char_fscanf_square": 5158,
      "CWE190_Integer_Overflow__char_max_postinc_": 5159,
      "CWE190_Integer_Overflow__char_max_preinc_": 5160,
      "CWE190_Integer_Overflow__char_max_add": 5161,
      "CWE190_Integer_Overflow__char_max_multiply_": 5162,
      "CWE190_Integer_Overflow__char_max_square": 5163,
      "CWE190_Integer_Overflow__int64_t_rand_postinc_": 5164,
      "CWE190_Integer_Overflow__int64_t_rand_preinc_": 5165,
      "CWE190_Integer_Overflow__int64_t_fscanf_postinc_": 5166,
      "CWE190_Integer_Overflow__int64_t_fscanf_preinc_": 5167,
      "CWE190_Integer_Overflow__int64_t_rand_add": 5168,
      "CWE190_Integer_Overflow__int64_t_rand_square": 5169,
      "CWE190_Integer_Overflow__int64_t_fscanf_add": 5170,
      "CWE190_Integer_Overflow__int64_t_fscanf_square": 5171,
      "CWE190_Integer_Overflow__int64_t_max_postinc_": 5172,
      "CWE190_Integer_Overflow__int64_t_max_preinc_": 5173,
      "CWE190_Integer_Overflow__int64_t_max_add": 5174,
      "CWE190_Integer_Overflow__int64_t_max_multiply_": 5175,
      "CWE190_Integer_Overflow__int64_t_max_square": 5176,
      "CWE190_Integer_Overflow__short_rand_postinc_": 5177,
      "CWE190_Integer_Overflow__short_rand_preinc_": 5178,
      "CWE190_Integer_Overflow__short_fscanf_postinc_": 5179,
      "CWE190_Integer_Overflow__short_fscanf_preinc_": 5180,
      "CWE190_Integer_Overflow__short_rand_add": 5181,
      "CWE190_Integer_Overflow__short_rand_square": 5182,
      "CWE190_Integer_Overflow__short_fscanf_add": 5183,
      "CWE190_Integer_Overflow__short_fscanf_square": 5184,
      "CWE190_Integer_Overflow__short_max_postinc_": 5185,
      "CWE190_Integer_Overflow__short_max_preinc_": 5186,
      "CWE190_Integer_Overflow__short_max_add": 5187,
      "CWE190_Integer_Overflow__short_max_multiply_": 5188,
      "CWE190_Integer_Overflow__short_max_square": 5189,
      "CWE190_Integer_Overflow__unsigned_int_rand_postinc_": 5190,
      "CWE190_Integer_Overflow__unsigned_int_rand_preinc_": 5191,
      "CWE190_Integer_Overflow__unsigned_int_fscanf_postinc_": 5192,
      "CWE190_Integer_Overflow__unsigned_int_fscanf_preinc_": 5193,
      "CWE190_Integer_Overflow__unsigned_int_rand_add": 5194,
      "CWE190_Integer_Overflow__unsigned_int_rand_square": 5195,
      "CWE190_Integer_Overflow__unsigned_int_fscanf_add": 5196,
      "CWE190_Integer_Overflow__unsigned_int_fscanf_square": 5197,
      "CWE190_Integer_Overflow__unsigned_int_max_postinc_": 5198,
      "CWE190_Integer_Overflow__unsigned_int_max_preinc_": 5199,
      "CWE190_Integer_Overflow__unsigned_int_max_add": 5200,
      "CWE190_Integer_Overflow__unsigned_int_max_multiply_": 5201,
      "CWE190_Integer_Overflow__unsigned_int_max_square": 5202,
      "CWE191_Integer_Underflow__char_rand_postdec_": 5203,
      "CWE191_Integer_Underflow__char_rand_predec_": 5204,
      "CWE191_Integer_Underflow__char_fscanf_postdec_": 5205,
      "CWE191_Integer_Underflow__char_fscanf_predec_": 5206,
      "CWE191_Integer_Underflow__char_rand_sub": 5207,
      "CWE191_Integer_Underflow__char_fscanf_sub": 5208,
      "CWE191_Integer_Underflow__char_min_postdec_": 5209,
      "CWE191_Integer_Underflow__char_min_predec_": 5210,
      "CWE191_Integer_Underflow__char_min_sub": 5211,
      "CWE191_Integer_Underflow__char_min_multiply_": 5212,
      "CWE191_Integer_Underflow__int64_t_rand_postdec_": 5213,
      "CWE191_Integer_Underflow__int64_t_rand_predec_": 5214,
      "CWE191_Integer_Underflow__int64_t_fscanf_postdec_": 5215,
      "CWE191_Integer_Underflow__int64_t_fscanf_predec_": 5216,
      "CWE191_Integer_Underflow__int64_t_rand_sub": 5217,
      "CWE191_Integer_Underflow__int64_t_fscanf_sub": 5218,
      "CWE191_Integer_Underflow__int64_t_min_postdec_": 5219,
      "CWE191_Integer_Underflow__int64_t_min_predec_": 5220,
      "CWE191_Integer_Underflow__int64_t_min_sub": 5221,
      "CWE191_Integer_Underflow__int64_t_min_multiply_": 5222,
      "CWE191_Integer_Underflow__short_rand_postdec_": 5223,
      "CWE191_Integer_Underflow__short_rand_predec_": 5224,
      "CWE191_Integer_Underflow__short_fscanf_postdec_": 5225,
      "CWE191_Integer_Underflow__short_fscanf_predec_": 5226,
      "CWE191_Integer_Underflow__short_rand_sub": 5227,
      "CWE191_Integer_Underflow__short_fscanf_sub": 5228,
      "CWE191_Integer_Underflow__short_min_postdec_": 5229,
      "CWE191_Integer_Underflow__short_min_predec_": 5230,
      "CWE191_Integer_Underflow__short_min_sub": 5231,
      "CWE191_Integer_Underflow__short_min_multiply_": 5232,
      "CWE369_Divide_by_Zero__float_zero": 5233,
      "0x4010bd": 5234,
      "CWE191_Integer_Underflow__unsigned_int_rand_postdec_": 5235,
      "CWE191_Integer_Underflow__unsigned_int_rand_predec_": 5236,
      "CWE191_Integer_Underflow__unsigned_int_fscanf_postdec_": 5237,
      "CWE191_Integer_Underflow__unsigned_int_fscanf_predec_": 5238,
      "CWE191_Integer_Underflow__unsigned_int_rand_sub": 5239,
      "CWE191_Integer_Underflow__unsigned_int_fscanf_sub": 5240,
      "CWE191_Integer_Underflow__unsigned_int_min_postdec_": 5241,
      "CWE191_Integer_Underflow__unsigned_int_min_predec_": 5242,
      "CWE191_Integer_Underflow__unsigned_int_min_sub": 5243,
      "0x402b14": 5244,
      "CWE476_NULL_Pointer_Dereference__char_": 5245,
      "CWE121_Stack_Based_Buffer_Overflow__CWE129_large": 5246,
      "CWE122_Heap_Based_Buffer_Overflow__c_CWE129_large": 5247,
      "CWE127_Buffer_Underread__CWE839_negative": 5248,
      "CWE124_Buffer_Underwrite__CWE839_negative": 5249,
      "CWE126_Buffer_Overread__CWE129_large": 5250,
      "CWE476_NULL_Pointer_Dereference__long": 5251,
      "CWE476_NULL_Pointer_Dereference__int64_t": 5252,
      "CWE476_NULL_Pointer_Dereference__struct_": 5253,
      "CWE134_Uncontrolled_Format_String__char_connect_socket_printf": 5254,
      "CWE134_Uncontrolled_Format_String__char_connect_socket_fprintf": 5255,
      "CWE134_Uncontrolled_Format_String__char_connect_socket_vfprintf": 5256,
      "CWE134_Uncontrolled_Format_String__char_connect_socket_vprintf": 5257,
      "CWE134_Uncontrolled_Format_String__char_listen_socket_printf": 5258,
      "CWE134_Uncontrolled_Format_String__char_listen_socket_fprintf": 5259,
      "CWE134_Uncontrolled_Format_String__char_listen_socket_vfprintf": 5260,
      "CWE134_Uncontrolled_Format_String__char_listen_socket_vprintf": 5261,
      "CWE134_Uncontrolled_Format_String__char_environment_printf": 5262,
      "CWE134_Uncontrolled_Format_String__char_environment_fprintf": 5263,
      "CWE134_Uncontrolled_Format_String__char_environment_vfprintf": 5264,
      "CWE134_Uncontrolled_Format_String__char_environment_vprintf": 5265,
      "CWE134_Uncontrolled_Format_String__char_file_printf": 5266,
      "CWE134_Uncontrolled_Format_String__char_file_fprintf": 5267,
      "CWE134_Uncontrolled_Format_String__char_file_vfprintf": 5268,
      "CWE134_Uncontrolled_Format_String__char_file_vprintf": 5269,
      "CWE134_Uncontrolled_Format_String__char_console_printf": 5270,
      "CWE134_Uncontrolled_Format_String__char_console_fprintf": 5271,
      "CWE134_Uncontrolled_Format_String__char_console_vfprintf": 5272,
      "CWE134_Uncontrolled_Format_String__char_console_vprintf": 5273,
      "CWE606_Unchecked_Loop_Condition__char_environment_": 5274,
      "CWE606_Unchecked_Loop_Condition__char_file": 5275,
      "CWE606_Unchecked_Loop_Condition__char_console": 5276,
      "0x401726": 5277,
      "0x401704": 5278,
      "CWE190_Integer_Overflow__int_connect_socket_multiply_": 5279,
      "CWE190_Integer_Overflow__int_connect_socket_square": 5280,
      "CWE190_Integer_Overflow__int_connect_socket_postinc_": 5281,
      "CWE190_Integer_Overflow__int_connect_socket_preinc_": 5282,
      "CWE190_Integer_Overflow__int_listen_socket_multiply_": 5283,
      "CWE190_Integer_Overflow__int_listen_socket_square": 5284,
      "CWE190_Integer_Overflow__int_listen_socket_postinc_": 5285,
      "CWE190_Integer_Overflow__int_listen_socket_preinc_": 5286,
      "CWE191_Integer_Underflow__int_connect_socket_sub": 5287,
      "CWE191_Integer_Underflow__int_connect_socket_multiply_": 5288,
      "CWE191_Integer_Underflow__int_connect_socket_postdec_": 5289,
      "CWE191_Integer_Underflow__int_connect_socket_predec_": 5290,
      "CWE191_Integer_Underflow__int_listen_socket_sub": 5291,
      "CWE191_Integer_Underflow__int_listen_socket_multiply_": 5292,
      "CWE191_Integer_Underflow__int_listen_socket_postdec_": 5293,
      "CWE191_Integer_Underflow__int_listen_socket_predec_": 5294,
      "0x401784": 5295,
      "CWE131_loop": 5296,
      "CWE190_Integer_Overflow__int_fgets_add": 5297,
      "CWE190_Integer_Overflow__int_fgets_multiply_": 5298,
      "CWE190_Integer_Overflow__int_fgets_square": 5299,
      "CWE400_Resource_Exhaustion__connect_socket_fwrite": 5300,
      "CWE400_Resource_Exhaustion__connect_socket_sleep": 5301,
      "CWE400_Resource_Exhaustion__connect_socket_for_loop": 5302,
      "CWE400_Resource_Exhaustion__listen_socket_fwrite": 5303,
      "CWE400_Resource_Exhaustion__listen_socket_sleep": 5304,
      "CWE400_Resource_Exhaustion__listen_socket_for_loop": 5305,
      "CWE400_Resource_Exhaustion__rand_fwrite": 5306,
      "CWE400_Resource_Exhaustion__rand_sleep": 5307,
      "CWE400_Resource_Exhaustion__rand_for_loop": 5308,
      "CWE400_Resource_Exhaustion__fscanf_fwrite": 5309,
      "CWE400_Resource_Exhaustion__fscanf_sleep": 5310,
      "CWE400_Resource_Exhaustion__fscanf_for_loop": 5311,
      "CWE400_Resource_Exhaustion__fgets_fwrite": 5312,
      "CWE400_Resource_Exhaustion__fgets_sleep": 5313,
      "CWE400_Resource_Exhaustion__fgets_for_loop": 5314,
      "0x602180": 5315,
      "CWE190_Integer_Overflow__int_fgets_postinc_": 5316,
      "CWE190_Integer_Overflow__int_fgets_preinc_": 5317,
      "CWE191_Integer_Underflow__int_fgets_postdec_": 5318,
      "CWE191_Integer_Underflow__int_fgets_predec_": 5319,
      "CWE191_Integer_Underflow__int_fgets_sub": 5320,
      "CWE191_Integer_Underflow__int_fgets_multiply_": 5321,
      "CWE369_Divide_by_Zero__int_connect_socket_divide_": 5322,
      "CWE369_Divide_by_Zero__int_connect_socket_modulo": 5323,
      "CWE369_Divide_by_Zero__int_listen_socket_divide_": 5324,
      "CWE369_Divide_by_Zero__int_listen_socket_modulo": 5325,
      "CWE369_Divide_by_Zero__int_rand_divide_": 5326,
      "CWE369_Divide_by_Zero__int_rand_modulo": 5327,
      "CWE369_Divide_by_Zero__int_fscanf_divide_": 5328,
      "CWE369_Divide_by_Zero__int_fscanf_modulo": 5329,
      "CWE369_Divide_by_Zero__int_fgets_divide_": 5330,
      "CWE369_Divide_by_Zero__int_fgets_modulo": 5331,
      "CWE369_Divide_by_Zero__int_zero_divide_": 5332,
      "CWE369_Divide_by_Zero__int_zero_modulo": 5333,
      "0x400b0f": 5334,
      "0x401a0d": 5335,
      "placement_new_": 5336,
      "355": 5337,
      "da": 5338,
      "0x223": 5339,
      "0x204": 5340,
      "0x40162": 5341,
      "0x401333": 5342,
      "0x400f03": 5343,
      "0x4014be": 5344,
      "0x25d": 5345,
      "0x40127": 5346,
      "0x401256": 5347,
      "0x401371": 5348,
      "0x4013a3": 5349,
      "0x4013b1": 5350,
      "0x4011b7": 5351,
      "0x4011f3": 5352,
      "0x400e38": 5353,
      "0x402004": 5354,
      "0x4018de": 5355,
      "0x401948": 5356,
      "0x4019f0": 5357,
      "0x401137": 5358,
      "0x402924": 5359,
      "0x401c24": 5360,
      "0x401cc0": 5361,
      "0x401346": 5362,
      "0x401654": 5363,
      "0x402018": 5364,
      "0x40111b": 5365,
      "0x400e7b": 5366,
      "0x1098": 5367,
      "0x1080": 5368,
      "0x10b8": 5369,
      "0x254": 5370,
      "0x40194": 5371,
      "0x40187": 5372,
      "__freopen": 5373,
      "0x1268": 5374,
      "0x401476": 5375,
      "0x401253": 5376,
      "0x401537": 5377,
      "0x401613": 5378,
      "0x401824": 5379,
      "0x4018f3": 5380,
      "0x4018ae": 5381,
      "connect_socket_22_goodB2G1Global": 5382,
      "connect_socket_22_goodB2G2Global": 5383,
      "connect_socket_45_goodB2GData": 5384,
      "listen_socket_22_goodB2G1Global": 5385,
      "listen_socket_22_goodB2G2Global": 5386,
      "listen_socket_45_goodB2GData": 5387,
      "0x40114c": 5388,
      "0x402d08": 5389,
      "0x401196": 5390,
      "0x4010dd": 5391,
      "0x4010c1": 5392,
      "0x40149f": 5393,
      "CWE680_Integer_Overflow_to_Buffer_Overflow__new_fixed": 5394,
      "0x40157e": 5395,
      "CWE415_Double_Free__malloc_free_char_": 5396,
      "CWE122_Heap_Based_Buffer_Overflow__cpp_src_char_": 5397,
      "CWE122_Heap_Based_Buffer_Overflow__cpp_dest_char_": 5398,
      "CWE122_Heap_Based_Buffer_Overflow__cpp_src_char_cat": 5399,
      "CWE122_Heap_Based_Buffer_Overflow__cpp_dest_char_cat": 5400,
      "CWE415_Double_Free__malloc_free_long": 5401,
      "CWE415_Double_Free__malloc_free_int64_t": 5402,
      "CWE415_Double_Free__malloc_free_struct_": 5403,
      "CWE675_Duplicate_Operations_on_Resource__open": 5404,
      "CWE675_Duplicate_Operations_on_Resource__fopen": 5405,
      "CWE675_Duplicate_Operations_on_Resource__freopen": 5406,
      "0x400e8a": 5407,
      "0x40151e": 5408,
      "0x402ac4": 5409,
      "CWE364_Signal_Handler_Race_Condition__basic_14StructSigAtomicGood": 5410,
      "CWE364_Signal_Handler_Race_Condition__basic_13StructSigAtomicGood": 5411,
      "CWE364_Signal_Handler_Race_Condition__basic_15StructSigAtomicGood": 5412,
      "CWE364_Signal_Handler_Race_Condition__basic_10StructSigAtomicGood": 5413,
      "CWE364_Signal_Handler_Race_Condition__basic_08StructSigAtomicGood": 5414,
      "CWE364_Signal_Handler_Race_Condition__basic_09StructSigAtomicGood": 5415,
      "CWE364_Signal_Handler_Race_Condition__basic_02StructSigAtomicGood": 5416,
      "CWE364_Signal_Handler_Race_Condition__basic_07StructSigAtomicGood": 5417,
      "CWE364_Signal_Handler_Race_Condition__basic_04StructSigAtomicGood": 5418,
      "CWE364_Signal_Handler_Race_Condition__basic_06StructSigAtomicGood": 5419,
      "CWE364_Signal_Handler_Race_Condition__basic_11StructSigAtomicGood": 5420,
      "CWE364_Signal_Handler_Race_Condition__basic_03StructSigAtomicGood": 5421,
      "CWE364_Signal_Handler_Race_Condition__basic_05StructSigAtomicGood": 5422,
      "0x227": 5423,
      "0x400faa": 5424,
      "0x400f29": 5425,
      "0x4010e7": 5426,
      "0x4012a6": 5427,
      "0x400e35": 5428,
      "0x401818": 5429,
      "0x4018a8": 5430,
      "0x401758": 5431,
      "0x40113c": 5432,
      "0x602099": 5433,
      "strdup_char_": 5434,
      "0x401c70": 5435,
      "0x40158e": 5436,
      "CWE401_Memory_Leak__strdup_char_": 5437,
      "0x4014a3": 5438,
      "0x400faf": 5439,
      "0x40147e": 5440,
      "0x40188b": 5441,
      "0x401be4": 5442,
      "0x40143e": 5443,
      "1b": 5444,
      "2c": 5445,
      "7140": 5446,
      "0x299": 5447,
      "0x607140": 5448,
      "3300": 5449,
      "0x400f39": 5450,
      "0x4010ba": 5451,
      "0x401015": 5452,
      "cpy_45": 5453,
      "cpy_45_badData": 5454,
      "0x4014eb": 5455,
      "0x4014f6": 5456,
      "0x4011d3": 5457,
      "0x3e8": 5458,
      "0x401842": 5459,
      "0x401728": 5460,
      "0x401957": 5461,
      "0x4019c8": 5462,
      "0x4009de": 5463,
      "0x401a12": 5464,
      "0x401a94": 5465,
      "0x401ab8": 5466,
      "0x401abd": 5467,
      "CWE590_Free_Memory_Not_on_Heap__free_char_": 5468,
      "0x4010c3": 5469,
      "ncpy_45": 5470,
      "ncpy_45_badData": 5471,
      "0x401543": 5472,
      "0x4028e4": 5473,
      "0x401686": 5474,
      "0x400f0e": 5475,
      "0x40101a": 5476,
      "0x400fc9": 5477,
      "0x4009f2": 5478,
      "0x401ac2": 5479,
      "0x401acf": 5480,
      "0x603138": 5481,
      "0x4021": 5482,
      "0x40195": 5483,
      "0x401746": 5484,
      "0x400fad": 5485,
      "0x401236": 5486,
      "0x4012d3": 5487,
      "0x4012f6": 5488,
      "0x4013f3": 5489,
      "0x4015d7": 5490,
      "0x4015db": 5491,
      "0x401864": 5492,
      "0x4018f4": 5493,
      "0x400ff1": 5494,
      "0x4009f0": 5495,
      "0x401ab4": 5496,
      "0x40118f": 5497,
      "0x402d14": 5498,
      "0x402d84": 5499,
      "0x400ebe": 5500,
      "0x40119b": 5501,
      "0x401583": 5502,
      "0x401601": 5503,
      "0x400f8e": 5504,
      "0x401457": 5505,
      "0x400fa9": 5506,
      "0x4013f6": 5507,
      "0x400f7f": 5508,
      "0x400f9f": 5509,
      "fter": 5510,
      "ira": 5511,
      "pira": 5512,
      "0x274": 5513,
      "0x245": 5514,
      "0x401141": 5515,
      "rand_22_goodB2G1Global": 5516,
      "rand_22_goodB2G2Global": 5517,
      "rand_45_goodB2GData": 5518,
      "rand_68_goodB2GData": 5519,
      "rand_22_goodG2BGlobal": 5520,
      "setle": 5521,
      "__list": 5522,
      "72_Opera": 5523,
      "0x400fec": 5524,
      "cpy_22_goodG2B1Global": 5525,
      "cpy_22_goodG2B2Global": 5526,
      "0x401373": 5527,
      "fgets_22_goodB2G1Global": 5528,
      "fgets_22_goodB2G2Global": 5529,
      "fgets_45_goodB2GData": 5530,
      "fgets_68_goodB2GData": 5531,
      "fgets_22_goodG2BGlobal": 5532,
      "0x4011eb": 5533,
      "0x4011ac": 5534,
      "0x400eae": 5535,
      "0x2b0": 5536,
      "fscanf_22_goodB2G1Global": 5537,
      "fscanf_22_goodB2G2Global": 5538,
      "fscanf_45_goodB2GData": 5539,
      "fscanf_68_goodB2GData": 5540,
      "fscanf_22_goodG2BGlobal": 5541,
      "0x23e": 5542,
      "0x401753": 5543,
      "0x4017b4": 5544,
      "connect_socket_68_goodB2GData": 5545,
      "connect_socket_22_goodG2BGlobal": 5546,
      "connect_socket_45_badData": 5547,
      "listen_socket_68_goodB2GData": 5548,
      "listen_socket_22_goodG2BGlobal": 5549,
      "listen_socket_45_badData": 5550,
      "0x401a34": 5551,
      "_After": 5552,
      "_Release": 5553,
      "_Expira": 5554,
      "0x400ebb": 5555,
      "CWE672_Opera": 5556,
      "0x4011a1": 5557,
      "ncpy_22_goodG2B1Global": 5558,
      "ncpy_22_goodG2B2Global": 5559,
      "CWE369_Divide_by_Zero__float_rand_": 5560,
      "CWE369_Divide_by_Zero__float_fscanf_": 5561,
      "CWE369_Divide_by_Zero__float_fgets_": 5562,
      "0x402034": 5563,
      "0x400fd7": 5564,
      "0x40104d": 5565,
      "0x400f5c": 5566,
      "ncat_45_goodG2BData": 5567,
      "CWE122_Heap_Based_Buffer_Overflow__cpp_CWE806_char_snprintf": 5568,
      "CWE122_Heap_Based_Buffer_Overflow__cpp_CWE806_char_ncat": 5569,
      "CWE122_Heap_Based_Buffer_Overflow__cpp_CWE805_char_snprintf": 5570,
      "CWE122_Heap_Based_Buffer_Overflow__cpp_CWE805_char_ncat": 5571,
      "CWE680_Integer_Overflow_to_Buffer_Overflow__new_rand": 5572,
      "CWE680_Integer_Overflow_to_Buffer_Overflow__new_fgets": 5573,
      "CWE680_Integer_Overflow_to_Buffer_Overflow__new_fscanf": 5574,
      "0x401446": 5575,
      "0x401ac1": 5576,
      "_on_Resource_After": 5577,
      "_or_Release": 5578,
      "0x401616": 5579,
      "tion_on_Resource_After": 5580,
      "tion_or_Release": 5581,
      "0x40182b": 5582,
      "_Expiration_or_Release": 5583,
      "CWE672_Operation_on_Resource_After": 5584,
      "_Expiration_or_Release__list": 5585,
      "CWE672_Operation_on_Resource_After_Expiration_or_Release__list": 5586,
      "0x219": 5587,
      "0x280": 5588,
      "0x4034": 5589,
      "0x40196": 5590,
      "0x4c8": 5591,
      "0x4014c2": 5592,
      "0x401216": 5593,
      "0x4013dd": 5594,
      "0x4011ab": 5595,
      "0x401533": 5596,
      "0x400e75": 5597,
      "0x400a09": 5598,
      "0x401a40": 5599,
      "0x401ab0": 5600,
      "0x401b50": 5601,
      "0x401307": 5602,
      "0x40160e": 5603,
      "0x4028f4": 5604,
      "0x40146c": 5605,
      "0x400f3c": 5606,
      "0x401447": 5607,
      "0x401aa1": 5608,
      "0x40189e": 5609,
      "0x40142e": 5610,
      "0x40132e": 5611,
      "0x401967": 5612,
      "2a": 5613,
      "9d": 5614,
      "0x401ba": 5615,
      "0x40152": 5616,
      "0x40184": 5617,
      "0x401a4": 5618,
      "0x401cd0": 5619,
      "0x40098": 5620,
      "0x400f21": 5621,
      "0x401415": 5622,
      "0x401419": 5623,
      "0x4014e6": 5624,
      "0x4012b7": 5625,
      "0x2c2": 5626,
      "0x401326": 5627,
      "0x4015ef": 5628,
      "0x2a8": 5629,
      "0x400eff": 5630,
      "0x400e70": 5631,
      "0x401774": 5632,
      "0x401778": 5633,
      "connect_socket_22_badGlobal": 5634,
      "0x400a90": 5635,
      "0x400a81": 5636,
      "listen_socket_22_badGlobal": 5637,
      "0x4019c0": 5638,
      "0x4019c7": 5639,
      "0x6020b0": 5640,
      "0x402a10": 5641,
      "0x401187": 5642,
      "0x40140b": 5643,
      "0x401b10": 5644,
      "0x401bf0": 5645,
      "0x400eb9": 5646,
      "0x400b72": 5647,
      "0x401093": 5648,
      "0x4010cf": 5649,
      "0x40154a": 5650,
      "0x400efa": 5651,
      "CWE680_Integer_Overflow_to_Buffer_Overflow__new_connect_socket_": 5652,
      "CWE680_Integer_Overflow_to_Buffer_Overflow__new_listen_socket_": 5653,
      "0x401743": 5654,
      "0x400f7a": 5655,
      "0x401443": 5656,
      "CWE134_Uncontrolled_Format_String__char_connect_socket_snprintf": 5657,
      "CWE134_Uncontrolled_Format_String__char_listen_socket_snprintf": 5658,
      "CWE134_Uncontrolled_Format_String__char_environment_snprintf": 5659,
      "CWE134_Uncontrolled_Format_String__char_file_snprintf": 5660,
      "CWE134_Uncontrolled_Format_String__char_console_snprintf": 5661,
      "0x40103b": 5662,
      "0x401708": 5663,
      "924924": 5664,
      "5e": 5665,
      "5f": 5666,
      "0x243": 5667,
      "0x400f79": 5668,
      "0x401426": 5669,
      "0x401276": 5670,
      "0x401277": 5671,
      "0x4012a7": 5672,
      "0x401323": 5673,
      "0x4015ee": 5674,
      "0x400e99": 5675,
      "0x2b1": 5676,
      "0x40290": 5677,
      "0x401634": 5678,
      "0x401623": 5679,
      "0x4019e2": 5680,
      "0x4019dd": 5681,
      "0x40100a": 5682,
      "0x4008e2": 5683,
      "0x4010b1": 5684,
      "0x40154c": 5685,
      "0x400fd9": 5686,
      "0x400fda": 5687,
      "0x400fb9": 5688,
      "0x401988": 5689,
      "0x400f1c": 5690,
      "0x40120c": 5691,
      "0x40092a": 5692,
      "8_A": 5693,
      "Type": 5694,
      "df": 5695,
      "f5": 5696,
      "fu": 5697,
      "hild": 5698,
      "t_to_A": 5699,
      "ttemp": 5700,
      "124": 5701,
      "0x40167": 5702,
      "588_A": 5703,
      "on_St": 5704,
      "843_": 5705,
      "_Child": 5706,
      "CWE588_A": 5707,
      "CWE843_": 5708,
      "0x400f6f": 5709,
      "0x4010ad": 5710,
      "ruct": 5711,
      "0x401436": 5712,
      "0x25a": 5713,
      "0x4012b6": 5714,
      "0x4012e6": 5715,
      "fgets_68_badData": 5716,
      "fgets_45_badData": 5717,
      "0x4011fe": 5718,
      "0x400e25": 5719,
      "0x400e9f": 5720,
      "0x2b3": 5721,
      "strncpy_68_badData": 5722,
      "strncpy_45_badData": 5723,
      "strncpy_22_badGlobal": 5724,
      "0x4016ae": 5725,
      "0x401868": 5726,
      "0x401848": 5727,
      "0x4018a4": 5728,
      "0x4009ff": 5729,
      "0x401a09": 5730,
      "0x401a41": 5731,
      "0x401a9e": 5732,
      "0x401af1": 5733,
      "CWE121_Stack_Based_Buffer_Overflow__dest": 5734,
      "CWE121_Stack_Based_Buffer_Overflow__dest_char_": 5735,
      "CWE121_Stack_Based_Buffer_Overflow__CWE131_": 5736,
      "popen_68_goodG2BData": 5737,
      "popen_45_goodG2BData": 5738,
      "popen_22_goodG2B1Global": 5739,
      "popen_22_goodG2B2Global": 5740,
      "system_68_goodG2BData": 5741,
      "system_45_goodG2BData": 5742,
      "system_22_goodG2B1Global": 5743,
      "system_22_goodG2B2Global": 5744,
      "_Non_St": 5745,
      "class_alloca_": 5746,
      "CWE590_Free_Memory_Not_on_Heap__delete_char_": 5747,
      "CWE590_Free_Memory_Not_on_Heap__delete_int_": 5748,
      "0x401403": 5749,
      "0x401b40": 5750,
      "0x401bf4": 5751,
      "CWE364_Signal_Handler_Race_Condition__basic_18": 5752,
      "CWE364_Signal_Handler_Race_Condition__basic_01": 5753,
      "CWE364_Signal_Handler_Race_Condition__basic_16": 5754,
      "CWE364_Signal_Handler_Race_Condition__basic_17": 5755,
      "_Confu": 5756,
      "0x40158b": 5757,
      "0x40106d": 5758,
      "0x4010d1": 5759,
      "0x402e64": 5760,
      "0x4016d7": 5761,
      "0x4016db": 5762,
      "CWE590_Free_Memory_Not_on_Heap__delete_array_class_": 5763,
      "_Pointer__": 5764,
      "0x40104b": 5765,
      "0x400fa5": 5766,
      "0x401462": 5767,
      "0x400f3d": 5768,
      "0x400fb2": 5769,
      "0x401744": 5770,
      "0x401441": 5771,
      "0x40147c": 5772,
      "0x40137b": 5773,
      "ccess": 5774,
      "0x401909": 5775,
      "0x400a8e": 5776,
      "_of_Non_St": 5777,
      "ure_Pointer__": 5778,
      "Type_Confu": 5779,
      "t_to_Access": 5780,
      "ttempt_to_Access": 5781,
      "_Child_of_Non_St": 5782,
      "CWE588_Attempt_to_Access": 5783,
      "CWE843_Type_Confu": 5784,
      "ructure_Pointer__": 5785,
      "CWE121_Stack_Based_Buffer_Overflow__dest_char_alloca_": 5786,
      "_Child_of_Non_Structure_Pointer__": 5787,
      "CWE588_Attempt_to_Access_Child_of_Non_Structure_Pointer__": 5788,
      "4c": 5789,
      "0x20f": 5790,
      "284": 5791,
      "0x400f99": 5792,
      "0x400f81": 5793,
      "0x400fbe": 5794,
      "0x4014aa": 5795,
      "0x401287": 5796,
      "0x401357": 5797,
      "0x4015d6": 5798,
      "0x400e9b": 5799,
      "0x401673": 5800,
      "0x4016a7": 5801,
      "0x4018c7": 5802,
      "0x4017d4": 5803,
      "0x401081": 5804,
      "0x402a94": 5805,
      "0x402ae4": 5806,
      "0x401483": 5807,
      "0x402d44": 5808,
      "0x401b00": 5809,
      "0x4016c3": 5810,
      "0x401347": 5811,
      "0x402b04": 5812,
      "0x40146b": 5813,
      "0x400fbf": 5814,
      "0x401571": 5815,
      "0x40170e": 5816,
      "0x400a0e": 5817,
      "0x400a2a": 5818,
      "0x401a4d": 5819,
      "1a": 5820,
      "4_Imprope": 5821,
      "do": 5822,
      "double": 5823,
      "f9": 5824,
      "hu": 5825,
      "l__": 5826,
      "n__open_": 5827,
      "tine": 5828,
      "tdo": 5829,
      "wn__open_": 5830,
      "0x28a": 5831,
      "ata_": 5832,
      "64_A": 5833,
      "ition": 5834,
      "0x400f95": 5835,
      "0x400f46": 5836,
      "0x400f85": 5837,
      "0x401019": 5838,
      "0x4010b7": 5839,
      "entine": 5840,
      "0x401496": 5841,
      "0x401493": 5842,
      "0x40122c": 5843,
      "fgets_22_badGlobal": 5844,
      "0x402ea4": 5845,
      "0x4016cd": 5846,
      "0x4016f3": 5847,
      "0x4017a8": 5848,
      "CWE122_Heap_Based_Buffer_Overflow__CWE131_loop": 5849,
      "_Data_": 5850,
      "CWE404_Imprope": 5851,
      "0x400926": 5852,
      "loop_22_badGlobal": 5853,
      "CWE122_Heap_Based_Buffer_Overflow__c_src_char_": 5854,
      "CWE122_Heap_Based_Buffer_Overflow__c_dest_char_": 5855,
      "CWE122_Heap_Based_Buffer_Overflow__c_src_char_cat": 5856,
      "CWE122_Heap_Based_Buffer_Overflow__c_dest_char_cat": 5857,
      "CWE464_A": 5858,
      "0x402dc4": 5859,
      "r_Resource": 5860,
      "0x401b30": 5861,
      "0x401bb8": 5862,
      "Structure": 5863,
      "0x400b3": 5864,
      "0x401506": 5865,
      "0x40130f": 5866,
      "0x4010f5": 5867,
      "CWE690_NULL_Deref_From_Return__fopen": 5868,
      "0x401696": 5869,
      "ed_string": 5870,
      "0x40139b": 5871,
      "CWE197_Numeric_Truncation_Error__short_large": 5872,
      "CWE680_Integer_Overflow_to_Buffer_Overflow__malloc_fixed": 5873,
      "CWE617_Reachable_Assertion__fixed": 5874,
      "CWE761_Free_Pointer_Not_at_Start_of_Buffer__char_environment_": 5875,
      "CWE761_Free_Pointer_Not_at_Start_of_Buffer__char_fix": 5876,
      "CWE761_Free_Pointer_Not_at_Start_of_Buffer__char_file": 5877,
      "CWE761_Free_Pointer_Not_at_Start_of_Buffer__char_console": 5878,
      "ddition": 5879,
      "CWE563_Unused_Variable__unused_value_char_": 5880,
      "CWE427_Uncontrolled_Search_Path_Element__char_environment_": 5881,
      "CWE427_Uncontrolled_Search_Path_Element__char_file": 5882,
      "CWE427_Uncontrolled_Search_Path_Element__char_console": 5883,
      "CWE78_OS_Command_Injection__char_connect_socket_execl": 5884,
      "CWE78_OS_Command_Injection__char_connect_socket_execlp": 5885,
      "CWE78_OS_Command_Injection__char_listen_socket_execl": 5886,
      "CWE78_OS_Command_Injection__char_listen_socket_execlp": 5887,
      "CWE78_OS_Command_Injection__char_environment_execl": 5888,
      "CWE78_OS_Command_Injection__char_environment_execlp": 5889,
      "CWE78_OS_Command_Injection__char_file_execl": 5890,
      "CWE78_OS_Command_Injection__char_file_execlp": 5891,
      "CWE78_OS_Command_Injection__char_console_execl": 5892,
      "CWE78_OS_Command_Injection__char_console_execlp": 5893,
      "CWE563_Unused_Variable__unused_value_struct_": 5894,
      "CWE122_Heap_Based_Buffer_Overflow__sizeof_int64_t": 5895,
      "CWE122_Heap_Based_Buffer_Overflow__sizeof_struct_": 5896,
      "CWE122_Heap_Based_Buffer_Overflow__sizeof_double": 5897,
      "0x40153e": 5898,
      "0x400a4b": 5899,
      "0x402ce4": 5900,
      "_of_Data_": 5901,
      "_Shu": 5902,
      "_Sentine": 5903,
      "CWE121_Stack_Based_Buffer_Overflow__src_char_declare_": 5904,
      "CWE121_Stack_Based_Buffer_Overflow__src_char_declare_cat": 5905,
      "CWE197_Numeric_Truncation_Error__int_rand_to_char_": 5906,
      "CWE197_Numeric_Truncation_Error__int_rand_to_short_": 5907,
      "CWE197_Numeric_Truncation_Error__int_fgets_to_char_": 5908,
      "CWE197_Numeric_Truncation_Error__int_fgets_to_short_": 5909,
      "CWE197_Numeric_Truncation_Error__int_fscanf_to_char_": 5910,
      "CWE197_Numeric_Truncation_Error__int_fscanf_to_short_": 5911,
      "CWE197_Numeric_Truncation_Error__int_connect_socket_to_char_": 5912,
      "CWE197_Numeric_Truncation_Error__int_connect_socket_to_short_": 5913,
      "CWE197_Numeric_Truncation_Error__int_listen_socket_to_char_": 5914,
      "CWE197_Numeric_Truncation_Error__int_listen_socket_to_short_": 5915,
      "CWE197_Numeric_Truncation_Error__int_large_to_char_": 5916,
      "CWE197_Numeric_Truncation_Error__int_large_to_short_": 5917,
      "CWE121_Stack_Based_Buffer_Overflow__src_char_alloca_cat": 5918,
      "CWE773_Missing_Reference_to_Active_File_Descriptor_or_Handle__open": 5919,
      "CWE773_Missing_Reference_to_Active_File_Descriptor_or_Handle__fopen": 5920,
      "0x40116c": 5921,
      "l__basic_": 5922,
      "tdown__open_": 5923,
      "CWE404_Improper_Resource": 5924,
      "CWE464_Addition": 5925,
      "Structure_Sentine": 5926,
      "CWE761_Free_Pointer_Not_at_Start_of_Buffer__char_fixed_string": 5927,
      "_of_Data_Structure_Sentine": 5928,
      "_Shutdown__open_": 5929,
      "CWE404_Improper_Resource_Shutdown__open_": 5930,
      "CWE464_Addition_of_Data_Structure_Sentine": 5931,
      "CWE404_Improper_Resource_Shutdown__open_fclose": 5932,
      "CWE464_Addition_of_Data_Structure_Sentinel__basic_": 5933,
      "_no_close": 5934,
      "0x401ed": 5935,
      "__char_cat": 5936,
      "82_goodG2B": 5937,
      "81_goodG2B": 5938,
      "0x400f33": 5939,
      "0x400f89": 5940,
      "0x400f61": 5941,
      "0x400fe9": 5942,
      "0x21e": 5943,
      "0x401257": 5944,
      "0x401297": 5945,
      "0x401393": 5946,
      "0x401353": 5947,
      "0x4013cc": 5948,
      "0x4015b7": 5949,
      "0x400e55": 5950,
      "0x400eeb": 5951,
      "0x22f": 5952,
      "0x402be": 5953,
      "0x4017fb": 5954,
      "0x400a02": 5955,
      "0x401998": 5956,
      "0x402df8": 5957,
      "0x401b34": 5958,
      "0x400ebf": 5959,
      "0x400b09": 5960,
      "0x400b32": 5961,
      "0x401097": 5962,
      "0x40106a": 5963,
      "3301": 5964,
      "0x401545": 5965,
      "0x402e54": 5966,
      "0x401f84": 5967,
      "0x402834": 5968,
      "0x401d24": 5969,
      "0x40146f": 5970,
      "0x40157c": 5971,
      "0x40147b": 5972,
      "0x40131b": 5973,
      "0x400a5e": 5974,
      "0x400e7c": 5975,
      "__fopen_no_close": 5976,
      "__open_no_close": 5977,
      "CWE665_Improper_Initialization__char_": 5978,
      "CWE665_Improper_Initialization__char_cat": 5979,
      "CWE775_Missing_Release_of_File_Descriptor_or_Handle__fopen_no_close": 5980,
      "CWE775_Missing_Release_of_File_Descriptor_or_Handle__open_no_close": 5981,
      "7b": 5982,
      "9a": 5983,
      "0x369": 5984,
      "0x289": 5985,
      "0x660": 5986,
      "0x401cd": 5987,
      "int_22_goodB2G1Global": 5988,
      "rand_68_badData": 5989,
      "rand_45_badData": 5990,
      "rand_22_badGlobal": 5991,
      "0x6042": 5992,
      "malloc_68_goodB2GData": 5993,
      "malloc_68_badDataForGoodSink": 5994,
      "0x1280": 5995,
      "0x400f30": 5996,
      "0x400fd2": 5997,
      "0x401045": 5998,
      "0x401063": 5999,
      "0x4010fd": 6000,
      "ifstream_68_badData": 6001,
      "open_68_badData": 6002,
      "0x21d": 6003,
      "0x4014fe": 6004,
      "0x4014cc": 6005,
      "0x4012ee": 6006,
      "0x4012e7": 6007,
      "0x4012d7": 6008,
      "0x4013b7": 6009,
      "0x4011aa": 6010,
      "0x4011ee": 6011,
      "fopen_68_badData": 6012,
      "0x400e40": 6013,
      "0x400e46": 6014,
      "0x400ec7": 6015,
      "0x22c": 6016,
      "0x22d": 6017,
      "0x2bb": 6018,
      "realloc_68_goodG2BData": 6019,
      "realloc_45_goodG2BData": 6020,
      "realloc_45_badData": 6021,
      "realloc_68_goodB2GData": 6022,
      "realloc_68_badDataForGoodSink": 6023,
      "calloc_68_goodG2BData": 6024,
      "calloc_45_goodG2BData": 6025,
      "calloc_45_badData": 6026,
      "calloc_68_goodB2GData": 6027,
      "calloc_68_badDataForGoodSink": 6028,
      "fscanf_68_badData": 6029,
      "fscanf_45_badData": 6030,
      "fscanf_22_badGlobal": 6031,
      "0x402ed": 6032,
      "0x401844": 6033,
      "0x4018f8": 6034,
      "0x4017eb": 6035,
      "0x401794": 6036,
      "0x40112f": 6037,
      "0x401083": 6038,
      "0x400ffd": 6039,
      "connect_socket_22_goodG2B1Global": 6040,
      "0x400a89": 6041,
      "0x400abb": 6042,
      "listen_socket_22_goodG2B1Global": 6043,
      "0x401968": 6044,
      "0x4019ef": 6045,
      "0x4019fc": 6046,
      "0x401005": 6047,
      "0x401a50": 6048,
      "0x401a48": 6049,
      "0x401a52": 6050,
      "CWE121_Stack_Based_Buffer_Overflow__placement_new": 6051,
      "CWE121_Stack_Based_Buffer_Overflow__placement_new_": 6052,
      "0x402a84": 6053,
      "0x402ab4": 6054,
      "declare_45_goodG2BData": 6055,
      "0x401481": 6056,
      "0x400ed2": 6057,
      "0x402d74": 6058,
      "0x402d98": 6059,
      "0x4010d5": 6060,
      "0x402cc4": 6061,
      "ofstream_68_badData": 6062,
      "0x403014": 6063,
      "0x4014ae": 6064,
      "0x400fd1": 6065,
      "0x40133e": 6066,
      "0x400f3a": 6067,
      "0x400fb5": 6068,
      "ncat_22_goodG2B1Global": 6069,
      "ncat_22_goodG2B2Global": 6070,
      "CWE476_NULL_Pointer_Dereference__int_": 6071,
      "0x400fcc": 6072,
      "0x400e3b": 6073,
      "CWE415_Double_Free__malloc_free_int_": 6074,
      "0x602100": 6075,
      "0x401aac": 6076,
      "0x400e7a": 6077,
      "0x401356": 6078,
      "0x40123d": 6079,
      "0x400a3a": 6080,
      "CWE121_Stack_Based_Buffer_Overflow__placement_new_alloca_": 6081,
      "1d": 6082,
      "tmp": 6083,
      "0x290": 6084,
      "0x229": 6085,
      "0x232": 6086,
      "0x460": 6087,
      "0x28b": 6088,
      "0x4023": 6089,
      "0x401eb": 6090,
      "0x401944": 6091,
      "6461": 6092,
      "0x4014fb": 6093,
      "0x401235": 6094,
      "0x4012ac": 6095,
      "0x40129b": 6096,
      "0x2d8": 6097,
      "0x2db": 6098,
      "0x4011e7": 6099,
      "0x4015be": 6100,
      "0x400e15": 6101,
      "0x22e": 6102,
      "0x402eb": 6103,
      "0x23d": 6104,
      "0x401855": 6105,
      "0x401874": 6106,
      "0x401754": 6107,
      "0x400ffe": 6108,
      "0x400a9e": 6109,
      "0x401993": 6110,
      "0x400928": 6111,
      "0x4009e2": 6112,
      "0x4009a2": 6113,
      "0x401af0": 6114,
      "0x4029f8": 6115,
      "0x401486": 6116,
      "0x400edb": 6117,
      "6e66": 6118,
      "0x40140c": 6119,
      "0x401b11": 6120,
      "0x400eb7": 6121,
      "0x401c54": 6122,
      "0x401c04": 6123,
      "0x401cb4": 6124,
      "0x401657": 6125,
      "0x402048": 6126,
      "mktemp": 6127,
      "0x402864": 6128,
      "0x4028d4": 6129,
      "0x400f0a": 6130,
      "0x401416": 6131,
      "0x58585858586461": 6132,
      "0x5858585858586e66": 6133,
      "0x401748": 6134,
      "0x400aaa": 6135,
      "0x400ac2": 6136,
      "tempnam": 6137,
      "0x40171b": 6138,
      "0x402de4": 6139,
      "0x401637": 6140,
      "tmpnam": 6141,
      "0x5858585858646162": 6142,
      "cess": 6143,
      "nto": 6144,
      "xst": 6145,
      "0x214": 6146,
      "0x244": 6147,
      "opt": 6148,
      "0x336": 6149,
      "sets": 6150,
      "0x401de": 6151,
      "0x401ad4": 6152,
      "0x401ea4": 6153,
      "int_22_goodB2G2Global": 6154,
      "__xst": 6155,
      "0x400ba": 6156,
      "0x41b": 6157,
      "0x400fc7": 6158,
      "0x4010eb": 6159,
      "t_nto": 6160,
      "ockopt": 6161,
      "0x401206": 6162,
      "0x4012c6": 6163,
      "0x4012c9": 6164,
      "0x2c6": 6165,
      "0x4013ba": 6166,
      "0x4013e1": 6167,
      "0x4013bc": 6168,
      "0x401162": 6169,
      "0x4011ec": 6170,
      "inet_nto": 6171,
      "access": 6172,
      "0x2a0": 6173,
      "0x2ae": 6174,
      "0x400efe": 6175,
      "0x4016bd": 6176,
      "r9d": 6177,
      "0x4018b7": 6178,
      "0x4017fe": 6179,
      "0x4017b1": 6180,
      "0x40108f": 6181,
      "connect_socket_22_goodG2B2Global": 6182,
      "0x400a40": 6183,
      "0x400a42": 6184,
      "listen_socket_22_goodG2B2Global": 6185,
      "0x401159": 6186,
      "0x40115f": 6187,
      "0x4009ea": 6188,
      "0x4009a8": 6189,
      "0x4009f3": 6190,
      "0x401a10": 6191,
      "0x402a38": 6192,
      "0x402a27": 6193,
      "0x402914": 6194,
      "0x400ed9": 6195,
      "0x400edd": 6196,
      "0x402db4": 6197,
      "0x401b94": 6198,
      "0x400ebc": 6199,
      "0x401c18": 6200,
      "0x400b29": 6201,
      "0x40150c": 6202,
      "0x40155e": 6203,
      "0x40106f": 6204,
      "0xffffff80": 6205,
      "0x402c84": 6206,
      "rand_multiply_68_badData": 6207,
      "rand_multiply_45_badData": 6208,
      "rand_multiply_22_badGlobal": 6209,
      "fscanf_multiply_68_badData": 6210,
      "fscanf_multiply_45_badData": 6211,
      "fscanf_multiply_22_badGlobal": 6212,
      "ariable": 6213,
      "0x402854": 6214,
      "0x401d38": 6215,
      "0x40105e": 6216,
      "0x401693": 6217,
      "0x400f2e": 6218,
      "0x40139c": 6219,
      "0x403124": 6220,
      "0x401703": 6221,
      "0x40131e": 6222,
      "nameinfo": 6223,
      "0x400a5d": 6224,
      "placement_new_45": 6225,
      "init_variable": 6226,
      "0x400e8e": 6227,
      "0x400ea9": 6228,
      "0x40135b": 6229,
      "0x401ad0": 6230,
      "getnameinfo": 6231,
      "0x401804": 6232,
      "_placement_new_45": 6233,
      "CWE590_Free_Memory_Not_on_Heap__free_char_static_": 6234,
      "setsockopt": 6235,
      "__xstat": 6236,
      "inet_ntoa": 6237,
      "init_variable_char_": 6238,
      "3e": 6239,
      "0x470": 6240,
      "0x391": 6241,
      "0x381": 6242,
      "0x40193": 6243,
      "0x400de": 6244,
      "0x400a8d": 6245,
      "0x400f26": 6246,
      "0x400f6b": 6247,
      "0x34b": 6248,
      "0x21a": 6249,
      "0x21c": 6250,
      "0x401286": 6251,
      "0x4013eb": 6252,
      "0x4013c7": 6253,
      "0x4011d7": 6254,
      "0x4015c5": 6255,
      "0x27e": 6256,
      "0x2a9": 6257,
      "0x3a0": 6258,
      "0x2b9": 6259,
      "0x402ca": 6260,
      "0x7530": 6261,
      "0x4017e4": 6262,
      "0x400ff9": 6263,
      "0x40110e": 6264,
      "0x400a58": 6265,
      "0x400a21": 6266,
      "0x400a43": 6267,
      "0x400a67": 6268,
      "0x401978": 6269,
      "0x4009f4": 6270,
      "0x401ae0": 6271,
      "0x402a00": 6272,
      "0x402a20": 6273,
      "0x40148c": 6274,
      "0x401bc4": 6275,
      "0x401c10": 6276,
      "0x400b11": 6277,
      "0x40109f": 6278,
      "0x40158f": 6279,
      "0x401553": 6280,
      "0x400c12": 6281,
      "0x40138e": 6282,
      "0x40149c": 6283,
      "0x402e44": 6284,
      "0x402e04": 6285,
      "0x403084": 6286,
      "0x401f98": 6287,
      "0x401da0": 6288,
      "0x401687": 6289,
      "0x40102a": 6290,
      "0x40094e": 6291,
      "0x400e5b": 6292,
      "0x401591": 6293,
      "0x40159e": 6294,
      "0x401316": 6295,
      "0x400a3e": 6296,
      "0x400952": 6297,
      "0x401ce0": 6298,
      "0x400b4b": 6299,
      "3b": 6300,
      "0x212": 6301,
      "0x237": 6302,
      "0x242": 6303,
      "0x217": 6304,
      "0x2ce": 6305,
      "0x40185": 6306,
      "0x40090": 6307,
      "0x400f10": 6308,
      "0x400f71": 6309,
      "0x400f93": 6310,
      "0x400f51": 6311,
      "0x400f05": 6312,
      "0x400f4a": 6313,
      "0x400fe1": 6314,
      "0x21f": 6315,
      "0x4014ba": 6316,
      "0x4014db": 6317,
      "0x40122f": 6318,
      "0x4012bd": 6319,
      "0x401327": 6320,
      "fgets_22_goodG2B1Global": 6321,
      "0x401165": 6322,
      "0x401115": 6323,
      "0x4011cc": 6324,
      "0x4011fc": 6325,
      "0x4015ce": 6326,
      "0x4015a7": 6327,
      "0x400eaa": 6328,
      "0x400e6c": 6329,
      "0x400ecb": 6330,
      "snprintf_22_goodG2B1Global": 6331,
      "snprintf_22_goodG2B2Global": 6332,
      "0x4018d1": 6333,
      "0x4017e8": 6334,
      "0x40112b": 6335,
      "0x401109": 6336,
      "0x400a13": 6337,
      "0x400a22": 6338,
      "0x400a95": 6339,
      "0x400ab4": 6340,
      "0x400af4": 6341,
      "0x400ae6": 6342,
      "0x400a6b": 6343,
      "0x401a6c": 6344,
      "0x401a5f": 6345,
      "0x402a67": 6346,
      "0x400d59": 6347,
      "0x402d78": 6348,
      "0x401b48": 6349,
      "0x401b01": 6350,
      "0x401c30": 6351,
      "0x400b37": 6352,
      "CWE401_Memory_Leak__new_int_": 6353,
      "CWE401_Memory_Leak__new_int64_t_": 6354,
      "0x401091": 6355,
      "0x40158c": 6356,
      "0x40130e": 6357,
      "0x40134c": 6358,
      "0x402c88": 6359,
      "malloc_82": 6360,
      "malloc_81": 6361,
      "malloc_82_base": 6362,
      "malloc_81_base": 6363,
      "0x40149a": 6364,
      "CWE401_Memory_Leak__new_array_int_": 6365,
      "CWE401_Memory_Leak__new_array_int64_t_": 6366,
      "0x400fdd": 6367,
      "0x401331": 6368,
      "0x40133b": 6369,
      "0x401025": 6370,
      "0x40157b": 6371,
      "0x400fcf": 6372,
      "0x4009f6": 6373,
      "CWE401_Memory_Leak__twoIntsStruct_realloc_": 6374,
      "CWE401_Memory_Leak__twoIntsStruct_calloc_": 6375,
      "CWE401_Memory_Leak__int_realloc_": 6376,
      "CWE401_Memory_Leak__int_calloc_": 6377,
      "CWE401_Memory_Leak__int64_t_realloc_": 6378,
      "CWE401_Memory_Leak__int64_t_calloc_": 6379,
      "CWE401_Memory_Leak__struct_twoIntsStruct_realloc_": 6380,
      "CWE401_Memory_Leak__struct_twoIntsStruct_calloc_": 6381,
      "0x401706": 6382,
      "0x40170b": 6383,
      "0x40136f": 6384,
      "0x400f1d": 6385,
      "0x602140": 6386,
      "0x400e8c": 6387,
      "0x400eaf": 6388,
      "0x602110": 6389,
      "0x401908": 6390,
      "0x40153b": 6391,
      "0x40180e": 6392,
      "0x400b0d": 6393,
      "0x40123f": 6394,
      "CWE401_Memory_Leak__new_TwoIntsClass_": 6395,
      "CWE401_Memory_Leak__new_array_TwoIntsClass_": 6396,
      "0x40184e": 6397,
      "CWE364_Signal_Handler_Race_Condition__basic_18StructSigAtomicGood": 6398,
      "CWE364_Signal_Handler_Race_Condition__basic_01StructSigAtomicGood": 6399,
      "CWE364_Signal_Handler_Race_Condition__basic_16StructSigAtomicGood": 6400,
      "CWE364_Signal_Handler_Race_Condition__basic_17StructSigAtomicGood": 6401,
      "7a": 6402,
      "7d": 6403,
      "0x226": 6404,
      "0x246": 6405,
      "0x208": 6406,
      "0x36c": 6407,
      "184": 6408,
      "0x400feb": 6409,
      "0x400f6e": 6410,
      "0x4010ff": 6411,
      "0x401051": 6412,
      "0x4014c7": 6413,
      "0x4014cb": 6414,
      "0x401291": 6415,
      "0x4012d2": 6416,
      "0x4012d6": 6417,
      "0x4012fc": 6418,
      "0x401376": 6419,
      "0x4013b3": 6420,
      "0x401177": 6421,
      "0x4011bc": 6422,
      "0x401536": 6423,
      "0x400e05": 6424,
      "0x400e9c": 6425,
      "0x400ecf": 6426,
      "0x400e2b": 6427,
      "realloc_22_badGlobal": 6428,
      "ea8": 6429,
      "calloc_22_badGlobal": 6430,
      "0x402ad": 6431,
      "0x4016e3": 6432,
      "0x4016f6": 6433,
      "0x23b": 6434,
      "b0e": 6435,
      "0x4018e8": 6436,
      "0x401768": 6437,
      "0x4017e3": 6438,
      "0x400ffb": 6439,
      "0x400a70": 6440,
      "0x400a48": 6441,
      "0x400ab5": 6442,
      "0x40100e": 6443,
      "0x4009a4": 6444,
      "0x4009ee": 6445,
      "0x4009b2": 6446,
      "0x4009cb": 6447,
      "0x401a80": 6448,
      "0x401af4": 6449,
      "0x40118a": 6450,
      "0x40107d": 6451,
      "0x402d64": 6452,
      "0x402d54": 6453,
      "0x402d24": 6454,
      "0x401b04": 6455,
      "0x401bc7": 6456,
      "0x401603": 6457,
      "0x403094": 6458,
      "0x403024": 6459,
      "0x4013fc": 6460,
      "0x400fbd": 6461,
      "0x400f2d": 6462,
      "0x40315": 6463,
      "0x40137f": 6464,
      "0x400a5f": 6465,
      "0x40153c": 6466,
      "0x400a0c": 6467,
      "0x40125a": 6468,
      "0x40125d": 6469,
      "0x40127a": 6470,
      "0x402904": 6471,
      "_int_22": 6472,
      "0x247": 6473,
      "0x4044": 6474,
      "0x4024": 6475,
      "0x401805": 6476,
      "0x1fd": 6477,
      "0x40091": 6478,
      "0x400ca": 6479,
      "0x401062": 6480,
      "cpy_22_badGlobal": 6481,
      "0x4014ec": 6482,
      "0x4012fb": 6483,
      "0x40124c": 6484,
      "0x401312": 6485,
      "0x4013ab": 6486,
      "0x4013d1": 6487,
      "fgets_22_goodG2B2Global": 6488,
      "0x4011b5": 6489,
      "0x4015de": 6490,
      "0x4015eb": 6491,
      "0x401596": 6492,
      "0x4015a6": 6493,
      "0x4015f1": 6494,
      "0x400e65": 6495,
      "0x400e22": 6496,
      "0x400e48": 6497,
      "0x400e42": 6498,
      "0x400e85": 6499,
      "0x400e83": 6500,
      "0x400e4a": 6501,
      "0x400ea3": 6502,
      "0x40293": 6503,
      "0x402284": 6504,
      "0x401627": 6505,
      "0x401865": 6506,
      "CWE122_Heap_Based_Buffer_Overflow__placement_new_": 6507,
      "0x400a97": 6508,
      "0x400a61": 6509,
      "0x400a03": 6510,
      "0x401977": 6511,
      "0x40115b": 6512,
      "0x4009aa": 6513,
      "0x4009f8": 6514,
      "0x4009d2": 6515,
      "0x401a64": 6516,
      "0x402a90": 6517,
      "0x40118e": 6518,
      "_int_21": 6519,
      "0x402d94": 6520,
      "0x401b24": 6521,
      "0x401bb4": 6522,
      "0x401191": 6523,
      "0x401197": 6524,
      "0x401c28": 6525,
      "0x401c78": 6526,
      "0x401cb6": 6527,
      "0x400b41": 6528,
      "0x400bd2": 6529,
      "0x4008de": 6530,
      "ncpy_22_badGlobal": 6531,
      "0x4010f1": 6532,
      "0x402c98": 6533,
      "0x402e24": 6534,
      "0x40302e": 6535,
      "CWE762_Mismatched_Memory_Management_Routines__new_delete_array_int_22": 6536,
      "CWE762_Mismatched_Memory_Management_Routines__new_delete_array_int_21": 6537,
      "CWE762_Mismatched_Memory_Management_Routines__new_delete_array_int64_t_22": 6538,
      "CWE762_Mismatched_Memory_Management_Routines__new_delete_array_int64_t_21": 6539,
      "CWE762_Mismatched_Memory_Management_Routines__new_delete_array_class_22": 6540,
      "CWE762_Mismatched_Memory_Management_Routines__new_delete_array_class_21": 6541,
      "CWE762_Mismatched_Memory_Management_Routines__new_delete_array_char_22": 6542,
      "CWE762_Mismatched_Memory_Management_Routines__new_delete_array_char_21": 6543,
      "CWE762_Mismatched_Memory_Management_Routines__new_delete_array_long_22": 6544,
      "CWE762_Mismatched_Memory_Management_Routines__new_delete_array_long_21": 6545,
      "CWE762_Mismatched_Memory_Management_Routines__new_delete_array_struct_22": 6546,
      "CWE762_Mismatched_Memory_Management_Routines__new_delete_array_struct_21": 6547,
      "CWE762_Mismatched_Memory_Management_Routines__new_array_delete_int_22": 6548,
      "CWE762_Mismatched_Memory_Management_Routines__new_array_delete_int_21": 6549,
      "CWE762_Mismatched_Memory_Management_Routines__new_array_delete_int64_t_22": 6550,
      "CWE762_Mismatched_Memory_Management_Routines__new_array_delete_int64_t_21": 6551,
      "CWE762_Mismatched_Memory_Management_Routines__new_array_delete_class_22": 6552,
      "CWE762_Mismatched_Memory_Management_Routines__new_array_delete_class_21": 6553,
      "CWE762_Mismatched_Memory_Management_Routines__new_array_delete_char_22": 6554,
      "CWE762_Mismatched_Memory_Management_Routines__new_array_delete_char_21": 6555,
      "CWE762_Mismatched_Memory_Management_Routines__new_array_delete_long_22": 6556,
      "CWE762_Mismatched_Memory_Management_Routines__new_array_delete_long_21": 6557,
      "CWE762_Mismatched_Memory_Management_Routines__new_array_delete_struct_22": 6558,
      "CWE762_Mismatched_Memory_Management_Routines__new_array_delete_struct_21": 6559,
      "0x401db0": 6560,
      "CWE762_Mismatched_Memory_Management_Routines__new_free_int_22": 6561,
      "CWE762_Mismatched_Memory_Management_Routines__new_free_int_21": 6562,
      "CWE762_Mismatched_Memory_Management_Routines__new_free_int64_t_22": 6563,
      "CWE762_Mismatched_Memory_Management_Routines__new_free_int64_t_21": 6564,
      "CWE762_Mismatched_Memory_Management_Routines__new_free_class_22": 6565,
      "CWE762_Mismatched_Memory_Management_Routines__new_free_class_21": 6566,
      "CWE762_Mismatched_Memory_Management_Routines__new_free_long_22": 6567,
      "CWE762_Mismatched_Memory_Management_Routines__new_free_long_21": 6568,
      "CWE762_Mismatched_Memory_Management_Routines__new_free_struct_22": 6569,
      "CWE762_Mismatched_Memory_Management_Routines__new_free_struct_21": 6570,
      "CWE762_Mismatched_Memory_Management_Routines__new_array_free_int_22": 6571,
      "CWE762_Mismatched_Memory_Management_Routines__new_array_free_int_21": 6572,
      "CWE762_Mismatched_Memory_Management_Routines__new_array_free_int64_t_22": 6573,
      "CWE762_Mismatched_Memory_Management_Routines__new_array_free_int64_t_21": 6574,
      "CWE762_Mismatched_Memory_Management_Routines__new_array_free_class_22": 6575,
      "CWE762_Mismatched_Memory_Management_Routines__new_array_free_class_21": 6576,
      "CWE762_Mismatched_Memory_Management_Routines__new_array_free_long_22": 6577,
      "CWE762_Mismatched_Memory_Management_Routines__new_array_free_long_21": 6578,
      "CWE762_Mismatched_Memory_Management_Routines__new_array_free_struct_22": 6579,
      "CWE762_Mismatched_Memory_Management_Routines__new_array_free_struct_21": 6580,
      "ncat_68_badData": 6581,
      "ncat_45_badData": 6582,
      "CWE476_NULL_Pointer_Dereference__class_22": 6583,
      "CWE476_NULL_Pointer_Dereference__class_21": 6584,
      "0x40157f": 6585,
      "0x40172e": 6586,
      "0x40310": 6587,
      "CWE762_Mismatched_Memory_Management_Routines__delete_char_malloc_22": 6588,
      "CWE762_Mismatched_Memory_Management_Routines__delete_char_malloc_21": 6589,
      "CWE762_Mismatched_Memory_Management_Routines__delete_char_realloc_22": 6590,
      "CWE762_Mismatched_Memory_Management_Routines__delete_char_realloc_21": 6591,
      "CWE762_Mismatched_Memory_Management_Routines__delete_char_calloc_22": 6592,
      "CWE762_Mismatched_Memory_Management_Routines__delete_char_calloc_21": 6593,
      "CWE762_Mismatched_Memory_Management_Routines__delete_int_malloc_22": 6594,
      "CWE762_Mismatched_Memory_Management_Routines__delete_int_malloc_21": 6595,
      "CWE762_Mismatched_Memory_Management_Routines__delete_int_realloc_22": 6596,
      "CWE762_Mismatched_Memory_Management_Routines__delete_int_realloc_21": 6597,
      "CWE762_Mismatched_Memory_Management_Routines__delete_int_calloc_22": 6598,
      "CWE762_Mismatched_Memory_Management_Routines__delete_int_calloc_21": 6599,
      "CWE762_Mismatched_Memory_Management_Routines__delete_int64_t_malloc_22": 6600,
      "CWE762_Mismatched_Memory_Management_Routines__delete_int64_t_malloc_21": 6601,
      "CWE762_Mismatched_Memory_Management_Routines__delete_int64_t_realloc_22": 6602,
      "CWE762_Mismatched_Memory_Management_Routines__delete_int64_t_realloc_21": 6603,
      "CWE762_Mismatched_Memory_Management_Routines__delete_int64_t_calloc_22": 6604,
      "CWE762_Mismatched_Memory_Management_Routines__delete_int64_t_calloc_21": 6605,
      "CWE762_Mismatched_Memory_Management_Routines__delete_struct_malloc_22": 6606,
      "CWE762_Mismatched_Memory_Management_Routines__delete_struct_malloc_21": 6607,
      "CWE762_Mismatched_Memory_Management_Routines__delete_struct_realloc_22": 6608,
      "CWE762_Mismatched_Memory_Management_Routines__delete_struct_realloc_21": 6609,
      "CWE762_Mismatched_Memory_Management_Routines__delete_struct_calloc_22": 6610,
      "CWE762_Mismatched_Memory_Management_Routines__delete_struct_calloc_21": 6611,
      "CWE762_Mismatched_Memory_Management_Routines__delete_class_malloc_22": 6612,
      "CWE762_Mismatched_Memory_Management_Routines__delete_class_malloc_21": 6613,
      "CWE762_Mismatched_Memory_Management_Routines__delete_class_realloc_22": 6614,
      "CWE762_Mismatched_Memory_Management_Routines__delete_class_realloc_21": 6615,
      "CWE762_Mismatched_Memory_Management_Routines__delete_class_calloc_22": 6616,
      "CWE762_Mismatched_Memory_Management_Routines__delete_class_calloc_21": 6617,
      "CWE762_Mismatched_Memory_Management_Routines__delete_long_malloc_22": 6618,
      "CWE762_Mismatched_Memory_Management_Routines__delete_long_malloc_21": 6619,
      "CWE762_Mismatched_Memory_Management_Routines__delete_long_realloc_22": 6620,
      "CWE762_Mismatched_Memory_Management_Routines__delete_long_realloc_21": 6621,
      "CWE762_Mismatched_Memory_Management_Routines__delete_long_calloc_22": 6622,
      "CWE762_Mismatched_Memory_Management_Routines__delete_long_calloc_21": 6623,
      "CWE762_Mismatched_Memory_Management_Routines__delete_array_char_malloc_22": 6624,
      "CWE762_Mismatched_Memory_Management_Routines__delete_array_char_malloc_21": 6625,
      "CWE762_Mismatched_Memory_Management_Routines__delete_array_char_realloc_22": 6626,
      "CWE762_Mismatched_Memory_Management_Routines__delete_array_char_realloc_21": 6627,
      "CWE762_Mismatched_Memory_Management_Routines__delete_array_char_calloc_22": 6628,
      "CWE762_Mismatched_Memory_Management_Routines__delete_array_char_calloc_21": 6629,
      "CWE762_Mismatched_Memory_Management_Routines__delete_array_int_malloc_22": 6630,
      "CWE762_Mismatched_Memory_Management_Routines__delete_array_int_malloc_21": 6631,
      "CWE762_Mismatched_Memory_Management_Routines__delete_array_int_realloc_22": 6632,
      "CWE762_Mismatched_Memory_Management_Routines__delete_array_int_realloc_21": 6633,
      "CWE762_Mismatched_Memory_Management_Routines__delete_array_int_calloc_22": 6634,
      "CWE762_Mismatched_Memory_Management_Routines__delete_array_int_calloc_21": 6635,
      "CWE762_Mismatched_Memory_Management_Routines__delete_array_int64_t_malloc_22": 6636,
      "CWE762_Mismatched_Memory_Management_Routines__delete_array_int64_t_malloc_21": 6637,
      "CWE762_Mismatched_Memory_Management_Routines__delete_array_int64_t_realloc_22": 6638,
      "CWE762_Mismatched_Memory_Management_Routines__delete_array_int64_t_realloc_21": 6639,
      "CWE762_Mismatched_Memory_Management_Routines__delete_array_int64_t_calloc_22": 6640,
      "CWE762_Mismatched_Memory_Management_Routines__delete_array_int64_t_calloc_21": 6641,
      "CWE762_Mismatched_Memory_Management_Routines__delete_array_struct_malloc_22": 6642,
      "CWE762_Mismatched_Memory_Management_Routines__delete_array_struct_malloc_21": 6643,
      "CWE762_Mismatched_Memory_Management_Routines__delete_array_struct_realloc_22": 6644,
      "CWE762_Mismatched_Memory_Management_Routines__delete_array_struct_realloc_21": 6645,
      "CWE762_Mismatched_Memory_Management_Routines__delete_array_struct_calloc_22": 6646,
      "CWE762_Mismatched_Memory_Management_Routines__delete_array_struct_calloc_21": 6647,
      "CWE762_Mismatched_Memory_Management_Routines__delete_array_class_malloc_22": 6648,
      "CWE762_Mismatched_Memory_Management_Routines__delete_array_class_malloc_21": 6649,
      "CWE762_Mismatched_Memory_Management_Routines__delete_array_class_realloc_22": 6650,
      "CWE762_Mismatched_Memory_Management_Routines__delete_array_class_realloc_21": 6651,
      "CWE762_Mismatched_Memory_Management_Routines__delete_array_class_calloc_22": 6652,
      "CWE762_Mismatched_Memory_Management_Routines__delete_array_class_calloc_21": 6653,
      "CWE762_Mismatched_Memory_Management_Routines__delete_array_long_malloc_22": 6654,
      "CWE762_Mismatched_Memory_Management_Routines__delete_array_long_malloc_21": 6655,
      "CWE762_Mismatched_Memory_Management_Routines__delete_array_long_realloc_22": 6656,
      "CWE762_Mismatched_Memory_Management_Routines__delete_array_long_realloc_21": 6657,
      "CWE762_Mismatched_Memory_Management_Routines__delete_array_long_calloc_22": 6658,
      "CWE762_Mismatched_Memory_Management_Routines__delete_array_long_calloc_21": 6659,
      "0x401ac0": 6660,
      "0x401ac4": 6661,
      "0x401e80": 6662,
      "0x40096f": 6663,
      "0x400a5c": 6664,
      "0x602160": 6665,
      "0x401aa0": 6666,
      "CWE563_Unused_Variable__unused_value_long": 6667,
      "CWE563_Unused_Variable__unused_value_int64_t": 6668,
      "0x400a2d": 6669,
      "CWE762_Mismatched_Memory_Management_Routines__new_free_char_22": 6670,
      "CWE762_Mismatched_Memory_Management_Routines__new_free_char_21": 6671,
      "CWE762_Mismatched_Memory_Management_Routines__new_array_free_char_22": 6672,
      "CWE762_Mismatched_Memory_Management_Routines__new_array_free_char_21": 6673,
      "CWE122_Heap_Based_Buffer_Overflow__cpp_CWE129_rand_22": 6674,
      "CWE122_Heap_Based_Buffer_Overflow__cpp_CWE129_rand_21": 6675,
      "CWE122_Heap_Based_Buffer_Overflow__cpp_CWE129_fgets_22": 6676,
      "CWE122_Heap_Based_Buffer_Overflow__cpp_CWE129_fgets_21": 6677,
      "CWE122_Heap_Based_Buffer_Overflow__cpp_CWE129_fscanf_22": 6678,
      "CWE122_Heap_Based_Buffer_Overflow__cpp_CWE129_fscanf_21": 6679,
      "CWE122_Heap_Based_Buffer_Overflow__cpp_CWE129_connect_socket_22": 6680,
      "CWE122_Heap_Based_Buffer_Overflow__cpp_CWE129_connect_socket_21": 6681,
      "CWE122_Heap_Based_Buffer_Overflow__cpp_CWE129_listen_socket_22": 6682,
      "CWE122_Heap_Based_Buffer_Overflow__cpp_CWE129_listen_socket_21": 6683,
      "CWE122_Heap_Based_Buffer_Overflow__cpp_CWE129_large_22": 6684,
      "CWE122_Heap_Based_Buffer_Overflow__cpp_CWE129_large_21": 6685,
      "CWE789_Uncontrolled_Mem_Alloc__new_char_rand_22": 6686,
      "CWE789_Uncontrolled_Mem_Alloc__new_char_rand_21": 6687,
      "CWE789_Uncontrolled_Mem_Alloc__new_char_fgets_22": 6688,
      "CWE789_Uncontrolled_Mem_Alloc__new_char_fgets_21": 6689,
      "CWE789_Uncontrolled_Mem_Alloc__new_char_fscanf_22": 6690,
      "CWE789_Uncontrolled_Mem_Alloc__new_char_fscanf_21": 6691,
      "CWE789_Uncontrolled_Mem_Alloc__new_char_connect_socket_22": 6692,
      "CWE789_Uncontrolled_Mem_Alloc__new_char_connect_socket_21": 6693,
      "CWE789_Uncontrolled_Mem_Alloc__new_char_listen_socket_22": 6694,
      "CWE789_Uncontrolled_Mem_Alloc__new_char_listen_socket_21": 6695,
      "CWE762_Mismatched_Memory_Management_Routines__strdup_delete_char_22": 6696,
      "CWE762_Mismatched_Memory_Management_Routines__strdup_delete_char_21": 6697,
      "CWE762_Mismatched_Memory_Management_Routines__strdup_delete_array_char_22": 6698,
      "CWE762_Mismatched_Memory_Management_Routines__strdup_delete_array_char_21": 6699,
      "0x40132f": 6700,
      "0x40186e": 6701,
      "0x40156c": 6702,
      "CWE122_Heap_Based_Buffer_Overflow__placement_new_22": 6703,
      "CWE672_Operation_on_Resource_After_Expiration_or_Release__list_int_22": 6704,
      "CWE672_Operation_on_Resource_After_Expiration_or_Release__list_int_21": 6705,
      "CWE122_Heap_Based_Buffer_Overflow__placement_new_21": 6706,
      "a5": 6707,
      "0x213": 6708,
      "0x233": 6709,
      "0x252": 6710,
      "0x297": 6711,
      "0x211": 6712,
      "0x7ffffffff": 6713,
      "0x40175": 6714,
      "0x40177": 6715,
      "0x400fff": 6716,
      "24924924": 6717,
      "0x400f11": 6718,
      "0x400fce": 6719,
      "0x4010e1": 6720,
      "0x31e": 6721,
      "0x24b": 6722,
      "0x24c": 6723,
      "0x24d": 6724,
      "0x24e": 6725,
      "0xfffffffffffffff": 6726,
      "0x401435": 6727,
      "0x4014e2": 6728,
      "0x4014d2": 6729,
      "0x4012ef": 6730,
      "0x4012dd": 6731,
      "0x40121c": 6732,
      "0x401366": 6733,
      "0x4011f6": 6734,
      "0x4011f7": 6735,
      "0x401523": 6736,
      "0x4015e9": 6737,
      "0x400e67": 6738,
      "0x400ec6": 6739,
      "0x40220": 6740,
      "0x40219": 6741,
      "0x401621": 6742,
      "0x4924924924": 6743,
      "0x4017a4": 6744,
      "0x40110f": 6745,
      "0x400a88": 6746,
      "0x400ae0": 6747,
      "0x400a9c": 6748,
      "0x4019a4": 6749,
      "0x4009ad": 6750,
      "0x4009ac": 6751,
      "0x4009a0": 6752,
      "0x401a60": 6753,
      "0x402a40": 6754,
      "0x400edc": 6755,
      "0x402dc6": 6756,
      "0x401b80": 6757,
      "0x401b70": 6758,
      "0x400ebd": 6759,
      "0x400b79": 6760,
      "0x400b2e": 6761,
      "0x4011a5": 6762,
      "0x4016c6": 6763,
      "0x402cf4": 6764,
      "0x402054": 6765,
      "0x401606": 6766,
      "0x402bb4": 6767,
      "0x40145d": 6768,
      "0x40141b": 6769,
      "0x402fe0": 6770,
      "0x402fc4": 6771,
      "0x400ef5": 6772,
      "0x400fae": 6773,
      "0x400fb1": 6774,
      "0x40102e": 6775,
      "0x400fc1": 6776,
      "0x40136b": 6777,
      "0x40188d": 6778,
      "0x40117b": 6779,
      "0x400a5b": 6780,
      "0x400ad5": 6781,
      "0x40135c": 6782,
      "0x40142c": 6783,
      "0x400a4e": 6784,
      "0x400a8c": 6785,
      "0x40163f": 6786,
      "0x401ce4": 6787,
      "92492": 6788,
      "0x7ffffffffffffff": 6789,
      "0x492492492492492": 6790,
      "0x236": 6791,
      "0x256": 6792,
      "0x291": 6793,
      "0x316": 6794,
      "0x40199": 6795,
      "0x40183": 6796,
      "0x401b0e": 6797,
      "int_22_goodG2BGlobal": 6798,
      "rand_22_goodG2B1Global": 6799,
      "rand_22_goodG2B2Global": 6800,
      "0x400be": 6801,
      "0x400ce": 6802,
      "3313": 6803,
      "3310": 6804,
      "0x400f25": 6805,
      "0x400f91": 6806,
      "0x400fca": 6807,
      "0x400f6d": 6808,
      "0x401055": 6809,
      "0x401065": 6810,
      "0x401029": 6811,
      "0x401053": 6812,
      "0x401052": 6813,
      "0x401412": 6814,
      "0x401466": 6815,
      "0x4014bb": 6816,
      "0x4014fa": 6817,
      "0x40128": 6818,
      "0x4012cd": 6819,
      "0x401259": 6820,
      "0x401275": 6821,
      "0x4012ec": 6822,
      "0x40126b": 6823,
      "0x40124e": 6824,
      "0x4012a9": 6825,
      "0x4013cb": 6826,
      "0x4013db": 6827,
      "0x4013af": 6828,
      "0x4011bd": 6829,
      "0x401512": 6830,
      "0x4015ea": 6831,
      "0x4015fe": 6832,
      "0x4015ab": 6833,
      "0x4015ec": 6834,
      "0x4015ae": 6835,
      "0x4015f6": 6836,
      "0x4015fa": 6837,
      "0x7fc": 6838,
      "0x2a4": 6839,
      "0x400e80": 6840,
      "0x400e95": 6841,
      "0x4e9": 6842,
      "fscanf_22_goodG2B1Global": 6843,
      "fscanf_22_goodG2B2Global": 6844,
      "0x402a8": 6845,
      "0x402d8": 6846,
      "0x402d0": 6847,
      "0x402fd": 6848,
      "0x4016b3": 6849,
      "0x4016f7": 6850,
      "snprintf_68_badData": 6851,
      "snprintf_45_badData": 6852,
      "0x401833": 6853,
      "0x401892": 6854,
      "0x4018b1": 6855,
      "0x4018a1": 6856,
      "0x4017be": 6857,
      "0x4017ee": 6858,
      "0x4017d3": 6859,
      "0x401121": 6860,
      "int64_t_declare_45": 6861,
      "int64_t_declare_68_goodG2BData": 6862,
      "0x400a00": 6863,
      "0x400a20": 6864,
      "0x400a64": 6865,
      "0x400a37": 6866,
      "0x400a82": 6867,
      "0x400a92": 6868,
      "0x400a06": 6869,
      "0x400a79": 6870,
      "0x400a01": 6871,
      "0x400ae2": 6872,
      "0x400a6e": 6873,
      "0x400ae3": 6874,
      "0x400aec": 6875,
      "0x400af2": 6876,
      "0x401914": 6877,
      "0x401918": 6878,
      "0x4019a3": 6879,
      "0x40100c": 6880,
      "0x400970": 6881,
      "0x400976": 6882,
      "0x4009e8": 6883,
      "0x4009d5": 6884,
      "0x401afe": 6885,
      "0x401a1f": 6886,
      "CWE121_Stack_Based_Buffer_Overflow__CWE131_loop": 6887,
      "popen_68_badData": 6888,
      "popen_45_badData": 6889,
      "popen_22_badGlobal": 6890,
      "system_68_badData": 6891,
      "system_45_badData": 6892,
      "system_22_badGlobal": 6893,
      "0x402aed": 6894,
      "0x402a52": 6895,
      "0x402af3": 6896,
      "0x402a3b": 6897,
      "CWE590_Free_Memory_Not_on_Heap__delete_long": 6898,
      "CWE590_Free_Memory_Not_on_Heap__delete_int64_t": 6899,
      "CWE590_Free_Memory_Not_on_Heap__delete_class": 6900,
      "CWE590_Free_Memory_Not_on_Heap__delete_char_alloca_": 6901,
      "CWE590_Free_Memory_Not_on_Heap__delete_long_": 6902,
      "CWE590_Free_Memory_Not_on_Heap__delete_int_alloca_": 6903,
      "CWE590_Free_Memory_Not_on_Heap__delete_int64_t_alloca_": 6904,
      "CWE590_Free_Memory_Not_on_Heap__delete_long_alloca_": 6905,
      "CWE590_Free_Memory_Not_on_Heap__delete_class_alloca_": 6906,
      "0x400ed1": 6907,
      "0x402d28": 6908,
      "0x402dbe": 6909,
      "0x402d9e": 6910,
      "0x402d7b": 6911,
      "0x401b20": 6912,
      "0x401bb7": 6913,
      "0x40119a": 6914,
      "0x401c27": 6915,
      "0x401c17": 6916,
      "0x401c6b": 6917,
      "0x400b03": 6918,
      "0x400b6b": 6919,
      "static_45": 6920,
      "static_68_goodG2BData": 6921,
      "sion__char_": 6922,
      "sion__short_": 6923,
      "0x4010d9": 6924,
      "0x4011a9": 6925,
      "0x40138b": 6926,
      "3309": 6927,
      "0x40165e": 6928,
      "0x402c78": 6929,
      "0x402cfe": 6930,
      "0x40202a": 6931,
      "0x40201a": 6932,
      "0x402e28": 6933,
      "0x402e13": 6934,
      "0x402e16": 6935,
      "0x4016df": 6936,
      "0x403031": 6937,
      "0x4030c7": 6938,
      "0x401f21": 6939,
      "0x401fb7": 6940,
      "0x402814": 6941,
      "0x402874": 6942,
      "0x402824": 6943,
      "0x401d30": 6944,
      "0x401d06": 6945,
      "0x401d03": 6946,
      "CWE415_Double_Free__new_delete_int_22": 6947,
      "CWE415_Double_Free__new_delete_int_21": 6948,
      "CWE415_Double_Free__new_delete_int64_t_22": 6949,
      "CWE415_Double_Free__new_delete_int64_t_21": 6950,
      "CWE415_Double_Free__new_delete_class_22": 6951,
      "CWE415_Double_Free__new_delete_class_21": 6952,
      "CWE415_Double_Free__new_delete_char_22": 6953,
      "CWE415_Double_Free__new_delete_char_21": 6954,
      "CWE415_Double_Free__new_delete_long_22": 6955,
      "CWE415_Double_Free__new_delete_long_21": 6956,
      "CWE415_Double_Free__new_delete_struct_22": 6957,
      "CWE415_Double_Free__new_delete_struct_21": 6958,
      "CWE415_Double_Free__new_delete_array_int_22": 6959,
      "CWE415_Double_Free__new_delete_array_int_21": 6960,
      "CWE415_Double_Free__new_delete_array_int64_t_22": 6961,
      "CWE415_Double_Free__new_delete_array_int64_t_21": 6962,
      "CWE415_Double_Free__new_delete_array_class_22": 6963,
      "CWE415_Double_Free__new_delete_array_class_21": 6964,
      "CWE415_Double_Free__new_delete_array_char_22": 6965,
      "CWE415_Double_Free__new_delete_array_char_21": 6966,
      "CWE415_Double_Free__new_delete_array_long_22": 6967,
      "CWE415_Double_Free__new_delete_array_long_21": 6968,
      "CWE415_Double_Free__new_delete_array_struct_22": 6969,
      "CWE415_Double_Free__new_delete_array_struct_21": 6970,
      "CWE590_Free_Memory_Not_on_Heap__delete_array_char_": 6971,
      "CWE590_Free_Memory_Not_on_Heap__delete_array_int_": 6972,
      "CWE590_Free_Memory_Not_on_Heap__delete_array_char_alloca_": 6973,
      "CWE590_Free_Memory_Not_on_Heap__delete_array_long_": 6974,
      "CWE590_Free_Memory_Not_on_Heap__delete_array_int_static_": 6975,
      "CWE590_Free_Memory_Not_on_Heap__delete_array_int64_t_static_": 6976,
      "CWE590_Free_Memory_Not_on_Heap__delete_array_long_static_": 6977,
      "CWE590_Free_Memory_Not_on_Heap__delete_array_int_alloca_": 6978,
      "CWE590_Free_Memory_Not_on_Heap__delete_array_int64_t_alloca_": 6979,
      "CWE590_Free_Memory_Not_on_Heap__delete_array_long_alloca_": 6980,
      "CWE590_Free_Memory_Not_on_Heap__delete_array_class_alloca_": 6981,
      "0x40141f": 6982,
      "0x401332": 6983,
      "0x401337": 6984,
      "0x40133f": 6985,
      "0x400f5a": 6986,
      "0x4010a1": 6987,
      "ForGoodSink": 6988,
      "CWE590_Free_Memory_Not_on_Heap__free_int_": 6989,
      "CWE590_Free_Memory_Not_on_Heap__free_char_alloca_": 6990,
      "CWE590_Free_Memory_Not_on_Heap__free_long_": 6991,
      "CWE590_Free_Memory_Not_on_Heap__free_int_static_": 6992,
      "CWE590_Free_Memory_Not_on_Heap__free_int64_t_static_": 6993,
      "CWE590_Free_Memory_Not_on_Heap__free_long_static_": 6994,
      "CWE590_Free_Memory_Not_on_Heap__free_int_alloca_": 6995,
      "CWE590_Free_Memory_Not_on_Heap__free_int64_t_alloca_": 6996,
      "CWE590_Free_Memory_Not_on_Heap__free_long_alloca_": 6997,
      "0x400e3e": 6998,
      "0x400f9e": 6999,
      "CWE590_Free_Memory_Not_on_Heap__delete_struct_alloca_": 7000,
      "0x400aa1": 7001,
      "0x400ac9": 7002,
      "0x400acb": 7003,
      "0x401be8": 7004,
      "placement_new_68_goodG2BData": 7005,
      "0x4027c4": 7006,
      "0x401adc": 7007,
      "0x40143c": 7008,
      "0x40097a": 7009,
      "_placement_new_68_goodG2BData": 7010,
      "CWE590_Free_Memory_Not_on_Heap__delete_array_struct_alloca_": 7011,
      "CWE590_Free_Memory_Not_on_Heap__free_struct_alloca_": 7012,
      "0x401ca0": 7013,
      "0x400b4f": 7014,
      "0x40162c": 7015,
      "0x40195b": 7016,
      "CWE121_Stack_Based_Buffer_Overflow__dest_char_declare_": 7017,
      "CWE121_Stack_Based_Buffer_Overflow__dest_char_declare_cat": 7018,
      "CWE843_Type_Confusion__char_": 7019,
      "CWE843_Type_Confusion__short_": 7020,
      "CWE121_Stack_Based_Buffer_Overflow__dest_char_alloca_cat": 7021,
      "CWE588_Attempt_to_Access_Child_of_Non_Structure_Pointer__struct_": 7022,
      "0x400b3d": 7023,
      "0x401ed0": 7024,
      "0x402d8e": 7025,
      "d9": 7026,
      "0x40179": 7027,
      "0x400f72": 7028,
      "0x400fb6": 7029,
      "0x401012": 7030,
      "0x34a": 7031,
      "0x401473": 7032,
      "0x401246": 7033,
      "0x40124b": 7034,
      "0x40126a": 7035,
      "0x40122b": 7036,
      "0x4013e3": 7037,
      "0x4013c3": 7038,
      "0x4013ec": 7039,
      "0x4013b9": 7040,
      "0x3c9": 7041,
      "0x4011e6": 7042,
      "0x4015ed": 7043,
      "0x401526": 7044,
      "0x4015c7": 7045,
      "0x4015d3": 7046,
      "0x4015fb": 7047,
      "0x4015cf": 7048,
      "0x4015df": 7049,
      "0x2af": 7050,
      "0x400eed": 7051,
      "0x400e69": 7052,
      "0x400e60": 7053,
      "0x400e21": 7054,
      "0x400e97": 7055,
      "0x400ee2": 7056,
      "0x400e6f": 7057,
      "0x2bd": 7058,
      "0x402ff": 7059,
      "0x4016de": 7060,
      "0x401871": 7061,
      "0x401764": 7062,
      "0x4017e2": 7063,
      "0x40108a": 7064,
      "0x400a18": 7065,
      "0x400a34": 7066,
      "0x400a29": 7067,
      "0x400a86": 7068,
      "0x400ab2": 7069,
      "0x401963": 7070,
      "0x4019e8": 7071,
      "0x40113b": 7072,
      "0x400922": 7073,
      "0x400993": 7074,
      "0x4009c8": 7075,
      "0x401a95": 7076,
      "0x402a57": 7077,
      "0x402a17": 7078,
      "0x4029f7": 7079,
      "0x401c20": 7080,
      "0x401cc4": 7081,
      "0x401cc8": 7082,
      "0x400b58": 7083,
      "0x400b2a": 7084,
      "CWE401_Memory_Leak__new_int_22": 7085,
      "CWE401_Memory_Leak__new_int_21": 7086,
      "CWE401_Memory_Leak__new_int64_t_22": 7087,
      "CWE401_Memory_Leak__new_int64_t_21": 7088,
      "0x401582": 7089,
      "0x401306": 7090,
      "0x400c62": 7091,
      "0x4016c7": 7092,
      "0x40134a": 7093,
      "0x402c24": 7094,
      "0x402e14": 7095,
      "0x4030a4": 7096,
      "0x4028b4": 7097,
      "0x402bf4": 7098,
[...]
